{
  "vocab": {
    "<PAD>": 0,
    "<UNK>": 1,
    "<SOT>": 2,
    "<EOT>": 3,
    "<SUBJ>": 4,
    "<PRED>": 5,
    "<OBJ>": 6,
    "<RDF2Text>": 7,
    "<Text2RDF>": 8,
    "<CONTINUERDF>": 9,
    "<MASK>": 10,
    " ": 11,
    "!": 12,
    "\"": 13,
    "#": 14,
    "$": 15,
    "%": 16,
    "&": 17,
    "'": 18,
    "(": 19,
    ")": 20,
    "+": 21,
    ",": 22,
    "-": 23,
    ".": 24,
    "/": 25,
    "0": 26,
    "1": 27,
    "3": 28,
    "4": 29,
    "5": 30,
    "6": 31,
    "7": 32,
    "8": 33,
    "9": 34,
    ":": 35,
    ";": 36,
    "?": 37,
    "G": 38,
    "H": 39,
    "L": 40,
    "Q": 41,
    "V": 42,
    "W": 43,
    "X": 44,
    "Y": 45,
    "Z": 46,
    "[": 47,
    "]": 48,
    "_": 49,
    "a": 50,
    "b": 51,
    "c": 52,
    "d": 53,
    "f": 54,
    "g": 55,
    "h": 56,
    "i": 57,
    "j": 58,
    "k": 59,
    "l": 60,
    "m": 61,
    "n": 62,
    "o": 63,
    "p": 64,
    "q": 65,
    "r": 66,
    "s": 67,
    "u": 68,
    "v": 69,
    "w": 70,
    "y": 71,
    "z": 72,
    "£": 73,
    "ª": 74,
    "½": 75,
    "¿": 76,
    "À": 77,
    "Á": 78,
    "Ä": 79,
    "É": 80,
    "Ó": 81,
    "Ö": 82,
    "ß": 83,
    "à": 84,
    "á": 85,
    "â": 86,
    "ã": 87,
    "ä": 88,
    "å": 89,
    "ç": 90,
    "è": 91,
    "é": 92,
    "ê": 93,
    "ë": 94,
    "í": 95,
    "î": 96,
    "ï": 97,
    "ñ": 98,
    "ò": 99,
    "ó": 100,
    "ô": 101,
    "õ": 102,
    "ö": 103,
    "ø": 104,
    "ù": 105,
    "ú": 106,
    "ü": 107,
    "ý": 108,
    "ā": 109,
    "ă": 110,
    "ć": 111,
    "č": 112,
    "ē": 113,
    "ę": 114,
    "ě": 115,
    "ī": 116,
    "ı": 117,
    "ł": 118,
    "ń": 119,
    "Ō": 120,
    "ō": 121,
    "Ř": 122,
    "ř": 123,
    "Ś": 124,
    "ś": 125,
    "ş": 126,
    "Š": 127,
    "š": 128,
    "ţ": 129,
    "ū": 130,
    "Ž": 131,
    "ž": 132,
    "ǎ": 133,
    "ǒ": 134,
    "ǔ": 135,
    "ǚ": 136,
    "ș": 137,
    "ɑ": 138,
    "ə": 139,
    "ɛ": 140,
    "ɾ": 141,
    "ʁ": 142,
    "ʃ": 143,
    "ʋ": 144,
    "ˈ": 145,
    "ˌ": 146,
    "ː": 147,
    "̃": 148,
    "̍": 149,
    "Б": 150,
    "В": 151,
    "К": 152,
    "П": 153,
    "а": 154,
    "б": 155,
    "в": 156,
    "г": 157,
    "д": 158,
    "е": 159,
    "ж": 160,
    "и": 161,
    "й": 162,
    "к": 163,
    "л": 164,
    "м": 165,
    "н": 166,
    "о": 167,
    "п": 168,
    "р": 169,
    "т": 170,
    "у": 171,
    "ы": 172,
    "я": 173,
    "Օ": 174,
    "ա": 175,
    "յ": 176,
    "ո": 177,
    "ր": 178,
    "ց": 179,
    "ւ": 180,
    "ב": 181,
    "ד": 182,
    "ה": 183,
    "ו": 184,
    "ט": 185,
    "מ": 186,
    "ר": 187,
    "ש": 188,
    "ת": 189,
    "أ": 190,
    "ئ": 191,
    "ا": 192,
    "ب": 193,
    "ة": 194,
    "ت": 195,
    "ح": 196,
    "د": 197,
    "ر": 198,
    "س": 199,
    "ش": 200,
    "ف": 201,
    "ق": 202,
    "ك": 203,
    "ل": 204,
    "م": 205,
    "ن": 206,
    "ه": 207,
    "و": 208,
    "ي": 209,
    "Ḥ": 210,
    "ḥ": 211,
    " ": 212,
    "‎": 213,
    "–": 214,
    "—": 215,
    "‘": 216,
    "’": 217,
    "“": 218,
    "”": 219,
    "₱": 220,
    "₹": 221,
    "あ": 222,
    "い": 223,
    "う": 224,
    "か": 225,
    "が": 226,
    "ぎ": 227,
    "く": 228,
    "さ": 229,
    "し": 230,
    "す": 231,
    "せ": 232,
    "た": 233,
    "だ": 234,
    "ち": 235,
    "つ": 236,
    "と": 237,
    "な": 238,
    "に": 239,
    "の": 240,
    "ふ": 241,
    "ま": 242,
    "め": 243,
    "ら": 244,
    "る": 245,
    "れ": 246,
    "ァ": 247,
    "ア": 248,
    "イ": 249,
    "ゥ": 250,
    "オ": 251,
    "カ": 252,
    "ガ": 253,
    "キ": 254,
    "ゲ": 255,
    "コ": 256,
    "サ": 257,
    "タ": 258,
    "ト": 259,
    "ド": 260,
    "ナ": 261,
    "ネ": 262,
    "ヒ": 263,
    "フ": 264,
    "プ": 265,
    "ポ": 266,
    "ム": 267,
    "メ": 268,
    "ャ": 269,
    "ル": 270,
    "ン": 271,
    "ヴ": 272,
    "ー": 273,
    "一": 274,
    "七": 275,
    "不": 276,
    "了": 277,
    "人": 278,
    "仔": 279,
    "你": 280,
    "保": 281,
    "個": 282,
    "光": 283,
    "内": 284,
    "冷": 285,
    "処": 286,
    "刑": 287,
    "劇": 288,
    "包": 289,
    "北": 290,
    "印": 291,
    "危": 292,
    "叫": 293,
    "号": 294,
    "吃": 295,
    "呼": 296,
    "咖": 297,
    "啡": 298,
    "喫": 299,
    "城": 300,
    "場": 301,
    "大": 302,
    "女": 303,
    "孩": 304,
    "宏": 305,
    "封": 306,
    "小": 307,
    "岬": 308,
    "島": 309,
    "帰": 310,
    "店": 311,
    "張": 312,
    "影": 313,
    "情": 314,
    "愛": 315,
    "手": 316,
    "打": 317,
    "提": 318,
    "擦": 319,
    "故": 320,
    "時": 321,
    "月": 322,
    "有": 323,
    "果": 324,
    "民": 325,
    "没": 326,
    "河": 327,
    "泣": 328,
    "海": 329,
    "熱": 330,
    "爱": 331,
    "版": 332,
    "物": 333,
    "珈": 334,
    "琲": 335,
    "看": 336,
    "磯": 337,
    "移": 338,
    "等": 339,
    "籐": 340,
    "籠": 341,
    "糖": 342,
    "純": 343,
    "能": 344,
    "花": 345,
    "茶": 346,
    "蘭": 347,
    "號": 348,
    "虹": 349,
    "角": 350,
    "語": 351,
    "转": 352,
    "辺": 353,
    "那": 354,
    "郷": 355,
    "防": 356,
    "陳": 357,
    "雨": 358,
    "静": 359,
    "風": 360,
    "계": 361,
    "느": 362,
    "라": 363,
    "르": 364,
    "망": 365,
    "와": 366,
    "춘": 367,
    "카": 368,
    "트": 369,
    "페": 370,
    "할": 371,
    "db": 372,
    " db": 373,
    " dbr": 374,
    "ar": 375,
    "in": 376,
    "er": 377,
    "an": 378,
    " dbo": 379,
    "il": 380,
    "Ca": 381,
    "st": 382,
    "ing": 383,
    "or": 384,
    "ilm": 385,
    "film": 386,
    "arr": 387,
    "on": 388,
    "_(": 389,
    "re": 390,
    "th": 391,
    "arring": 392,
    "starring": 393,
    "di": 394,
    "ri": 395,
    "en": 396,
    "al": 397,
    "ic": 398,
    "at": 399,
    "Car": 400,
    "tor": 401,
    "as": 402,
    "and": 403,
    "ed": 404,
    "the": 405,
    "es": 406,
    "is": 407,
    "el": 408,
    "ro": 409,
    "19": 410,
    "Cap": 411,
    "dbo": 412,
    "dbr": 413,
    "Cal": 414,
    "ta": 415,
    "ter": 416,
    "ra": 417,
    "om": 418,
    "rec": 419,
    " the": 420,
    "direc": 421,
    "le": 422,
    "us": 423,
    "os": 424,
    "ol": 425,
    " a": 426,
    " b": 427,
    "of": 428,
    "am": 429,
    " w": 430,
    " and": 431,
    "uc": 432,
    "tain": 433,
    "it": 434,
    "20": 435,
    "ou": 436,
    "director": 437,
    "Captain": 438,
    "wri": 439,
    "he": 440,
    " film": 441,
    "writer": 442,
    "Cam": 443,
    "ac": 444,
    "Can": 445,
    "ge": 446,
    "pro": 447,
    "ine": 448,
    "duc": 449,
    "ni": 450,
    "produc": 451,
    " s": 452,
    " A": 453,
    " T": 454,
    "ph": 455,
    "ion": 456,
    " by": 457,
    "et": 458,
    "og": 459,
    "Call": 460,
    "bu": 461,
    "producer": 462,
    "ir": 463,
    "usic": 464,
    " in": 465,
    "omp": 466,
    " c": 467,
    " f": 468,
    " S": 469,
    "music": 470,
    "ompos": 471,
    "li": 472,
    "stri": 473,
    "omposer": 474,
    " is": 475,
    "._": 476,
    "stribu": 477,
    "to": 478,
    "ad": 479,
    "mat": 480,
    " of": 481,
    " M": 482,
    "distribu": 483,
    "ent": 484,
    "ay": 485,
    " B": 486,
    "distributor": 487,
    "age": 488,
    "Composer": 489,
    "musicComposer": 490,
    "ogra": 491,
    "gu": 492,
    "ograph": 493,
    "ur": 494,
    "lan": 495,
    "iv": 496,
    "inemat": 497,
    "inematograph": 498,
    "man": 499,
    " F": 500,
    "cinematograph": 501,
    "id": 502,
    "ard": 503,
    "Carr": 504,
    " The": 505,
    "ie": 506,
    "im": 507,
    "ot": 508,
    "un": 509,
    "av": 510,
    "ov": 511,
    " 19": 512,
    " I": 513,
    "ber": 514,
    "'s": 515,
    "cinematography": 516,
    "201": 517,
    "res": 518,
    "ch": 519,
    "edi": 520,
    " p": 521,
    " was": 522,
    "ers": 523,
    "ow": 524,
    "Camp": 525,
    "Jo": 526,
    " C": 527,
    "guage": 528,
    "ted": 529,
    "ne": 530,
    ":_": 531,
    "mer": 532,
    "language": 533,
    "ting": 534,
    " d": 535,
    " h": 536,
    "ill": 537,
    "gh": 538,
    " on": 539,
    " D": 540,
    "Ro": 541,
    " P": 542,
    "Mar": 543,
    "au": 544,
    "ce": 545,
    "St": 546,
    "Carry": 547,
    " L": 548,
    "editing": 549,
    "200": 550,
    " direc": 551,
    "for": 552,
    "ma": 553,
    " H": 554,
    "On": 555,
    "ly": 556,
    " G": 557,
    " directed": 558,
    "tu": 559,
    "est": 560,
    " re": 561,
    "meric": 562,
    "ich": 563,
    "Cab": 564,
    " R": 565,
    "oun": 566,
    "ev": 567,
    " J": 568,
    " W": 569,
    " to": 570,
    "oc": 571,
    "ec": 572,
    " It": 573,
    "Ch": 574,
    "Al": 575,
    "son": 576,
    "Care": 577,
    "ry": 578,
    "ell": 579,
    "ation": 580,
    " m": 581,
    "Carm": 582,
    "ia": 583,
    "Cali": 584,
    "od": 585,
    "ish": 586,
    "ear": 587,
    "hn": 588,
    "ith": 589,
    "ut": 590,
    "ian": 591,
    "ess": 592,
    "io": 593,
    " st": 594,
    "ass": 595,
    "leas": 596,
    "um": 597,
    "ke": 598,
    " t": 599,
    "John": 600,
    "ran": 601,
    "em": 602,
    "The": 603,
    "ive": 604,
    "ul": 605,
    "niv": 606,
    " (": 607,
    "An": 608,
    "all": 609,
    "ab": 610,
    " n": 611,
    "ack": 612,
    "Carmen": 613,
    "rit": 614,
    "ght": 615,
    "irl": 616,
    "nia": 617,
    " as": 618,
    "Caf": 619,
    "ictu": 620,
    "Califor": 621,
    "California": 622,
    "pp": 623,
    "Wil": 624,
    "de": 625,
    "lo": 626,
    "ity": 627,
    "Girl": 628,
    " N": 629,
    "Cad": 630,
    "Cand": 631,
    "actor": 632,
    "ew": 633,
    "ictures": 634,
    " K": 635,
    ",_": 636,
    " E": 637,
    " wh": 638,
    "op": 639,
    "bert": 640,
    "Carniv": 641,
    "la": 642,
    " for": 643,
    "ton": 644,
    "ina": 645,
    "ies": 646,
    "qu": 647,
    "Me": 648,
    "Carnival": 649,
    "ount": 650,
    "Capt": 651,
    "Carol": 652,
    "193": 653,
    "ig": 654,
    "Sh": 655,
    "les": 656,
    "ate": 657,
    "end": 658,
    "ary": 659,
    "ap": 660,
    "ric": 661,
    "194": 662,
    "ille": 663,
    "ag": 664,
    "imdb": 665,
    "imdbI": 666,
    "imdbId": 667,
    "ey": 668,
    "art": 669,
    " 201": 670,
    "Calling": 671,
    "ak": 672,
    "red": 673,
    " th": 674,
    "old": 675,
    "merican": 676,
    "Th": 677,
    "Pictures": 678,
    "ere": 679,
    "by": 680,
    "ath": 681,
    "Candy": 682,
    "199": 683,
    "our": 684,
    "ick": 685,
    " releas": 686,
    " at": 687,
    "sh": 688,
    "tion": 689,
    "ten": 690,
    "Carn": 691,
    " with": 692,
    "Captive": 693,
    " American": 694,
    "ern": 695,
    "liam": 696,
    "so": 697,
    "192": 698,
    "der": 699,
    "merica": 700,
    "De": 701,
    "te": 702,
    "ara": 703,
    "bal": 704,
    "Cann": 705,
    " com": 706,
    "ier": 707,
    "Camille": 708,
    "Robert": 709,
    "ist": 710,
    "ore": 711,
    "aw": 712,
    "ars": 713,
    " starring": 714,
    "ley": 715,
    "rom": 716,
    "eat": 717,
    " it": 718,
    "ud": 719,
    "ong": 720,
    "ff": 721,
    "Ar": 722,
    "Fran": 723,
    "Film": 724,
    "ountry": 725,
    "198": 726,
    " 0": 727,
    "ub": 728,
    "one": 729,
    "ward": 730,
    " released": 731,
    "country": 732,
    "nibal": 733,
    "ame": 734,
    "ren": 735,
    " Film": 736,
    "Un": 737,
    "ani": 738,
    "Café": 739,
    "ck": 740,
    "go": 741,
    "196": 742,
    "ort": 743,
    " V": 744,
    " O": 745,
    "Cannibal": 746,
    "ep": 747,
    "hil": 748,
    "America": 749,
    "ost": 750,
    "Sp": 751,
    "edy": 752,
    "Dav": 753,
    "Camer": 754,
    "William": 755,
    "reen": 756,
    "ark": 757,
    "Le": 758,
    "Carl": 759,
    "ovie": 760,
    "Cl": 761,
    " 200": 762,
    "inal": 763,
    "ast": 764,
    " be": 765,
    "ight": 766,
    "eor": 767,
    " al": 768,
    "irst": 769,
    " 1": 770,
    "ames": 771,
    "ritten": 772,
    "En": 773,
    "Cag": 774,
    "ain": 775,
    "rama": 776,
    "ney": 777,
    "ure": 778,
    " written": 779,
    "El": 780,
    "ger": 781,
    "It": 782,
    "ial": 783,
    "oll": 784,
    "ner": 785,
    " from": 786,
    "gl": 787,
    " stars": 788,
    "Calam": 789,
    "ory": 790,
    "ael": 791,
    " l": 792,
    "ont": 793,
    "ros": 794,
    "All": 795,
    "191": 796,
    "Carav": 797,
    "ean": 798,
    "releas": 799,
    "Girls": 800,
    "aret": 801,
    "ased": 802,
    "Caged": 803,
    " an": 804,
    "adi": 805,
    "II": 806,
    "ox": 807,
    "arry": 808,
    " sc": 809,
    " sh": 810,
    " v": 811,
    "'t": 812,
    " Ch": 813,
    "ide": 814,
    "release": 815,
    "Cain": 816,
    " In": 817,
    "oy": 818,
    "ant": 819,
    "ress": 820,
    "orn": 821,
    "ott": 822,
    "eter": 823,
    "endar": 824,
    "releaseD": 825,
    "releaseDate": 826,
    "Calendar": 827,
    "ach": 828,
    "eries": 829,
    "lay": 830,
    "iro": 831,
    " comedy": 832,
    "aul": 833,
    "lood": 834,
    "ichael": 835,
    "ash": 836,
    " his": 837,
    " g": 838,
    "Con": 839,
    "Card": 840,
    "Career": 841,
    "oman": 842,
    "me": 843,
    "Ed": 844,
    "ld": 845,
    "out": 846,
    "ane": 847,
    "ears": 848,
    "Cars": 849,
    "ment": 850,
    "Cabaret": 851,
    "ki": 852,
    "ove": 853,
    " who": 854,
    "Geor": 855,
    "ru": 856,
    " drama": 857,
    "Cafe": 858,
    " St": 859,
    "Carb": 860,
    " produc": 861,
    "Jack": 862,
    "se": 863,
    "erman": 864,
    " ro": 865,
    "yon": 866,
    "Caravan": 867,
    "ury": 868,
    "ob": 869,
    "Cabin": 870,
    "ony": 871,
    "ond": 872,
    "uck": 873,
    "ai": 874,
    "ino": 875,
    "ex": 876,
    "ord": 877,
    "sc": 878,
    "alian": 879,
    "ang": 880,
    " based": 881,
    " ac": 882,
    "Calamity": 883,
    "co": 884,
    " An": 885,
    "David": 886,
    "ald": 887,
    "Blood": 888,
    "eb": 889,
    "rice": 890,
    "You": 891,
    "ust": 892,
    "Mc": 893,
    " Mar": 894,
    "ti": 895,
    "Canyon": 896,
    "rac": 897,
    "eg": 898,
    "202": 899,
    "ival": 900,
    "ose": 901,
    "tin": 902,
    "James": 903,
    "ah": 904,
    "Di": 905,
    "In": 906,
    "ited": 907,
    "estival": 908,
    "Camping": 909,
    "Gold": 910,
    "rist": 911,
    " 00": 912,
    "Ad": 913,
    "ura": 914,
    "ann": 915,
    "Am": 916,
    "enn": 917,
    "adian": 918,
    "ok": 919,
    "ite": 920,
    "ib": 921,
    "ind": 922,
    "yn": 923,
    "Cape": 924,
    " de": 925,
    "ever": 926,
    "ilent": 927,
    "arles": 928,
    "ood": 929,
    "For": 930,
    "War": 931,
    "ice": 932,
    "Movie": 933,
    "ichard": 934,
    "Sc": 935,
    "oth": 936,
    "Jon": 937,
    "ip": 938,
    "Cor": 939,
    "ari": 940,
    "New": 941,
    " also": 942,
    "Canadian": 943,
    "Ra": 944,
    "are": 945,
    "ates": 946,
    "own": 947,
    "197": 948,
    "Phil": 949,
    "ade": 950,
    "ris": 951,
    "Cairo": 952,
    "Campus": 953,
    "ome": 954,
    "ines": 955,
    " 2": 956,
    "ver": 957,
    "ung": 958,
    " Al": 959,
    "up": 960,
    "City": 961,
    "Stor": 962,
    "Michael": 963,
    " 199": 964,
    "iller": 965,
    "Se": 966,
    "dy": 967,
    "ational": 968,
    "glish": 969,
    "United": 970,
    "ous": 971,
    "night": 972,
    "lin": 973,
    "Paul": 974,
    "Cac": 975,
    "Ma": 976,
    "George": 977,
    "Peter": 978,
    "ated": 979,
    "Cake": 980,
    " pre": 981,
    "ker": 982,
    "Wh": 983,
    "Carolina": 984,
    " \"": 985,
    "Music": 986,
    "ert": 987,
    "Cadet": 988,
    "Caref": 989,
    " 194": 990,
    " produced": 991,
    "rey": 992,
    "ans": 993,
    "iz": 994,
    " ad": 995,
    " Th": 996,
    "Came": 997,
    "uli": 998,
    " Festival": 999,
    "Carrie": 1000,
    "land": 1001,
    "ts": 1002,
    "gan": 1003,
    " feat": 1004,
    "Wal": 1005,
    "Gu": 1006,
    "fi": 1007,
    "een": 1008,
    "Her": 1009,
    "Capit": 1010,
    "Carbon": 1011,
    "ance": 1012,
    "2006": 1013,
    "ana": 1014,
    "ik": 1015,
    "ins": 1016,
    "rench": 1017,
    "ream": 1018,
    "racass": 1019,
    "Love": 1020,
    "esar": 1021,
    " first": 1022,
    "ile": 1023,
    "ush": 1024,
    " 198": 1025,
    "ace": 1026,
    " story": 1027,
    "Martin": 1028,
    "Joe": 1029,
    "ler": 1030,
    "Nor": 1031,
    "eld": 1032,
    "off": 1033,
    " that": 1034,
    " series": 1035,
    "Man": 1036,
    "ower": 1037,
    " 193": 1038,
    "tern": 1039,
    "ugh": 1040,
    "Rock": 1041,
    "Camera": 1042,
    "195": 1043,
    "yp": 1044,
    " Award": 1045,
    "Charles": 1046,
    " its": 1047,
    "ola": 1048,
    "Don": 1049,
    "ces": 1050,
    " nov": 1051,
    " 195": 1052,
    "Richard": 1053,
    "ez": 1054,
    "elli": 1055,
    "ons": 1056,
    "Par": 1057,
    "mith": 1058,
    "omas": 1059,
    "English": 1060,
    "Calc": 1061,
    "Be": 1062,
    "ank": 1063,
    "ical": 1064,
    "Br": 1065,
    " ex": 1066,
    "iss": 1067,
    " ch": 1068,
    " Best": 1069,
    "Bears": 1070,
    "ritish": 1071,
    "He": 1072,
    "Cannon": 1073,
    " Ar": 1074,
    "cl": 1075,
    "Frank": 1076,
    "editor": 1077,
    "Fracass": 1078,
    "Hen": 1079,
    "Mor": 1080,
    " John": 1081,
    " which": 1082,
    "uring": 1083,
    "Caprice": 1084,
    "ini": 1085,
    "die": 1086,
    "az": 1087,
    " her": 1088,
    "und": 1089,
    "Sam": 1090,
    " Sh": 1091,
    "Bill": 1092,
    " li": 1093,
    " wor": 1094,
    "ree": 1095,
    "ee": 1096,
    "Mo": 1097,
    "Cargo": 1098,
    "Candyman": 1099,
    "ise": 1100,
    "ave": 1101,
    " music": 1102,
    "Caroline": 1103,
    "ale": 1104,
    "Bar": 1105,
    "Co": 1106,
    " screen": 1107,
    "Cage": 1108,
    " or": 1109,
    "ett": 1110,
    " rec": 1111,
    "ence": 1112,
    "composer": 1113,
    "ito": 1114,
    "berg": 1115,
    "lesh": 1116,
    " 196": 1117,
    " novel": 1118,
    " y": 1119,
    "Ste": 1120,
    "No": 1121,
    "ele": 1122,
    "lic": 1123,
    "Calm": 1124,
    "let": 1125,
    "any": 1126,
    "ada": 1127,
    "cer": 1128,
    "Col": 1129,
    "atta": 1130,
    "Kid": 1131,
    "da": 1132,
    "idnight": 1133,
    "Calcut": 1134,
    "Calcutta": 1135,
    "ven": 1136,
    " 197": 1137,
    "Anne": 1138,
    "Story": 1139,
    "ternational": 1140,
    "under": 1141,
    "My": 1142,
    " Wil": 1143,
    "Carnage": 1144,
    "ock": 1145,
    " k": 1146,
    "2017": 1147,
    "bo": 1148,
    "ug": 1149,
    "..": 1150,
    "Rog": 1151,
    "Careful": 1152,
    "tertain": 1153,
    " di": 1154,
    "oci": 1155,
    "ision": 1156,
    "ross": 1157,
    "ball": 1158,
    "udi": 1159,
    "Caesar": 1160,
    "Italian": 1161,
    "osa": 1162,
    "rime": 1163,
    "lex": 1164,
    "esp": 1165,
    "Thomas": 1166,
    "ime": 1167,
    "ray": 1168,
    "uk": 1169,
    "anda": 1170,
    "ita": 1171,
    "cinematographer": 1172,
    "Cle": 1173,
    "oul": 1174,
    "Sol": 1175,
    "Pat": 1176,
    "Films": 1177,
    "Gi": 1178,
    "Jan": 1179,
    "kan": 1180,
    "vel": 1181,
    "tertainment": 1182,
    "era": 1183,
    ").": 1184,
    "fter": 1185,
    "King": 1186,
    "lor": 1187,
    "raz": 1188,
    "Bro": 1189,
    "aniel": 1190,
    "erial": 1191,
    "uss": 1192,
    "anish": 1193,
    "Midnight": 1194,
    "Rob": 1195,
    "inn": 1196,
    "elev": 1197,
    "att": 1198,
    "urn": 1199,
    " tit": 1200,
    " ab": 1201,
    "And": 1202,
    " prem": 1203,
    " play": 1204,
    "ublic": 1205,
    "Silent": 1206,
    "ety": 1207,
    "ember": 1208,
    " Sp": 1209,
    "2022": 1210,
    "Harry": 1211,
    "len": 1212,
    "fred": 1213,
    "Capric": 1214,
    "Er": 1215,
    " director": 1216,
    "ery": 1217,
    "Kh": 1218,
    "Cannonball": 1219,
    "ky": 1220,
    "Hel": 1221,
    "Van": 1222,
    "Carib": 1223,
    "Ros": 1224,
    "Musical": 1225,
    "Up": 1226,
    "tress": 1227,
    "Fox": 1228,
    " Ac": 1229,
    "amb": 1230,
    "elevision": 1231,
    "ela": 1232,
    "nivers": 1233,
    "Jatta": 1234,
    " Y": 1235,
    "une": 1236,
    "oung": 1237,
    "00": 1238,
    "ally": 1239,
    "ely": 1240,
    "eff": 1241,
    "ese": 1242,
    "Wild": 1243,
    "Sw": 1244,
    "),": 1245,
    "berto": 1246,
    "oph": 1247,
    "Lou": 1248,
    " 20": 1249,
    "oseph": 1250,
    " On": 1251,
    "Har": 1252,
    " were": 1253,
    "ei": 1254,
    "Qu": 1255,
    "2018": 1256,
    "entury": 1257,
    "1935": 1258,
    " ma": 1259,
    "ire": 1260,
    "Christ": 1261,
    "Ben": 1262,
    "tus": 1263,
    "ign": 1264,
    "1947": 1265,
    "2015": 1266,
    " pro": 1267,
    " De": 1268,
    "Cactus": 1269,
    "erry": 1270,
    "Sim": 1271,
    "oot": 1272,
    "Su": 1273,
    "oward": 1274,
    "Re": 1275,
    "cu": 1276,
    "ater": 1277,
    "erson": 1278,
    "Capital": 1279,
    "Canada": 1280,
    "Bri": 1281,
    "Hol": 1282,
    " le": 1283,
    "mo": 1284,
    "uch": 1285,
    "Pol": 1286,
    "Sch": 1287,
    "eless": 1288,
    "por": 1289,
    "aled": 1290,
    "Ken": 1291,
    "Carson": 1292,
    "Ne": 1293,
    "illac": 1294,
    "yan": 1295,
    "1914": 1296,
    " about": 1297,
    "ollow": 1298,
    "Is": 1299,
    "fer": 1300,
    "Careless": 1301,
    "Capone": 1302,
    "Edward": 1303,
    "ener": 1304,
    "ero": 1305,
    "2003": 1306,
    "Fracasse": 1307,
    "Ab": 1308,
    "Your": 1309,
    "Kir": 1310,
    "ect": 1311,
    "ocum": 1312,
    "Univers": 1313,
    "play": 1314,
    "aj": 1315,
    " same": 1316,
    "vent": 1317,
    "Caddy": 1318,
    "Caddysh": 1319,
    "Caddyshack": 1320,
    "ocument": 1321,
    "ics": 1322,
    "At": 1323,
    "May": 1324,
    " Fran": 1325,
    "Jane": 1326,
    "Fred": 1327,
    " short": 1328,
    "Met": 1329,
    "ived": 1330,
    "Henry": 1331,
    "uel": 1332,
    "Woman": 1333,
    "Hal": 1334,
    "wn": 1335,
    "Lu": 1336,
    "ompany": 1337,
    "rim": 1338,
    "Daniel": 1339,
    "mann": 1340,
    "inc": 1341,
    "1984": 1342,
    " follow": 1343,
    " Pictures": 1344,
    " con": 1345,
    " he": 1346,
    "elly": 1347,
    "fe": 1348,
    "Camel": 1349,
    "liott": 1350,
    "Dream": 1351,
    "Mac": 1352,
    "Smith": 1353,
    "Fear": 1354,
    "ourney": 1355,
    "Sal": 1356,
    "Ser": 1357,
    "Entertainment": 1358,
    " 3": 1359,
    " rece": 1360,
    " app": 1361,
    " per": 1362,
    "ws": 1363,
    "TV": 1364,
    "Calv": 1365,
    "thur": 1366,
    "rop": 1367,
    "Clau": 1368,
    " after": 1369,
    "ociety": 1370,
    "amount": 1371,
    "ution": 1372,
    "ía": 1373,
    "77": 1374,
    "13": 1375,
    " one": 1376,
    " se": 1377,
    "serial": 1378,
    "Dr": 1379,
    " made": 1380,
    "lot": 1381,
    " Captain": 1382,
    "First": 1383,
    "del": 1384,
    "illion": 1385,
    "Bo": 1386,
    "ures": 1387,
    "be": 1388,
    " but": 1389,
    " had": 1390,
    " British": 1391,
    "maker": 1392,
    "ason": 1393,
    "2011": 1394,
    "Bu": 1395,
    "Jean": 1396,
    "Williams": 1397,
    "ston": 1398,
    "series": 1399,
    " French": 1400,
    "abel": 1401,
    "1926": 1402,
    "2021": 1403,
    "nie": 1404,
    " title": 1405,
    "neth": 1406,
    "ious": 1407,
    " incl": 1408,
    "ordon": 1409,
    "epublic": 1410,
    "Fl": 1411,
    "Jones": 1412,
    "Sak": 1413,
    "ther": 1414,
    "Cameo": 1415,
    "Cadillac": 1416,
    "Fury": 1417,
    "Fever": 1418,
    "ake": 1419,
    "Ray": 1420,
    "ocumentary": 1421,
    "ror": 1422,
    " musical": 1423,
    "air": 1424,
    " set": 1425,
    " sp": 1426,
    " co": 1427,
    "aradi": 1428,
    "cap": 1429,
    "uary": 1430,
    "ien": 1431,
    "ori": 1432,
    "ppe": 1433,
    "Rogers": 1434,
    " received": 1435,
    "Hor": 1436,
    "Mal": 1437,
    "Joseph": 1438,
    "bell": 1439,
    "Mer": 1440,
    "yle": 1441,
    "ily": 1442,
    " their": 1443,
    "Jac": 1444,
    "nown": 1445,
    "Kirby": 1446,
    "Newman": 1447,
    "Candi": 1448,
    "inema": 1449,
    "ied": 1450,
    "ford": 1451,
    "Captu": 1452,
    "umb": 1453,
    "ewis": 1454,
    "rad": 1455,
    "che": 1456,
    "mond": 1457,
    " United": 1458,
    " ne": 1459,
    "1936": 1460,
    " En": 1461,
    "ivil": 1462,
    "1934": 1463,
    "Lau": 1464,
    "Mur": 1465,
    "Tom": 1466,
    "Vic": 1467,
    "2014": 1468,
    "etw": 1469,
    "We": 1470,
    "ool": 1471,
    "Cadets": 1472,
    "na": 1473,
    "led": 1474,
    "Cur": 1475,
    "Society": 1476,
    "ads": 1477,
    "Luc": 1478,
    "Bl": 1479,
    "over": 1480,
    "Flesh": 1481,
    "rie": 1482,
    "osaur": 1483,
    "Calle": 1484,
    "54": 1485,
    "Juli": 1486,
    "ions": 1487,
    "ps": 1488,
    " films": 1489,
    " appear": 1490,
    "elf": 1491,
    "field": 1492,
    "su": 1493,
    "wo": 1494,
    "ild": 1495,
    "ait": 1496,
    "asc": 1497,
    "nest": 1498,
    "ve": 1499,
    "Lee": 1500,
    " screenplay": 1501,
    "kin": 1502,
    " Car": 1503,
    "eve": 1504,
    "Em": 1505,
    "Rick": 1506,
    "isney": 1507,
    "omen": 1508,
    "ando": 1509,
    "To": 1510,
    "Carnal": 1511,
    "ould": 1512,
    "tto": 1513,
    "Bern": 1514,
    "Mi": 1515,
    "Howard": 1516,
    " West": 1517,
    "Bal": 1518,
    "dia": 1519,
    " sec": 1520,
    "ots": 1521,
    "Alfred": 1522,
    " Sc": 1523,
    " nom": 1524,
    " includ": 1525,
    "Fri": 1526,
    "Journey": 1527,
    "Cec": 1528,
    "Boy": 1529,
    "Mario": 1530,
    "Mag": 1531,
    "Paradi": 1532,
    "ady": 1533,
    "Carlos": 1534,
    "ron": 1535,
    "Gra": 1536,
    "enz": 1537,
    "2008": 1538,
    "phen": 1539,
    "ón": 1540,
    "Under": 1541,
    "Cardcap": 1542,
    "Cardcaptor": 1543,
    "ters": 1544,
    "Des": 1545,
    "Per": 1546,
    "Cardinal": 1547,
    "gain": 1548,
    "ole": 1549,
    "Carnosaur": 1550,
    "ette": 1551,
    " International": 1552,
    " char": 1553,
    "poration": 1554,
    "vas": 1555,
    " known": 1556,
    " has": 1557,
    "way": 1558,
    "Elliott": 1559,
    "Jos": 1560,
    "Sakura": 1561,
    "Warner": 1562,
    "rick": 1563,
    "ene": 1564,
    "Arthur": 1565,
    "Ernest": 1566,
    "umbia": 1567,
    "Reg": 1568,
    "ham": 1569,
    "1968": 1570,
    " Ca": 1571,
    "Caribb": 1572,
    "Caribbean": 1573,
    " sequ": 1574,
    " release": 1575,
    " un": 1576,
    "ica": 1577,
    "ati": 1578,
    "gula": 1579,
    "illa": 1580,
    "German": 1581,
    "eth": 1582,
    "ques": 1583,
    "que": 1584,
    "emy": 1585,
    "Miller": 1586,
    "rough": 1587,
    "zz": 1588,
    " silent": 1589,
    "Universal": 1590,
    "1993": 1591,
    "get": 1592,
    " adap": 1593,
    " States": 1594,
    "filmmaker": 1595,
    "actress": 1596,
    " premier": 1597,
    "1915": 1598,
    "Luck": 1599,
    "án": 1600,
    "ism": 1601,
    " U": 1602,
    "Joan": 1603,
    "ato": 1604,
    "iginal": 1605,
    " not": 1606,
    "Caligula": 1607,
    "rip": 1608,
    "upp": 1609,
    "2010": 1610,
    " 18": 1611,
    " two": 1612,
    " premiered": 1613,
    "bara": 1614,
    "per": 1615,
    " name": 1616,
    "venture": 1617,
    "aum": 1618,
    " documentary": 1619,
    " charac": 1620,
    "11": 1621,
    " Awards": 1622,
    " movie": 1623,
    " bec": 1624,
    "Mon": 1625,
    "Hear": 1626,
    "Pier": 1627,
    "Eric": 1628,
    "Marc": 1629,
    "Paramount": 1630,
    "Crime": 1631,
    "Bros": 1632,
    "Scott": 1633,
    "Sav": 1634,
    "Bur": 1635,
    "Win": 1636,
    "ens": 1637,
    "Otto": 1638,
    "Thunder": 1639,
    "dier": 1640,
    "rand": 1641,
    "2020": 1642,
    " roman": 1643,
    "Rod": 1644,
    "Kidd": 1645,
    " War": 1646,
    "Ger": 1647,
    "well": 1648,
    " William": 1649,
    " role": 1650,
    "head": 1651,
    "1946": 1652,
    "iness": 1653,
    "Captains": 1654,
    " perfor": 1655,
    " part": 1656,
    " des": 1657,
    "ming": 1658,
    "Civil": 1659,
    "ix": 1660,
    "igh": 1661,
    "Anton": 1662,
    "ountain": 1663,
    "1996": 1664,
    "10": 1665,
    " world": 1666,
    "yd": 1667,
    "Donald": 1668,
    "screen": 1669,
    "French": 1670,
    "Century": 1671,
    "ena": 1672,
    " hor": 1673,
    "Jr": 1674,
    "Dog": 1675,
    "ya": 1676,
    "Soul": 1677,
    " million": 1678,
    "ound": 1679,
    "1927": 1680,
    "Ber": 1681,
    "Sto": 1682,
    " Le": 1683,
    "Mark": 1684,
    " comp": 1685,
    "ster": 1686,
    "rew": 1687,
    "vs": 1688,
    "evin": 1689,
    "ano": 1690,
    "omic": 1691,
    " James": 1692,
    " Italian": 1693,
    " original": 1694,
    " 192": 1695,
    "roduc": 1696,
    " Ad": 1697,
    "reg": 1698,
    "Wait": 1699,
    "Victor": 1700,
    "Mat": 1701,
    "andy": 1702,
    "away": 1703,
    "athan": 1704,
    "orld": 1705,
    "1948": 1706,
    "ult": 1707,
    " Robert": 1708,
    " Ed": 1709,
    " Carry": 1710,
    "12": 1711,
    "Roman": 1712,
    "Robin": 1713,
    " crit": 1714,
    "gent": 1715,
    "Far": 1716,
    "Gordon": 1717,
    "Park": 1718,
    "Marines": 1719,
    "Republic": 1720,
    "tic": 1721,
    "Mass": 1722,
    "Sid": 1723,
    "cia": 1724,
    "itz": 1725,
    "py": 1726,
    "cio": 1727,
    "fl": 1728,
    "nor": 1729,
    " theat": 1730,
    "my": 1731,
    " sequel": 1732,
    "ork": 1733,
    "Canvas": 1734,
    " Stu": 1735,
    " German": 1736,
    "ired": 1737,
    "2002": 1738,
    "ists": 1739,
    "ré": 1740,
    "bsc": 1741,
    "bscura": 1742,
    "itch": 1743,
    "abeth": 1744,
    "ca": 1745,
    "American": 1746,
    "ges": 1747,
    "ue": 1748,
    "cy": 1749,
    "razil": 1750,
    " lo": 1751,
    "side": 1752,
    "ail": 1753,
    "1937": 1754,
    "Spanish": 1755,
    " Canadian": 1756,
    "ardo": 1757,
    "etween": 1758,
    "ries": 1759,
    "king": 1760,
    "ling": 1761,
    " El": 1762,
    " Geor": 1763,
    "Kar": 1764,
    "ty": 1765,
    "Mountain": 1766,
    "Mad": 1767,
    " won": 1768,
    " 2018": 1769,
    "Nic": 1770,
    "Kenneth": 1771,
    " nomin": 1772,
    "Alex": 1773,
    "Corporation": 1774,
    "ideo": 1775,
    "Ron": 1776,
    "Stra": 1777,
    "App": 1778,
    "rich": 1779,
    " are": 1780,
    "ummer": 1781,
    "gio": 1782,
    "sp": 1783,
    "22": 1784,
    "Abel": 1785,
    "ather": 1786,
    "Caran": 1787,
    "if": 1788,
    "iver": 1789,
    " horror": 1790,
    "onse": 1791,
    "animat": 1792,
    "rat": 1793,
    "abes": 1794,
    " Acad": 1795,
    " Academy": 1796,
    " New": 1797,
    "Dou": 1798,
    "Columbia": 1799,
    "Lov": 1800,
    "ves": 1801,
    "vie": 1802,
    "gi": 1803,
    "ithout": 1804,
    "Wash": 1805,
    " la": 1806,
    "oe": 1807,
    "orth": 1808,
    " America": 1809,
    "illon": 1810,
    "Captiv": 1811,
    " $": 1812,
    "wood": 1813,
    "unic": 1814,
    "right": 1815,
    "atra": 1816,
    "lie": 1817,
    "ril": 1818,
    "1939": 1819,
    "olin": 1820,
    "Louis": 1821,
    "Obscura": 1822,
    "+_": 1823,
    "Chris": 1824,
    "ase": 1825,
    "Alan": 1826,
    "sy": 1827,
    "Studi": 1828,
    "Day": 1829,
    "Lewis": 1830,
    "1921": 1831,
    "bur": 1832,
    "January": 1833,
    "Ex": 1834,
    "mas": 1835,
    "09": 1836,
    "Bh": 1837,
    "ucc": 1838,
    "Adam": 1839,
    "Mir": 1840,
    "Mail": 1841,
    "Tro": 1842,
    "Art": 1843,
    " feature": 1844,
    "other": 1845,
    "Cappy": 1846,
    "oes": 1847,
    "Wilson": 1848,
    " 2015": 1849,
    " 2014": 1850,
    "Jeff": 1851,
    "Mille": 1852,
    "ittor": 1853,
    "2009": 1854,
    "fess": 1855,
    "Antonio": 1856,
    "thony": 1857,
    " Michael": 1858,
    " debu": 1859,
    "Mel": 1860,
    "esponse": 1861,
    " television": 1862,
    " Sep": 1863,
    " Di": 1864,
    "Or": 1865,
    " 2016": 1866,
    "Tra": 1867,
    " ear": 1868,
    "screenwriter": 1869,
    "af": 1870,
    " j": 1871,
    " been": 1872,
    "ss": 1873,
    "04": 1874,
    "amp": 1875,
    "Cannes": 1876,
    "ypso": 1877,
    "each": 1878,
    "onz": 1879,
    "Bernard": 1880,
    "opher": 1881,
    "Jacques": 1882,
    "Gl": 1883,
    "Dem": 1884,
    "_+_": 1885,
    "Response": 1886,
    "ata": 1887,
    " Cl": 1888,
    " Dav": 1889,
    "Cou": 1890,
    "Ricks": 1891,
    "Cecil": 1892,
    "Run": 1893,
    "Dick": 1894,
    "Hard": 1895,
    "Stephen": 1896,
    " features": 1897,
    "use": 1898,
    "opy": 1899,
    "Pra": 1900,
    "Cadav": 1901,
    "Carlito": 1902,
    "Lady": 1903,
    "Hugh": 1904,
    "dios": 1905,
    "Calypso": 1906,
    "ugu": 1907,
    "Hu": 1908,
    "Arm": 1909,
    "Cabby": 1910,
    "amel": 1911,
    "Sl": 1912,
    "Captured": 1913,
    "hy": 1914,
    "oney": 1915,
    " Sept": 1916,
    " September": 1917,
    " Mc": 1918,
    " man": 1919,
    "ka": 1920,
    " roles": 1921,
    "assage": 1922,
    "ias": 1923,
    "Leon": 1924,
    "wyn": 1925,
    "jam": 1926,
    "outh": 1927,
    "win": 1928,
    "La": 1929,
    "day": 1930,
    "ye": 1931,
    "otion": 1932,
    "nion": 1933,
    "Fer": 1934,
    " art": 1935,
    "ving": 1936,
    "reet": 1937,
    "anna": 1938,
    " during": 1939,
    " all": 1940,
    " loc": 1941,
    "ichol": 1942,
    "ario": 1943,
    "Pierre": 1944,
    "inds": 1945,
    "Heat": 1946,
    "gin": 1947,
    "umber": 1948,
    "Nik": 1949,
    "Studios": 1950,
    "Marvel": 1951,
    "North": 1952,
    "Stop": 1953,
    "less": 1954,
    "osta": 1955,
    "iving": 1956,
    "Im": 1957,
    "ja": 1958,
    "ations": 1959,
    "Paradis": 1960,
    "Bac": 1961,
    "acre": 1962,
    "Rain": 1963,
    "Dead": 1964,
    "Without": 1965,
    "Carlo": 1966,
    "arris": 1967,
    "ors": 1968,
    " Z": 1969,
    "Roth": 1970,
    " hist": 1971,
    "She": 1972,
    "99": 1973,
    "eature": 1974,
    "iles": 1975,
    "tes": 1976,
    "71": 1977,
    "her": 1978,
    "Cameron": 1979,
    "van": 1980,
    "2016": 1981,
    "ota": 1982,
    "uth": 1983,
    " shot": 1984,
    " Western": 1985,
    "1991": 1986,
    "ode": 1987,
    "lips": 1988,
    " en": 1989,
    " op": 1990,
    " off": 1991,
    "Jung": 1992,
    " Studios": 1993,
    "Ap": 1994,
    "Cala": 1995,
    "Stan": 1996,
    " ar": 1997,
    "Lo": 1998,
    "riller": 1999,
    "aly": 2000,
    " only": 2001,
    "1994": 2002,
    "venger": 2003,
    "band": 2004,
    "Caramel": 2005,
    "1944": 2006,
    "glas": 2007,
    "1990": 2008,
    "Cannery": 2009,
    "ms": 2010,
    "ila": 2011,
    "tors": 2012,
    "British": 2013,
    "now": 2014,
    "Sing": 2015,
    "octor": 2016,
    "Forest": 2017,
    "Vac": 2018,
    "Cra": 2019,
    " time": 2020,
    " Phil": 2021,
    " cont": 2022,
    " ent": 2023,
    "apan": 2024,
    " second": 2025,
    "ote": 2026,
    "Oli": 2027,
    "Distribu": 2028,
    "Souls": 2029,
    "Moore": 2030,
    "Straight": 2031,
    "Ahead": 2032,
    " lead": 2033,
    "itt": 2034,
    "Mand": 2035,
    "Est": 2036,
    "Gener": 2037,
    "!_": 2038,
    "Dix": 2039,
    "Bra": 2040,
    "Gill": 2041,
    "vad": 2042,
    " production": 2043,
    "Passage": 2044,
    "Ice": 2045,
    " this": 2046,
    "Winter": 2047,
    "Soldier": 2048,
    "ocket": 2049,
    "wan": 2050,
    "01": 2051,
    "ants": 2052,
    "osh": 2053,
    " exp": 2054,
    " tra": 2055,
    " This": 2056,
    " romantic": 2057,
    " into": 2058,
    " up": 2059,
    "ient": 2060,
    "views": 2061,
    "ras": 2062,
    "ds": 2063,
    " Oc": 2064,
    " being": 2065,
    "Fe": 2066,
    "Mau": 2067,
    "1943": 2068,
    "Brian": 2069,
    "born": 2070,
    "ny": 2071,
    "ée": 2072,
    "Roy": 2073,
    "onga": 2074,
    "Goldwyn": 2075,
    "Mayer": 2076,
    "ues": 2077,
    " Gold": 2078,
    " where": 2079,
    "iders": 2080,
    "Capriccio": 2081,
    " cast": 2082,
    " life": 2083,
    "2012": 2084,
    " Wh": 2085,
    "bl": 2086,
    "ustr": 2087,
    "Jen": 2088,
    "Mike": 2089,
    "ste": 2090,
    "Carp": 2091,
    "Dy": 2092,
    "dian": 2093,
    "ders": 2094,
    "Hum": 2095,
    "awt": 2096,
    "awtrey": 2097,
    "from": 2098,
    "ret": 2099,
    "Kelly": 2100,
    "Style": 2101,
    "China": 2102,
    "Dan": 2103,
    "Cuc": 2104,
    "Mak": 2105,
    "Ash": 2106,
    "_–": 2107,
    "_–_": 2108,
    "Kevin": 2109,
    "...": 2110,
    "Bacon": 2111,
    "Way": 2112,
    "Union": 2113,
    "ough": 2114,
    "chi": 2115,
    " action": 2116,
    " debut": 2117,
    "Calvary": 2118,
    "Young": 2119,
    "One": 2120,
    "Capturing": 2121,
    "ipp": 2122,
    "idd": 2123,
    "Carny": 2124,
    "Carried": 2125,
    "Help": 2126,
    " Paul": 2127,
    "Canned": 2128,
    "dom": 2129,
    "Connor": 2130,
    "1942": 2131,
    "rage": 2132,
    "als": 2133,
    "iè": 2134,
    "Costa": 2135,
    "alam": 2136,
    "shall": 2137,
    "anni": 2138,
    " adventure": 2139,
    " theatric": 2140,
    "Cour": 2141,
    "com": 2142,
    "anta": 2143,
    "udd": 2144,
    "Cla": 2145,
    " Me": 2146,
    " May": 2147,
    " Jack": 2148,
    "ester": 2149,
    " 2012": 2150,
    " between": 2151,
    "amonga": 2152,
    " cre": 2153,
    " Octo": 2154,
    " October": 2155,
    "03": 2156,
    " Gu": 2157,
    "1986": 2158,
    "Capitol": 2159,
    "usband": 2160,
    "Calamari": 2161,
    "Cabez": 2162,
    "ichel": 2163,
    "ella": 2164,
    "1963": 2165,
    "ble": 2166,
    " 2008": 2167,
    "urt": 2168,
    "Rockies": 2169,
    "lis": 2170,
    "opatra": 2171,
    "anks": 2172,
    "aro": 2173,
    "eacher": 2174,
    "osc": 2175,
    "Del": 2176,
    "oss": 2177,
    "Mabel": 2178,
    "Christopher": 2179,
    "ities": 2180,
    "Ever": 2181,
    "Out": 2182,
    "Barbara": 2183,
    " histor": 2184,
    "Back": 2185,
    "Cast": 2186,
    "Name": 2187,
    "olf": 2188,
    "Raiders": 2189,
    "uan": 2190,
    "gel": 2191,
    "Disney": 2192,
    " res": 2193,
    "Ram": 2194,
    "Cucamonga": 2195,
    " thriller": 2196,
    " Ap": 2197,
    "Cinema": 2198,
    "Cy": 2199,
    "agger": 2200,
    "Avenger": 2201,
    "Funic": 2202,
    "Bus": 2203,
    "cis": 2204,
    "irley": 2205,
    "Tal": 2206,
    "1992": 2207,
    "Cane": 2208,
    "Gab": 2209,
    "2013": 2210,
    "za": 2211,
    "jun": 2212,
    "reaming": 2213,
    "emp": 2214,
    " character": 2215,
    " vers": 2216,
    " Carmen": 2217,
    "Barr": 2218,
    " Ber": 2219,
    "con": 2220,
    " 2013": 2221,
    "ope": 2222,
    " ta": 2223,
    "uce": 2224,
    "Cach": 2225,
    "ambola": 2226,
    "05": 2227,
    "Gerald": 2228,
    "add": 2229,
    "Russ": 2230,
    "diru": 2231,
    "self": 2232,
    "Summer": 2233,
    "Eddie": 2234,
    "Caboc": 2235,
    "Cabocla": 2236,
    "eck": 2237,
    "Calap": 2238,
    "Calapor": 2239,
    "Ter": 2240,
    "esses": 2241,
    " .": 2242,
    "han": 2243,
    "Green": 2244,
    " work": 2245,
    " while": 2246,
    " cons": 2247,
    " including": 2248,
    "ats": 2249,
    "med": 2250,
    " Wal": 2251,
    "1929": 2252,
    " Re": 2253,
    " Mart": 2254,
    "fore": 2255,
    " Har": 2256,
    "rack": 2257,
    "Nichol": 2258,
    "encer": 2259,
    "Company": 2260,
    "Bass": 2261,
    "Du": 2262,
    "Dor": 2263,
    "Tony": 2264,
    "quest": 2265,
    "Pe": 2266,
    "Tak": 2267,
    "Shots": 2268,
    "eta": 2269,
    "umar": 2270,
    "Courage": 2271,
    "Ha": 2272,
    "merc": 2273,
    "Hot": 2274,
    "Joke": 2275,
    "Norman": 2276,
    "2005": 2277,
    "Loving": 2278,
    "Capote": 2279,
    "kes": 2280,
    "Clos": 2281,
    "uri": 2282,
    "Power": 2283,
    "Cleopatra": 2284,
    "Doctor": 2285,
    "Confess": 2286,
    "Sky": 2287,
    "Suite": 2288,
    "2000": 2289,
    "Teacher": 2290,
    "unt": 2291,
    "atio": 2292,
    "This": 2293,
    "Dixie": 2294,
    "Cant": 2295,
    "boat": 2296,
    "Miranda": 2297,
    "orra": 2298,
    " final": 2299,
    "zma": 2300,
    " crime": 2301,
    " David": 2302,
    " under": 2303,
    "ootp": 2304,
    " can": 2305,
    " us": 2306,
    "aron": 2307,
    " performan": 2308,
    "ying": 2309,
    "ram": 2310,
    "Khy": 2311,
    "Khyber": 2312,
    " Produc": 2313,
    "Carbine": 2314,
    "ual": 2315,
    "aki": 2316,
    "ache": 2317,
    "orman": 2318,
    "har": 2319,
    "vey": 2320,
    "oon": 2321,
    "Carefree": 2322,
    "BC": 2323,
    "tit": 2324,
    "Caravans": 2325,
    "Anthony": 2326,
    "nifer": 2327,
    "ents": 2328,
    "Caresses": 2329,
    "Bob": 2330,
    "Carne": 2331,
    " Mor": 2332,
    " animat": 2333,
    " follows": 2334,
    " March": 2335,
    "Capricorn": 2336,
    "rence": 2337,
    "ugust": 2338,
    "Mil": 2339,
    "gen": 2340,
    "ootpath": 2341,
    " distribu": 2342,
    " reviews": 2343,
    "ences": 2344,
    " Nov": 2345,
    "Eli": 2346,
    "Der": 2347,
    "Tim": 2348,
    "uppor": 2349,
    " King": 2350,
    "mos": 2351,
    "tions": 2352,
    "pic": 2353,
    "Caché": 2354,
    "oster": 2355,
    "1965": 2356,
    "Queen": 2357,
    "ince": 2358,
    "ses": 2359,
    "Camino": 2360,
    "ardless": 2361,
    "val": 2362,
    "Camin": 2363,
    "Caminito": 2364,
    "abu": 2365,
    "enny": 2366,
    "ornbl": 2367,
    "ornblower": 2368,
    "arrington": 2369,
    "Cardi": 2370,
    "bau": 2371,
    "2019": 2372,
    "Wall": 2373,
    "Nag": 2374,
    "Metro": 2375,
    "itter": 2376,
    "Sus": 2377,
    "Nikos": 2378,
    "Dyzma": 2379,
    "Hearts": 2380,
    " adapt": 2381,
    "Capern": 2382,
    "Capernaum": 2383,
    "Hay": 2384,
    "Blues": 2385,
    "Phillips": 2386,
    "Barry": 2387,
    " historical": 2388,
    "III": 2389,
    " Bar": 2390,
    "even": 2391,
    " Frank": 2392,
    "Jam": 2393,
    "Steve": 2394,
    "Sof": 2395,
    "Gar": 2396,
    "elec": 2397,
    "Walter": 2398,
    "Corelli": 2399,
    "Mandolin": 2400,
    "isa": 2401,
    "Abu": 2402,
    "Ko": 2403,
    "José": 2404,
    "1987": 2405,
    "Cir": 2406,
    "urns": 2407,
    "Hans": 2408,
    " June": 2409,
    "02": 2410,
    "Police": 2411,
    "Harold": 2412,
    "Fracassa": 2413,
    "upporting": 2414,
    "States": 2415,
    "Claudel": 2416,
    " Hol": 2417,
    "Albert": 2418,
    "Mast": 2419,
    "Nation": 2420,
    "Fish": 2421,
    "Balkan": 2422,
    "Caro": 2423,
    "othy": 2424,
    "ennis": 2425,
    "Carambola": 2426,
    "ider": 2427,
    "Mart": 2428,
    "ieu": 2429,
    "aman": 2430,
    "cuit": 2431,
    "assion": 2432,
    "lanca": 2433,
    "Caccia": 2434,
    "ech": 2435,
    "geria": 2436,
    "iny": 2437,
    "amil": 2438,
    "1976": 2439,
    "ding": 2440,
    "alia": 2441,
    "etti": 2442,
    "elle": 2443,
    " rep": 2444,
    " car": 2445,
    " Cam": 2446,
    " 2019": 2447,
    "iction": 2448,
    " Charles": 2449,
    "rue": 2450,
    " 5": 2451,
    " ep": 2452,
    "olo": 2453,
    " over": 2454,
    "hild": 2455,
    " 4": 2456,
    "erv": 2457,
    "ewell": 2458,
    " bro": 2459,
    "ayalam": 2460,
    " 2017": 2461,
    "ander": 2462,
    "Canal": 2463,
    "Underp": 2464,
    "Underpants": 2465,
    "ousel": 2466,
    "Christian": 2467,
    "ghter": 2468,
    "1940": 2469,
    "ski": 2470,
    "Carandiru": 2471,
    "ustin": 2472,
    "Herbert": 2473,
    "Jungle": 2474,
    "ister": 2475,
    "ouds": 2476,
    "alph": 2477,
    "Candl": 2478,
    "Candlel": 2479,
    "Candlelight": 2480,
    "Mack": 2481,
    "fect": 2482,
    "Women": 2483,
    " Bro": 2484,
    " Lou": 2485,
    " George": 2486,
    "ative": 2487,
    " last": 2488,
    "illy": 2489,
    " adaptation": 2490,
    "gar": 2491,
    "iere": 2492,
    "iano": 2493,
    " Richard": 2494,
    "eng": 2495,
    " Par": 2496,
    "inger": 2497,
    "1962": 2498,
    "ama": 2499,
    "rel": 2500,
    "olph": 2501,
    " Don": 2502,
    "mir": 2503,
    "arren": 2504,
    "lar": 2505,
    " filmed": 2506,
    " him": 2507,
    " 2010": 2508,
    "igned": 2509,
    "21": 2510,
    " before": 2511,
    " pri": 2512,
    " ra": 2513,
    "Cantin": 2514,
    "Cantinfl": 2515,
    "Cantinflas": 2516,
    "Carousel": 2517,
    "emo": 2518,
    "Camelot": 2519,
    " April": 2520,
    "Bruce": 2521,
    "Sara": 2522,
    "Douglas": 2523,
    "ople": 2524,
    "feature": 2525,
    "Greg": 2526,
    "Ted": 2527,
    "Artists": 2528,
    "Slave": 2529,
    "aqu": 2530,
    "Sealed": 2531,
    "Murders": 2532,
    "Cos": 2533,
    "Wilder": 2534,
    "Death": 2535,
    "Generation": 2536,
    "Hardly": 2537,
    "Romance": 2538,
    "Circuit": 2539,
    "Stew": 2540,
    "Walt": 2541,
    "Guard": 2542,
    "Closet": 2543,
    "White": 2544,
    "_&": 2545,
    "_&_": 2546,
    "Clouds": 2547,
    "bie": 2548,
    "Val": 2549,
    "vers": 2550,
    "Davis": 2551,
    "Again": 2552,
    "Marshall": 2553,
    "Massacre": 2554,
    "Row": 2555,
    "Ton": 2556,
    "Horatio": 2557,
    "Hornblower": 2558,
    "DeMille": 2559,
    "Algeria": 2560,
    "Regardless": 2561,
    "1972": 2562,
    "Simon": 2563,
    "Amb": 2564,
    "Campbell": 2565,
    "Makes": 2566,
    "Perfect": 2567,
    "Mount": 2568,
    "Ban": 2569,
    " Austr": 2570,
    " both": 2571,
    " young": 2572,
    "Clark": 2573,
    " Jan": 2574,
    " Con": 2575,
    " version": 2576,
    " Col": 2577,
    " through": 2578,
    "Ellen": 2579,
    "landers": 2580,
    "aria": 2581,
    " most": 2582,
    "zy": 2583,
    "irie": 2584,
    "rinc": 2585,
    " 2009": 2586,
    "lix": 2587,
    "Bay": 2588,
    "ull": 2589,
    "ico": 2590,
    "amily": 2591,
    "bot": 2592,
    "sen": 2593,
    "Carey": 2594,
    "espie": 2595,
    "oop": 2596,
    "38": 2597,
    "olution": 2598,
    "Fli": 2599,
    "Claude": 2600,
    "ax": 2601,
    "irgin": 2602,
    " Jon": 2603,
    "08": 2604,
    "Guy": 2605,
    " premiere": 2606,
    "ortun": 2607,
    "rib": 2608,
    "adine": 2609,
    " Ste": 2610,
    " Direc": 2611,
    "ula": 2612,
    "oulders": 2613,
    "oli": 2614,
    "Camere": 2615,
    "letto": 2616,
    "aval": 2617,
    "icture": 2618,
    "Dar": 2619,
    " Smith": 2620,
    "essand": 2621,
    "erb": 2622,
    " Is": 2623,
    "vaders": 2624,
    "usbands": 2625,
    "anas": 2626,
    "loyd": 2627,
    "Saw": 2628,
    "mi": 2629,
    "66": 2630,
    "wen": 2631,
    "ird": 2632,
    "1924": 2633,
    "Calmi": 2634,
    "uori": 2635,
    "assionati": 2636,
    "1980": 2637,
    "Carrot": 2638,
    "Carrotb": 2639,
    "Carrotblanca": 2640,
    "ink": 2641,
    " 004": 2642,
    "1950": 2643,
    "ño": 2644,
    "utc": 2645,
    "eople": 2646,
    "Rome": 2647,
    "Ross": 2648,
    " r": 2649,
    "Mary": 2650,
    "Tan": 2651,
    "ings": 2652,
    "rant": 2653,
    "ova": 2654,
    "Den": 2655,
    " col": 2656,
    " other": 2657,
    " years": 2658,
    "Mes": 2659,
    "Castile": 2660,
    "Friday": 2661,
    "Flanders": 2662,
    "Sor": 2663,
    "Corn": 2664,
    "Chan": 2665,
    "isabeth": 2666,
    "Ven": 2667,
    "Moon": 2668,
    "ès": 2669,
    "Desert": 2670,
    "Footpath": 2671,
    " Jo": 2672,
    " gross": 2673,
    "asse": 2674,
    "Marco": 2675,
    "Good": 2676,
    " Pol": 2677,
    " Spanish": 2678,
    "Maria": 2679,
    "Com": 2680,
    "Fern": 2681,
    "Ryan": 2682,
    "Soft": 2683,
    "Shoulders": 2684,
    "André": 2685,
    "ecial": 2686,
    "Billy": 2687,
    "ular": 2688,
    "Away": 2689,
    "Char": 2690,
    "Brawn": 2691,
    "Jess": 2692,
    "Capul": 2693,
    "Capulina": 2694,
    "Sony": 2695,
    " 2011": 2696,
    "Kingdom": 2697,
    "Lucky": 2698,
    "cor": 2699,
    "Mounties": 2700,
    "Atomic": 2701,
    "Invaders": 2702,
    "Husbands": 2703,
    "Know": 2704,
    "Bananas": 2705,
    "Business": 2706,
    "gg": 2707,
    "Che": 2708,
    "antast": 2709,
    "antastic": 2710,
    "27": 2711,
    "XV": 2712,
    "XVIII": 2713,
    "aggio": 2714,
    "etto": 2715,
    "aire": 2716,
    "loria": 2717,
    "iar": 2718,
    "inning": 2719,
    "1938": 2720,
    "leshoe": 2721,
    "edding": 2722,
    "Carrington": 2723,
    "esh": 2724,
    " He": 2725,
    "arred": 2726,
    " Sam": 2727,
    "1979": 2728,
    "Brazil": 2729,
    " Fred": 2730,
    "asing": 2731,
    " prev": 2732,
    " appearance": 2733,
    "hu": 2734,
    " 2007": 2735,
    "ga": 2736,
    " four": 2737,
    " critics": 2738,
    " For": 2739,
    "row": 2740,
    " Indian": 2741,
    " succ": 2742,
    "88": 2743,
    " wri": 2744,
    " Camp": 2745,
    "Pick": 2746,
    "Maurice": 2747,
    "ippe": 2748,
    "Franco": 2749,
    "Philip": 2750,
    "onym": 2751,
    "Do": 2752,
    "line": 2753,
    "rid": 2754,
    "roup": 2755,
    "Carla": 2756,
    "Lion": 2757,
    "Jackie": 2758,
    "Go": 2759,
    "ala": 2760,
    "Rev": 2761,
    "lez": 2762,
    "etf": 2763,
    "etflix": 2764,
    "Xmas": 2765,
    "wana": 2766,
    "iri": 2767,
    "Candleshoe": 2768,
    "water": 2769,
    "von": 2770,
    " along": 2771,
    "sol": 2772,
    "ural": 2773,
    " previous": 2774,
    "iner": 2775,
    " selec": 2776,
    " Peter": 2777,
    "1959": 2778,
    " Em": 2779,
    " later": 2780,
    " Martin": 2781,
    " designed": 2782,
    " World": 2783,
    "Os": 2784,
    "low": 2785,
    " im": 2786,
    " success": 2787,
    " pol": 2788,
    " November": 2789,
    "ildare": 2790,
    "cho": 2791,
    " plot": 2792,
    "stin": 2793,
    "Francis": 2794,
    "Ren": 2795,
    "Georges": 2796,
    "Sm": 2797,
    "Five": 2798,
    "Allan": 2799,
    "Spencer": 2800,
    "Ir": 2801,
    "Shirley": 2802,
    "asp": 2803,
    "1998": 2804,
    "Mont": 2805,
    "Pil": 2806,
    "Jim": 2807,
    "Lang": 2808,
    "Yuk": 2809,
    "Oliver": 2810,
    "Buy": 2811,
    "Hawtrey": 2812,
    "Talbot": 2813,
    "Fantastic": 2814,
    "mes": 2815,
    "Parade": 2816,
    "anders": 2817,
    "Screaming": 2818,
    "Television": 2819,
    "Nick": 2820,
    "Wave": 2821,
    "Lash": 2822,
    "inson": 2823,
    "Yourself": 2824,
    "Fried": 2825,
    "Juan": 2826,
    "1923": 2827,
    "Rush": 2828,
    "Stanley": 2829,
    "Rise": 2830,
    "Cleo": 2831,
    "til": 2832,
    "Kish": 2833,
    "Motion": 2834,
    "Jonathan": 2835,
    "Island": 2836,
    "Cuori": 2837,
    "Appassionati": 2838,
    "Gillespie": 2839,
    "Prairie": 2840,
    "oopi": 2841,
    "Kim": 2842,
    "Curs": 2843,
    "Conquest": 2844,
    "Gol": 2845,
    "Allen": 2846,
    "Bry": 2847,
    "Called": 2848,
    "reat": 2849,
    "Copy": 2850,
    "Madam": 2851,
    "Gonz": 2852,
    "ález": 2853,
    "Serge": 2854,
    "Cosmos": 2855,
    "Spying": 2856,
    "Deadly": 2857,
    "Pac": 2858,
    "Bwana": 2859,
    "River": 2860,
    "Sy": 2861,
    "Gloria": 2862,
    "Luis": 2863,
    "Ambush": 2864,
    "Wedding": 2865,
    "razy": 2866,
    " starred": 2867,
    "1960": 2868,
    "eleasing": 2869,
    "och": 2870,
    " Ani": 2871,
    "Carni": 2872,
    " comm": 2873,
    " Cannes": 2874,
    " selected": 2875,
    "ft": 2876,
    " pres": 2877,
    " inter": 2878,
    " Argent": 2879,
    "Caravaggio": 2880,
    "Cameraman": 2881,
    "Gang": 2882,
    "ambabu": 2883,
    "Camerap": 2884,
    "Cameraperson": 2885,
    "foot": 2886,
    " Van": 2887,
    "eam": 2888,
    "everal": 2889,
    "What": 2890,
    " pl": 2891,
    " And": 2892,
    " Care": 2893,
    "Take": 2894,
    "utcrack": 2895,
    "utcracker": 2896,
    " 9": 2897,
    "ington": 2898,
    "Caliber": 2899,
    "ledge": 2900,
    "lier": 2901,
    "ín": 2902,
    "1952": 2903,
    "ora": 2904,
    "phere": 2905,
    "tim": 2906,
    "pper": 2907,
    "Murray": 2908,
    "14": 2909,
    "Fre": 2910,
    "Carpool": 2911,
    "Dom": 2912,
    "apanese": 2913,
    "ition": 2914,
    "Caleta": 2915,
    " Tor": 2916,
    "Rothwell": 2917,
    " fiction": 2918,
    " Ken": 2919,
    " Golden": 2920,
    "Lyn": 2921,
    "Captivity": 2922,
    " August": 2923,
    " award": 2924,
    " ,": 2925,
    " Cor": 2926,
    "Roger": 2927,
    "Cadence": 2928,
    " 6": 2929,
    "here": 2930,
    " distributed": 2931,
    " well": 2932,
    " Ben": 2933,
    " Canada": 2934,
    " Br": 2935,
    " year": 2936,
    "issa": 2937,
    "ittore": 2938,
    "aledetto": 2939,
    "pportun": 2940,
    "pportunities": 2941,
    "atho": 2942,
    "Rambabu": 2943,
    " new": 2944,
    "ropole": 2945,
    "wide": 2946,
    "ype": 2947,
    "Careers": 2948,
    "777": 2949,
    "estiny": 2950,
    "Helen": 2951,
    " Love": 2952,
    "Time": 2953,
    " Disney": 2954,
    " producer": 2955,
    "eban": 2956,
    "Underwater": 2957,
    "clone": 2958,
    "ute": 2959,
    "abo": 2960,
    "edia": 2961,
    "fric": 2962,
    "olk": 2963,
    "aust": 2964,
    "lej": 2965,
    "min": 2966,
    "cle": 2967,
    "06": 2968,
    "ji": 2969,
    "onso": 2970,
    "ira": 2971,
    "key": 2972,
    "ois": 2973,
    "ful": 2974,
    "tack": 2975,
    "Cabiri": 2976,
    "Cabiria": 2977,
    "ocal": 2978,
    "ocalyp": 2979,
    "Campo": 2980,
    "Fly": 2981,
    "Bert": 2982,
    "Crazy": 2983,
    "Jennifer": 2984,
    "Pir": 2985,
    "rig": 2986,
    "Brown": 2987,
    "Parker": 2988,
    "Harris": 2989,
    " woman": 2990,
    "Releasing": 2991,
    "Press": 2992,
    "Pilby": 2993,
    "Johnson": 2994,
    " ret": 2995,
    "aka": 2996,
    "Nicol": 2997,
    "Larry": 2998,
    "Distribution": 2999,
    "Sims": 3000,
    " Hen": 3001,
    "vol": 3002,
    " Williams": 3003,
    " nominated": 3004,
    "taine": 3005,
    "Ang": 3006,
    "Savage": 3007,
    "anguage": 3008,
    "cast": 3009,
    "Video": 3010,
    "musician": 3011,
    "Claus": 3012,
    "Went": 3013,
    "Boat": 3014,
    " Com": 3015,
    "Gene": 3016,
    "Kay": 3017,
    "Elisabeth": 3018,
    "cem": 3019,
    "cember": 3020,
    "Lester": 3021,
    "car": 3022,
    "Alberto": 3023,
    " three": 3024,
    "Khan": 3025,
    "ience": 3026,
    " child": 3027,
    "16": 3028,
    " sets": 3029,
    "1925": 3030,
    "hood": 3031,
    "gainst": 3032,
    "pittore": 3033,
    "maledetto": 3034,
    "Opportunities": 3035,
    "EO": 3036,
    " have": 3037,
    "Farewell": 3038,
    "Light": 3039,
    "Gangatho": 3040,
    "Metropole": 3041,
    "Cut": 3042,
    " team": 3043,
    "ci": 3044,
    "Heroes": 3045,
    " acc": 3046,
    "Wish": 3047,
    " Girl": 3048,
    "Need": 3049,
    "Max": 3050,
    " real": 3051,
    "Northside": 3052,
    "bol": 3053,
    "1917": 3054,
    "Through": 3055,
    "Patrick": 3056,
    "Fel": 3057,
    "Swagger": 3058,
    "Epic": 3059,
    "Rica": 3060,
    "Alessand": 3061,
    "Where": 3062,
    "Are": 3063,
    "Roll": 3064,
    "Dave": 3065,
    "Nemo": 3066,
    "Cyclone": 3067,
    "Singing": 3068,
    "Knowledge": 3069,
    "kins": 3070,
    "arjun": 3071,
    "ić": 3072,
    "quite": 3073,
    "quiteers": 3074,
    "hl": 3075,
    "odd": 3076,
    "Candida": 3077,
    "olog": 3078,
    "én": 3079,
    "eturns": 3080,
    "Carnaval": 3081,
    "vation": 3082,
    "South": 3083,
    "uper": 3084,
    "Cannot": 3085,
    "Live": 3086,
    "Jay": 3087,
    "oneymo": 3088,
    "oneymoon": 3089,
    " You": 3090,
    "Hung": 3091,
    "stein": 3092,
    "Road": 3093,
    "asil": 3094,
    "ho": 3095,
    " Sim": 3096,
    "sky": 3097,
    "oro": 3098,
    " La": 3099,
    " December": 3100,
    "illi": 3101,
    "ront": 3102,
    " cl": 3103,
    " Am": 3104,
    " became": 3105,
    " bo": 3106,
    "osely": 3107,
    "lack": 3108,
    " 7": 3109,
    " several": 3110,
    "Canton": 3111,
    " worldwide": 3112,
    "ypewriter": 3113,
    " Mal": 3114,
    " She": 3115,
    "afari": 3116,
    " animated": 3117,
    " English": 3118,
    "pocket": 3119,
    "Cageman": 3120,
    "Cai": 3121,
    "Caiç": 3122,
    "Caiçara": 3123,
    "tesy": 3124,
    "oland": 3125,
    "Raj": 3126,
    "arl": 3127,
    "Callaway": 3128,
    "That": 3129,
    "hard": 3130,
    "Sea": 3131,
    "urv": 3132,
    "Whoopi": 3133,
    "87": 3134,
    "thro": 3135,
    "throats": 3136,
    "Cama": 3137,
    "entro": 3138,
    "ffer": 3139,
    "Revolution": 3140,
    "etty": 3141,
    "tual": 3142,
    "Camilla": 3143,
    "Camorra": 3144,
    "World": 3145,
    "erbabes": 3146,
    "ratos": 3147,
    "ratosphere": 3148,
    "escu": 3149,
    "yr": 3150,
    "Caddie": 3151,
    "nold": 3152,
    " Tom": 3153,
    " theatrical": 3154,
    "30": 3155,
    "Cambo": 3156,
    " family": 3157,
    " 2002": 3158,
    " Her": 3159,
    " Fore": 3160,
    " Foreign": 3161,
    "adcast": 3162,
    " sub": 3163,
    " Sch": 3164,
    "rook": 3165,
    " Berlin": 3166,
    "more": 3167,
    " Pri": 3168,
    "\".": 3169,
    " 1995": 3170,
    "lit": 3171,
    " began": 3172,
    " York": 3173,
    " ph": 3174,
    " pos": 3175,
    "17": 3176,
    "omb": 3177,
    " Fox": 3178,
    "rill": 3179,
    " Marvel": 3180,
    " Pat": 3181,
    " City": 3182,
    " Mex": 3183,
    "Foster": 3184,
    "Pickpocket": 3185,
    "Nagarjun": 3186,
    "Lloyd": 3187,
    "Dennis": 3188,
    "Coll": 3189,
    "irginia": 3190,
    "Cross": 3191,
    "Number": 3192,
    "Raymond": 3193,
    "Philippe": 3194,
    "Susan": 3195,
    "26": 3196,
    "Dogs": 3197,
    "ko": 3198,
    "Courtesy": 3199,
    "Lam": 3200,
    "Ke": 3201,
    "Babes": 3202,
    "Street": 3203,
    "Mesquiteers": 3204,
    "Strip": 3205,
    "Wallace": 3206,
    "Lions": 3207,
    "Home": 3208,
    "Fall": 3209,
    "Russell": 3210,
    "izet": 3211,
    "worth": 3212,
    "Thataway": 3213,
    "Raed": 3214,
    "Nat": 3215,
    "Courageous": 3216,
    "Franz": 3217,
    "Mitch": 3218,
    "San": 3219,
    "Dreamin": 3220,
    "'_(": 3221,
    "Warren": 3222,
    "Fle": 3223,
    "Fab": 3224,
    "Song": 3225,
    "Bab": 3226,
    "Cli": 3227,
    "Returns": 3228,
    "Lightfoot": 3229,
    "Mayor": 3230,
    "Jason": 3231,
    "Ann": 3232,
    "Hell": 3233,
    "Gabri": 3234,
    "Sil": 3235,
    "Cutthroats": 3236,
    "ek": 3237,
    "Final": 3238,
    "Dec": 3239,
    "Canon": 3240,
    "Brun": 3241,
    "adentro": 3242,
    "Raoul": 3243,
    "Wood": 3244,
    "ield": 3245,
    "Ralph": 3246,
    "1981": 3247,
    "González": 3248,
    "Mu": 3249,
    "Fishing": 3250,
    "Morgan": 3251,
    "But": 3252,
    "Mess": 3253,
    "Craig": 3254,
    "Kent": 3255,
    "aux": 3256,
    "Yukon": 3257,
    "Sund": 3258,
    "Rollerbabes": 3259,
    "Master": 3260,
    "Stratosphere": 3261,
    "Fernando": 3262,
    "Salvation": 3263,
    "Honeymoon": 3264,
    " they": 3265,
    " Movie": 3266,
    "riend": 3267,
    " Ju": 3268,
    " adapted": 3269,
    "ised": 3270,
    " Rog": 3271,
    "ced": 3272,
    " screened": 3273,
    " Bo": 3274,
    "iew": 3275,
    " port": 3276,
    " entry": 3277,
    "rigan": 3278,
    "atural": 3279,
    "Kids": 3280,
    "ebru": 3281,
    "ebruary": 3282,
    "carès": 3283,
    "1975": 3284,
    " epis": 3285,
    " Angel": 3286,
    " Mo": 3287,
    " sch": 3288,
    " Argentine": 3289,
    "Giov": 3290,
    " loosely": 3291,
    "rent": 3292,
    "ostess": 3293,
    " direct": 3294,
    " Ven": 3295,
    " no": 3296,
    "tered": 3297,
    "int": 3298,
    "press": 3299,
    " Brazil": 3300,
    " 2022": 3301,
    "atti": 3302,
    "Italy": 3303,
    "ánche": 3304,
    "ánchez": 3305,
    "oscow": 3306,
    "ells": 3307,
    "ning": 3308,
    "ouse": 3309,
    "56": 3310,
    "ogov": 3311,
    "rian": 3312,
    "ocaust": 3313,
    "erself": 3314,
    "sa": 3315,
    "Calti": 3316,
    "Caltiki": 3317,
    "nell": 3318,
    "KO": 3319,
    "Red": 3320,
    "zabeth": 3321,
    "thel": 3322,
    "ried": 3323,
    "mans": 3324,
    "ring": 3325,
    "arri": 3326,
    "1930": 3327,
    "ocalypse": 3328,
    " people": 3329,
    " Christ": 3330,
    " Mac": 3331,
    "roads": 3332,
    " No": 3333,
    "Rodent": 3334,
    "15": 3335,
    " 2003": 3336,
    " 8": 3337,
    " Scott": 3338,
    " when": 3339,
    " dec": 3340,
    "Ev": 3341,
    "25": 3342,
    "State": 3343,
    "Tri": 3344,
    " box": 3345,
    "Camila": 3346,
    "María": 3347,
    "Carolyn": 3348,
    "Ara": 3349,
    " Stor": 3350,
    "lejack": 3351,
    " February": 3352,
    "iday": 3353,
    " Ram": 3354,
    "edou": 3355,
    " following": 3356,
    " cap": 3357,
    " gener": 3358,
    " against": 3359,
    "Marg": 3360,
    " 2004": 3361,
    "inald": 3362,
    "itive": 3363,
    "Bel": 3364,
    "India": 3365,
    "Gh": 3366,
    " song": 3367,
    " place": 3368,
    " Jean": 3369,
    "bella": 3370,
    "resi": 3371,
    "ct": 3372,
    " rel": 3373,
    " featuring": 3374,
    " international": 3375,
    " Man": 3376,
    " ev": 3377,
    "BS": 3378,
    " 1936": 3379,
    "chin": 3380,
    "Cacer": 3381,
    "Cacería": 3382,
    "Joh": 3383,
    " TV": 3384,
    "és": 3385,
    "ican": 3386,
    " Bears": 3387,
    "cha": 3388,
    "Carma": 3389,
    "1967": 3390,
    "2007": 3391,
    "1961": 3392,
    "Code": 3393,
    "enar": 3394,
    "ordan": 3395,
    "ha": 3396,
    "West": 3397,
    "1920": 3398,
    "azz": 3399,
    "alg": 3400,
    "iers": 3401,
    "ippines": 3402,
    "aga": 3403,
    "incent": 3404,
    "mort": 3405,
    "iera": 3406,
    "thers": 3407,
    "agh": 3408,
    "Capture": 3409,
    "Cantata": 3410,
    "Carmina": 3411,
    "Might": 3412,
    "Hughes": 3413,
    "Inter": 3414,
    "Intertit": 3415,
    "Irving": 3416,
    "Dorothy": 3417,
    "Flower": 3418,
    "Carroll": 3419,
    "More": 3420,
    "Crossroads": 3421,
    "Les": 3422,
    "Joaqu": 3423,
    "Caution": 3424,
    "Mou": 3425,
    "Dale": 3426,
    "Cries": 3427,
    "Lot": 3428,
    "nes": 3429,
    "Ew": 3430,
    "Rank": 3431,
    " 21": 3432,
    " Anne": 3433,
    " National": 3434,
    "Tay": 3435,
    "Gil": 3436,
    " Language": 3437,
    " mark": 3438,
    "Toads": 3439,
    "Kat": 3440,
    " Blood": 3441,
    " early": 3442,
    "Jackson": 3443,
    "Law": 3444,
    " ever": 3445,
    "Apache": 3446,
    "Peters": 3447,
    "Applejack": 3448,
    "Ver": 3449,
    "07": 3450,
    "Vaccarès": 3451,
    "Flore": 3452,
    " Los": 3453,
    "1918": 3454,
    "Demon": 3455,
    " dev": 3456,
    "elop": 3457,
    " Candy": 3458,
    "qui": 3459,
    " 2006": 3460,
    "Cine": 3461,
    "1983": 3462,
    " aired": 3463,
    "Samuel": 3464,
    " becom": 3465,
    " Luc": 3466,
    "Lind": 3467,
    "Patient": 3468,
    "Zero": 3469,
    "Hostess": 3470,
    "Frances": 3471,
    "Bart": 3472,
    " supporting": 3473,
    "Typewriter": 3474,
    "Malayalam": 3475,
    " pra": 3476,
    "Bust": 3477,
    "Andre": 3478,
    " many": 3479,
    "aker": 3480,
    " third": 3481,
    "Rud": 3482,
    "ized": 3483,
    "Isabel": 3484,
    " some": 3485,
    "Safari": 3486,
    "ssoci": 3487,
    "Ker": 3488,
    "Sergeant": 3489,
    "Express": 3490,
    "Bark": 3491,
    "Nutcracker": 3492,
    "Destiny": 3493,
    "Kildare": 3494,
    "Messias": 3495,
    "Magal": 3496,
    "1989": 3497,
    "Key": 3498,
    "Annie": 3499,
    "pping": 3500,
    "Knight": 3501,
    "Die": 3502,
    "Colli": 3503,
    " insp": 3504,
    "Mister": 3505,
    " Hel": 3506,
    "Sánchez": 3507,
    "udget": 3508,
    "Esteban": 3509,
    "Cabeza": 3510,
    "Forg": 3511,
    "Matt": 3512,
    "mercenar": 3513,
    "hi": 3514,
    "ze": 3515,
    "mortal": 3516,
    "enza": 3517,
    "Now": 3518,
    "omicide": 3519,
    "Cadavres": 3520,
    "pl": 3521,
    "Candide": 3522,
    "brand": 3523,
    "ocah": 3524,
    "ocahont": 3525,
    "ocahontas": 3526,
    "sch": 3527,
    " France": 3528,
    "dition": 3529,
    "no": 3530,
    "drama": 3531,
    "uki": 3532,
    " she": 3533,
    " January": 3534,
    " North": 3535,
    " Co": 3536,
    "with": 3537,
    " 1951": 3538,
    " consider": 3539,
    "able": 3540,
    "\",": 3541,
    "ances": 3542,
    " portray": 3543,
    "cep": 3544,
    " 1943": 3545,
    "bre": 3546,
    "eoff": 3547,
    "uke": 3548,
    "lywood": 3549,
    " 1940": 3550,
    "omposed": 3551,
    "itaine": 3552,
    "oice": 3553,
    " performance": 3554,
    " Entertainment": 3555,
    " compet": 3556,
    " scrip": 3557,
    " positive": 3558,
    "agn": 3559,
    "attie": 3560,
    "though": 3561,
    " Be": 3562,
    "ject": 3563,
    " Sol": 3564,
    "abaki": 3565,
    "burn": 3566,
    "andre": 3567,
    " 1952": 3568,
    " characters": 3569,
    " own": 3570,
    " budget": 3571,
    "ías": 3572,
    "Night": 3573,
    "Calmos": 3574,
    "Callow": 3575,
    "Calloway": 3576,
    "Pan": 3577,
    "Candyjam": 3578,
    "Capc": 3579,
    "Capcana": 3580,
    "mercenaril": 3581,
    "mercenarilor": 3582,
    "ironym": 3583,
    "ironymus": 3584,
    "ppiness": 3585,
    "ness": 3586,
    "Waiting": 3587,
    "Ham": 3588,
    "lett": 3589,
    "Carriers": 3590,
    "Cah": 3591,
    "thew": 3592,
    "Calvaire": 3593,
    "Cameriera": 3594,
    "ante": 3595,
    "Caras": 3596,
    "ocas": 3597,
    "28": 3598,
    "aller": 3599,
    "enta": 3600,
    "ocus": 3601,
    "miral": 3602,
    "Cani": 3603,
    "avier": 3604,
    "aris": 3605,
    "irebrand": 3606,
    "Apocalypse": 3607,
    "asseter": 3608,
    "Fu": 3609,
    "thy": 3610,
    "eno": 3611,
    " At": 3612,
    "ects": 3613,
    " As": 3614,
    "omo": 3615,
    "VD": 3616,
    "isation": 3617,
    " Kenneth": 3618,
    "ays": 3619,
    "ments": 3620,
    " Un": 3621,
    "pend": 3622,
    " 1942": 3623,
    " Alex": 3624,
    "39": 3625,
    "olkon": 3626,
    "olkonogov": 3627,
    " Roman": 3628,
    " Angeles": 3629,
    "indi": 3630,
    " science": 3631,
    "amed": 3632,
    " We": 3633,
    " love": 3634,
    "oye": 3635,
    "\")": 3636,
    "rans": 3637,
    "eli": 3638,
    " After": 3639,
    "iograph": 3640,
    "inese": 3641,
    "tten": 3642,
    " lost": 3643,
    " Lee": 3644,
    " Mon": 3645,
    " around": 3646,
    " dep": 3647,
    "bolt": 3648,
    "fonso": 3649,
    "kel": 3650,
    "rez": 3651,
    "ittorio": 3652,
    "Lag": 3653,
    "ado": 3654,
    "alk": 3655,
    "tad": 3656,
    "ichelieu": 3657,
    "osoph": 3658,
    " right": 3659,
    "annel": 3660,
    "1982": 3661,
    "Carmine": 3662,
    "Flight": 3663,
    "Vaca": 3664,
    "Moscow": 3665,
    "Dreaming": 3666,
    "lyn": 3667,
    "Roberts": 3668,
    "Leo": 3669,
    "ih": 3670,
    "Dean": 3671,
    "June": 3672,
    "Part": 3673,
    "Barb": 3674,
    "sey": 3675,
    "Basil": 3676,
    "Viv": 3677,
    "Forgive": 3678,
    "Bla": 3679,
    "Hume": 3680,
    "..._": 3681,
    "Wy": 3682,
    "Hat": 3683,
    "Share": 3684,
    "Bear": 3685,
    "Shines": 3686,
    "Heironymus": 3687,
    "Merkin": 3688,
    "Forget": 3689,
    "Mercy": 3690,
    "Humppe": 3691,
    "Find": 3692,
    "True": 3693,
    "Happiness": 3694,
    "Son": 3695,
    "Ian": 3696,
    "Julie": 3697,
    "Trop": 3698,
    "Farr": 3699,
    "Esc": 3700,
    "Holocaust": 3701,
    "Gray": 3702,
    "Dickinson": 3703,
    "Brad": 3704,
    "Hugo": 3705,
    "Harvey": 3706,
    "Tune": 3707,
    "Edgar": 3708,
    "ompson": 3709,
    "Mich": 3710,
    "Sand": 3711,
    "Pirate": 3712,
    "Stand": 3713,
    "Lionel": 3714,
    "Stewart": 3715,
    "Immortal": 3716,
    "Monster": 3717,
    "Leigh": 3718,
    "Stu": 3719,
    "Pun": 3720,
    "arma": 3721,
    "Pant": 3722,
    "Bryan": 3723,
    "pres": 3724,
    "presenza": 3725,
    "offresi": 3726,
    "Nowhere": 3727,
    "Walsh": 3728,
    "Bocas": 3729,
    "Banks": 3730,
    "Aki": 3731,
    "lotte": 3732,
    "Bush": 3733,
    "Owen": 3734,
    "Deb": 3735,
    "tti": 3736,
    "Aub": 3737,
    "Louise": 3738,
    "Eye": 3739,
    "Henri": 3740,
    "Coop": 3741,
    "Cooper": 3742,
    "Seas": 3743,
    "Amy": 3744,
    "Rom": 3745,
    "Gregory": 3746,
    "chinos": 3747,
    "Attack": 3748,
    "Goldb": 3749,
    "Admiral": 3750,
    "gatti": 3751,
    "oyle": 3752,
    "Homicide": 3753,
    "ugboat": 3754,
    "Say": 3755,
    "Chen": 3756,
    "Funiculi": 3757,
    "Funicula": 3758,
    "Dreams": 3759,
    "Paradiso": 3760,
    "Confessions": 3761,
    "Right": 3762,
    "Sunday": 3763,
    "Firebrand": 3764,
    "Campfield": 3765,
    "Over": 3766,
    "Dancer": 3767,
    "Pocahontas": 3768,
    "Ferox": 3769,
    " Australian": 3770,
    "ista": 3771,
    " Howard": 3772,
    "Canta": 3773,
    " end": 3774,
    "ban": 3775,
    " alongside": 3776,
    " July": 3777,
    " Gi": 3778,
    " 2020": 3779,
    "indsor": 3780,
    " Sid": 3781,
    " Reg": 3782,
    "depend": 3783,
    "ogo": 3784,
    "erner": 3785,
    "inz": 3786,
    " Lewis": 3787,
    "Calibre": 3788,
    " Russ": 3789,
    "illonaria": 3790,
    "Cardinals": 3791,
    " until": 3792,
    " int": 3793,
    " used": 3794,
    "Bor": 3795,
    "vin": 3796,
    "lanco": 3797,
    " plan": 3798,
    " '": 3799,
    " book": 3800,
    "ecution": 3801,
    "Get": 3802,
    " 1980": 3803,
    " 1993": 3804,
    " special": 3805,
    "ental": 3806,
    " score": 3807,
    "rong": 3808,
    "gate": 3809,
    " pop": 3810,
    " 12": 3811,
    " 1990": 3812,
    "Child": 3813,
    "olm": 3814,
    "Air": 3815,
    "teen": 3816,
    " att": 3817,
    " show": 3818,
    " number": 3819,
    "rincess": 3820,
    "osophy": 3821,
    " Music": 3822,
    "Calven": 3823,
    "Calvento": 3824,
    "fle": 3825,
    "etta": 3826,
    " Cars": 3827,
    "ucho": 3828,
    " prison": 3829,
    "1995": 3830,
    "erg": 3831,
    "uma": 3832,
    "awa": 3833,
    "vis": 3834,
    "ange": 3835,
    "érim": 3836,
    "érimée": 3837,
    "ida": 3838,
    "arn": 3839,
    "enes": 3840,
    "jamin": 3841,
    "ebast": 3842,
    "84": 3843,
    " 14": 3844,
    "ilar": 3845,
    "useppe": 3846,
    "kanth": 3847,
    "Netflix": 3848,
    "ucker": 3849,
    "stev": 3850,
    "uble": 3851,
    " Edward": 3852,
    "lorn": 3853,
    "Kell": 3854,
    "As": 3855,
    " Se": 3856,
    " Japanese": 3857,
    " DVD": 3858,
    "Cari": 3859,
    "Carioc": 3860,
    "Carioca": 3861,
    "igre": 3862,
    "onto": 3863,
    " 13": 3864,
    "ganisation": 3865,
    " Harry": 3866,
    "ening": 3867,
    " Glo": 3868,
    "ali": 3869,
    " Jim": 3870,
    " company": 3871,
    "Candles": 3872,
    "aped": 3873,
    "Camion": 3874,
    "Cait": 3875,
    "Play": 3876,
    "Caprich": 3877,
    "Caprichosa": 3878,
    "Holiday": 3879,
    " 1988": 3880,
    "ike": 3881,
    "aver": 3882,
    "Argent": 3883,
    "Argentina": 3884,
    "hyl": 3885,
    "hyllis": 3886,
    "ives": 3887,
    " II": 3888,
    "Cabob": 3889,
    "Caboblanco": 3890,
    "guez": 3891,
    " location": 3892,
    "edian": 3893,
    " Lau": 3894,
    "laration": 3895,
    " phot": 3896,
    " Joe": 3897,
    " main": 3898,
    "Carom": 3899,
    "oine": 3900,
    "auty": 3901,
    " super": 3902,
    "Canne": 3903,
    "zze": 3904,
    "aiwan": 3905,
    " Lu": 3906,
    "Ani": 3907,
    "anky": 3908,
    " 15": 3909,
    " Mexican": 3910,
    "Carnies": 3911,
    "ière": 3912,
    "ilip": 3913,
    "Carlota": 3914,
    "Canast": 3915,
    "Canastra": 3916,
    "Carancho": 3917,
    "heming": 3918,
    "Carnivel": 3919,
    "ital": 3920,
    "Capitaine": 3921,
    "Cabezas": 3922,
    "Cadences": 3923,
    "obstin": 3924,
    "obstiné": 3925,
    "obstinées": 3926,
    "edouins": 3927,
    "Marie": 3928,
    "cher": 3929,
    "ione": 3930,
    "told": 3931,
    "ondon": 3932,
    "opsy": 3933,
    "olor": 3934,
    "adley": 3935,
    "ires": 3936,
    "jo": 3937,
    "ér": 3938,
    "essa": 3939,
    "ello": 3940,
    "gue": 3941,
    "enzo": 3942,
    "rimal": 3943,
    "rikanth": 3944,
    "went": 3945,
    "igu": 3946,
    "ific": 3947,
    "XX": 3948,
    "jor": 3949,
    "Nicholas": 3950,
    "diario": 3951,
    " sex": 3952,
    "Laura": 3953,
    "Mah": 3954,
    "Nan": 3955,
    "Benn": 3956,
    "Will": 3957,
    "Collins": 3958,
    "Trouble": 3959,
    "etz": 3960,
    "Pressure": 3961,
    "Forlorn": 3962,
    "Gasp": 3963,
    "aughter": 3964,
    "Martinelli": 3965,
    " return": 3966,
    "37": 3967,
    "France": 3968,
    "Li": 3969,
    "pe": 3970,
    "Clegg": 3971,
    "Sawi": 3972,
    "Mas": 3973,
    "do": 3974,
    " 31": 3975,
    " Bl": 3976,
    "Andy": 3977,
    " Republic": 3978,
    "tigre": 3979,
    "Giuli": 3980,
    "Horses": 3981,
    " Toronto": 3982,
    "Walker": 3983,
    "Organisation": 3984,
    " considered": 3985,
    " back": 3986,
    "dependent": 3987,
    "Taylor": 3988,
    "Johnny": 3989,
    "Lew": 3990,
    " Can": 3991,
    " office": 3992,
    "Saved": 3993,
    "Nine": 3994,
    "Volkonogov": 3995,
    "Escaped": 3996,
    "Po": 3997,
    "Neil": 3998,
    "Corners": 3999,
    "Jer": 4000,
    "ices": 4001,
    "Mitchell": 4002,
    "Hey": 4003,
    "Ol": 4004,
    "Lucien": 4005,
    "Distributors": 4006,
    "Ford": 4007,
    "Geoff": 4008,
    "millonaria": 4009,
    "Front": 4010,
    "Nicola": 4011,
    " Bern": 4012,
    " appearances": 4013,
    "Lucas": 4014,
    "Whit": 4015,
    "Gary": 4016,
    " group": 4017,
    "Kesar": 4018,
    "Bren": 4019,
    " Gordon": 4020,
    " grossed": 4021,
    "Path": 4022,
    " star": 4023,
    " develop": 4024,
    " mix": 4025,
    "rik": 4026,
    "Por": 4027,
    "Sta": 4028,
    " public": 4029,
    " war": 4030,
    "Magic": 4031,
    "Reginald": 4032,
    "Flor": 4033,
    " Louis": 4034,
    "Conan": 4035,
    "tesoro": 4036,
    "eto": 4037,
    "Tor": 4038,
    "Jerry": 4039,
    " Pal": 4040,
    "amond": 4041,
    " script": 4042,
    "Sa": 4043,
    "abi": 4044,
    " out": 4045,
    "ighe": 4046,
    "ighest": 4047,
    "Declaration": 4048,
    "Ori": 4049,
    "Rosen": 4050,
    "Nathan": 4051,
    "Bruno": 4052,
    "Confession": 4053,
    "1913": 4054,
    "Store": 4055,
    "Lionsgate": 4056,
    " entered": 4057,
    "scar": 4058,
    " studi": 4059,
    "Pal": 4060,
    "Thunderbolt": 4061,
    " 16": 4062,
    " el": 4063,
    "Betty": 4064,
    "imes": 4065,
    "Spe": 4066,
    "Associ": 4067,
    "Aubrey": 4068,
    "Heroine": 4069,
    "Burton": 4070,
    "Needle": 4071,
    "Hur": 4072,
    "Beauty": 4073,
    "mozze": 4074,
    " Ro": 4075,
    "Takota": 4076,
    "Vittorio": 4077,
    "Cecchi": 4078,
    "Gori": 4079,
    " Park": 4080,
    "Rand": 4081,
    "Karl": 4082,
    "Lum": 4083,
    "Macklin": 4084,
    "arriage": 4085,
    "Giovanni": 4086,
    "Split": 4087,
    "1949": 4088,
    "Ran": 4089,
    "Stone": 4090,
    "Tamil": 4091,
    "Spanky": 4092,
    "Show": 4093,
    "Showboat": 4094,
    "Ric": 4095,
    " Ab": 4096,
    "Richelieu": 4097,
    "Childhood": 4098,
    " am": 4099,
    "Joaquina": 4100,
    "Princess": 4101,
    " inspired": 4102,
    "Suja": 4103,
    "Philosophy": 4104,
    "Pocket": 4105,
    "Pab": 4106,
    "Scheming": 4107,
    "Files": 4108,
    "Krist": 4109,
    "Sr": 4110,
    "Jacob": 4111,
    " Mark": 4112,
    " Carol": 4113,
    "Solo": 4114,
    "Robertson": 4115,
    "Bedouins": 4116,
    "International": 4117,
    "Zone": 4118,
    "alle": 4119,
    "ubi": 4120,
    "Carcer": 4121,
    "Carcerato": 4122,
    "Cara": 4123,
    "enton": 4124,
    "Cart": 4125,
    "rosper": 4126,
    "Germany": 4127,
    "Cagli": 4128,
    "Cagliost": 4129,
    "Cagliostro": 4130,
    "eder": 4131,
    "law": 4132,
    "ebastian": 4133,
    "urviving": 4134,
    "enter": 4135,
    "rzy": 4136,
    "Scar": 4137,
    "ariety": 4138,
    "eethe": 4139,
    "eetheart": 4140,
    "vy": 4141,
    "aving": 4142,
    "ascot": 4143,
    "pson": 4144,
    "Chile": 4145,
    "ll": 4146,
    "aven": 4147,
    "osts": 4148,
    "Caribe": 4149,
    "tadas": 4150,
    "Cadaver": 4151,
    "Cannibalism": 4152,
    " 1976": 4153,
    " Jones": 4154,
    " gu": 4155,
    " friend": 4156,
    " Animat": 4157,
    " US": 4158,
    " followed": 4159,
    " Joseph": 4160,
    " Mur": 4161,
    " colle": 4162,
    "igi": 4163,
    " Henry": 4164,
    " Joan": 4165,
    " due": 4166,
    " South": 4167,
    "istory": 4168,
    "dock": 4169,
    "ima": 4170,
    " 1950": 4171,
    " Jr": 4172,
    ".,": 4173,
    " would": 4174,
    " now": 4175,
    " makes": 4176,
    " class": 4177,
    " Bill": 4178,
    " played": 4179,
    " post": 4180,
    " composed": 4181,
    "yst": 4182,
    "ools": 4183,
    "iddle": 4184,
    " then": 4185,
    "etown": 4186,
    "rí": 4187,
    " black": 4188,
    "ially": 4189,
    " mod": 4190,
    "ically": 4191,
    " sl": 4192,
    " directorial": 4193,
    " direction": 4194,
    " photograph": 4195,
    " Daniel": 4196,
    "icelli": 4197,
    " Mario": 4198,
    " Hollywood": 4199,
    " Century": 4200,
    "ij": 4201,
    "eet": 4202,
    " 1974": 4203,
    "mund": 4204,
    " Day": 4205,
    " All": 4206,
    " 1986": 4207,
    " Brazilian": 4208,
    "ás": 4209,
    " focus": 4210,
    "atherine": 4211,
    "ba": 4212,
    " Films": 4213,
    "ente": 4214,
    "mark": 4215,
    "Candid": 4216,
    "irit": 4217,
    " Eli": 4218,
    "irteen": 4219,
    " 1935": 4220,
    " Juli": 4221,
    " rights": 4222,
    " camp": 4223,
    "orrow": 4224,
    "ewinds": 4225,
    "Sant": 4226,
    "ović": 4227,
    "itterbu": 4228,
    "itterbug": 4229,
    "Michel": 4230,
    "ricia": 4231,
    "Cambodia": 4232,
    "iku": 4233,
    " 2000": 4234,
    "adh": 4235,
    "isc": 4236,
    "arrett": 4237,
    "Terry": 4238,
    "Wor": 4239,
    "Capitalism": 4240,
    "Mort": 4241,
    "Tur": 4242,
    "1931": 4243,
    "ks": 4244,
    "Carbide": 4245,
    " 17": 4246,
    "Caitlin": 4247,
    "Kal": 4248,
    "resslaw": 4249,
    "Canario": 4250,
    "Tol": 4251,
    "osing": 4252,
    "plex": 4253,
    "Ruth": 4254,
    "pri": 4255,
    "ief": 4256,
    "fried": 4257,
    "Tam": 4258,
    "uddly": 4259,
    "tool": 4260,
    "Kin": 4261,
    "Kenn": 4262,
    "ask": 4263,
    "24": 4264,
    "ricane": 4265,
    "90": 4266,
    "53": 4267,
    "ement": 4268,
    "ecut": 4269,
    "ecutive": 4270,
    "goyan": 4271,
    "uomo": 4272,
    "Cagefi": 4273,
    "Cagefighter": 4274,
    "Spain": 4275,
    "Cardigan": 4276,
    "dboard": 4277,
    "mon": 4278,
    "tha": 4279,
    "ilipino": 4280,
    "timis": 4281,
    "timisme": 4282,
    "XXe": 4283,
    "iècle": 4284,
    "Carmela": 4285,
    "stevere": 4286,
    "Calim": 4287,
    "Calimucho": 4288,
    "Captives": 4289,
    " 1963": 4290,
    "rote": 4291,
    " Qu": 4292,
    " Dor": 4293,
    "eal": 4294,
    " tells": 4295,
    " eff": 4296,
    "ayne": 4297,
    " conc": 4298,
    " theatrically": 4299,
    " independent": 4300,
    "wick": 4301,
    "utch": 4302,
    "herit": 4303,
    " Thomas": 4304,
    " opera": 4305,
    "ruz": 4306,
    " Paramount": 4307,
    " To": 4308,
    "tenient": 4309,
    "teniente": 4310,
    " Candyman": 4311,
    " mixed": 4312,
    " kill": 4313,
    " Stephen": 4314,
    " e": 4315,
    " home": 4316,
    " Wilson": 4317,
    " Set": 4318,
    " offic": 4319,
    " actor": 4320,
    "zman": 4321,
    "also": 4322,
    " Or": 4323,
    "ecies": 4324,
    " Hal": 4325,
    " girl": 4326,
    "Chinese": 4327,
    " Kar": 4328,
    " count": 4329,
    "illie": 4330,
    " performances": 4331,
    " Sw": 4332,
    " 1962": 4333,
    "therine": 4334,
    "etwork": 4335,
    "ories": 4336,
    "ating": 4337,
    " Hay": 4338,
    "stan": 4339,
    "ctor": 4340,
    "achi": 4341,
    " Jac": 4342,
    " named": 4343,
    " Tony": 4344,
    " hel": 4345,
    "ogram": 4346,
    " originally": 4347,
    "arke": 4348,
    "cita": 4349,
    " Actress": 4350,
    "ship": 4351,
    " Gra": 4352,
    " actors": 4353,
    " created": 4354,
    " Art": 4355,
    " serial": 4356,
    "las": 4357,
    "alcon": 4358,
    "urses": 4359,
    "Buena": 4360,
    "Vista": 4361,
    "Sarah": 4362,
    "Rewinds": 4363,
    "Glass": 4364,
    "Sherman": 4365,
    "Hart": 4366,
    "via": 4367,
    "riff": 4368,
    "Virginia": 4369,
    "edro": 4370,
    "Jitterbug": 4371,
    "Party": 4372,
    "Roberto": 4373,
    "Barbary": 4374,
    "Coast": 4375,
    "46": 4376,
    "Khaled": 4377,
    "ture": 4378,
    "Hann": 4379,
    "Band": 4380,
    "Grant": 4381,
    "Eug": 4382,
    "Roome": 4383,
    "Gilbert": 4384,
    "Untold": 4385,
    "Pri": 4386,
    "Duck": 4387,
    "Shaw": 4388,
    "Neu": 4389,
    "Ward": 4390,
    "Zan": 4391,
    "Marion": 4392,
    "Mara": 4393,
    "Burn": 4394,
    "Sorrel": 4395,
    "Oopsy": 4396,
    "Does": 4397,
    "iti": 4398,
    "Nadine": 4399,
    "Buck": 4400,
    "Plays": 4401,
    "Herself": 4402,
    "Frontier": 4403,
    "Thompson": 4404,
    "Todd": 4405,
    "aye": 4406,
    "Joel": 4407,
    "Year": 4408,
    "Manuel": 4409,
    "Gr": 4410,
    "Pathé": 4411,
    "Dub": 4412,
    "Hir": 4413,
    "Benjamin": 4414,
    "Corman": 4415,
    "uer": 4416,
    "rojo": 4417,
    "MacBur": 4418,
    "MacBurnie": 4419,
    "Aaron": 4420,
    "Margaret": 4421,
    "Losing": 4422,
    "Surviving": 4423,
    "Philippines": 4424,
    "Vincent": 4425,
    "Norbert": 4426,
    "Vera": 4427,
    "Demonio": 4428,
    "Loew": 4429,
    "Cineplex": 4430,
    "Ka": 4431,
    "Georg": 4432,
    "Matthew": 4433,
    "Hil": 4434,
    "Ba": 4435,
    "Gabriel": 4436,
    "Giuseppe": 4437,
    "RKO": 4438,
    "Radi": 4439,
    "Ellis": 4440,
    "Wis": 4441,
    "Doug": 4442,
    "Dev": 4443,
    "Elizabeth": 4444,
    "Kishan": 4445,
    "Shrikanth": 4446,
    "Stuart": 4447,
    "Zac": 4448,
    "Sweetheart": 4449,
    "Saga": 4450,
    "Brit": 4451,
    "Charlotte": 4452,
    "wentie": 4453,
    "wentieth": 4454,
    "oor": 4455,
    "Cuddly": 4456,
    "Pines": 4457,
    "Powertool": 4458,
    "Friedmans": 4459,
    "Andrew": 4460,
    "Cole": 4461,
    "Derby": 4462,
    "feld": 4463,
    "Speedy": 4464,
    "Iv": 4465,
    "Lor": 4466,
    "Mutual": 4467,
    "Hurricane": 4468,
    "phan": 4469,
    "Mascot": 4470,
    "Ashley": 4471,
    "Simpson": 4472,
    "Leslie": 4473,
    "anny": 4474,
    "Wei": 4475,
    "_%": 4476,
    "Ritter": 4477,
    "Pacific": 4478,
    "Egoyan": 4479,
    "ules": 4480,
    "Jesse": 4481,
    "Anna": 4482,
    "Tugboat": 4483,
    "ffair": 4484,
    "Alfredo": 4485,
    "Alessandro": 4486,
    "Worlds": 4487,
    "Collide": 4488,
    "Heaven": 4489,
    "Box": 4490,
    "cont": 4491,
    "Nel": 4492,
    "Isabelle": 4493,
    "Graham": 4494,
    "Lumière": 4495,
    "Giving": 4496,
    "Festival": 4497,
    "optimisme": 4498,
    "siècle": 4499,
    "lag": 4500,
    "Ghosts": 4501,
    "1971": 4502,
    "Hunt": 4503,
    "Tanner": 4504,
    "Vent": 4505,
    "plage": 4506,
    "Michele": 4507,
    "Sergi": 4508,
    "Trastevere": 4509,
    "cortadas": 4510,
    "Shy": 4511,
    "Stars": 4512,
    "musical": 4513,
    "Lake": 4514,
    "ours": 4515,
    "Feud": 4516,
    "Last": 4517,
    "Supper": 4518,
    " 1979": 4519,
    " 1939": 4520,
    " run": 4521,
    "onc": 4522,
    "aut": 4523,
    "ici": 4524,
    " since": 4525,
    " Afric": 4526,
    " Rogers": 4527,
    "Martina": 4528,
    " Ray": 4529,
    "fire": 4530,
    "natural": 4531,
    "heritance": 4532,
    " leading": 4533,
    " sound": 4534,
    " London": 4535,
    " rema": 4536,
    " festival": 4537,
    "ël": 4538,
    " Barr": 4539,
    "uller": 4540,
    "Capricious": 4541,
    " Orig": 4542,
    " Original": 4543,
    " actress": 4544,
    "produced": 4545,
    "Hindi": 4546,
    " cult": 4547,
    " qu": 4548,
    " includes": 4549,
    "ured": 4550,
    " Oli": 4551,
    "tz": 4552,
    " 1944": 4553,
    " ob": 4554,
    " cinematograph": 4555,
    "written": 4556,
    " commerc": 4557,
    " countries": 4558,
    " took": 4559,
    " del": 4560,
    " 1960": 4561,
    "inqu": 4562,
    "sobe": 4563,
    " dra": 4564,
    "apiro": 4565,
    " ass": 4566,
    "lain": 4567,
    " Warner": 4568,
    " Bros": 4569,
    " polit": 4570,
    " shown": 4571,
    "echn": 4572,
    "ral": 4573,
    "Gard": 4574,
    "stanbu": 4575,
    "stanbul": 4576,
    " Harold": 4577,
    "Hattie": 4578,
    " dis": 4579,
    "ished": 4580,
    " call": 4581,
    "uen": 4582,
    " Dou": 4583,
    " Lo": 4584,
    "verso": 4585,
    " cam": 4586,
    " did": 4587,
    " major": 4588,
    "kar": 4589,
    " 2021": 4590,
    "oufle": 4591,
    " writing": 4592,
    "gram": 4593,
    " popular": 4594,
    " Channel": 4595,
    " member": 4596,
    "rossing": 4597,
    "arías": 4598,
    "napping": 4599,
    " women": 4600,
    "ascasse": 4601,
    "iaroye": 4602,
    "leng": 4603,
    "isual": 4604,
    "ction": 4605,
    "oti": 4606,
    "ulti": 4607,
    "rique": 4608,
    "chit": 4609,
    "arge": 4610,
    "auris": 4611,
    "wald": 4612,
    "ão": 4613,
    "ranch": 4614,
    "imo": 4615,
    "yman": 4616,
    "enberg": 4617,
    "aid": 4618,
    "ulated": 4619,
    "odor": 4620,
    "den": 4621,
    "atter": 4622,
    "ustri": 4623,
    "into": 4624,
    "idal": 4625,
    "48": 4626,
    "eson": 4627,
    "Cardboard": 4628,
    "lands": 4629,
    " Jane": 4630,
    "Byr": 4631,
    " min": 4632,
    " narr": 4633,
    " 1998": 4634,
    " 010": 4635,
    "rest": 4636,
    "gy": 4637,
    "Calabo": 4638,
    "Calaboose": 4639,
    " effects": 4640,
    "idt": 4641,
    "ochiku": 4642,
    "wa": 4643,
    " lim": 4644,
    "Cado": 4645,
    "ude": 4646,
    " invol": 4647,
    " regu": 4648,
    " stage": 4649,
    " Steve": 4650,
    " section": 4651,
    " 03": 4652,
    " video": 4653,
    "Cafund": 4654,
    "Cafundó": 4655,
    "Carlton": 4656,
    "Ale": 4657,
    "andr": 4658,
    "iley": 4659,
    " more": 4660,
    " Bob": 4661,
    "utt": 4662,
    " San": 4663,
    "Jeffrey": 4664,
    "Lynn": 4665,
    "31": 4666,
    " Bernard": 4667,
    " six": 4668,
    " earlier": 4669,
    " cannibal": 4670,
    " California": 4671,
    "Pin": 4672,
    "hardt": 4673,
    "ife": 4674,
    "rooks": 4675,
    "Cada": 4676,
    "quién": 4677,
    "ucha": 4678,
    "Cancer": 4679,
    "idan": 4680,
    "Lan": 4681,
    "Herman": 4682,
    " Vic": 4683,
    "gro": 4684,
    " episode": 4685,
    "odes": 4686,
    " Moore": 4687,
    " whose": 4688,
    " trans": 4689,
    "roy": 4690,
    " reg": 4691,
    "allo": 4692,
    "Sk": 4693,
    "isk": 4694,
    "laim": 4695,
    " highest": 4696,
    " songs": 4697,
    "Capma": 4698,
    "Capmaari": 4699,
    "uni": 4700,
    "achra": 4701,
    "tis": 4702,
    " sim": 4703,
    " view": 4704,
    " depic": 4705,
    "bro": 4706,
    " mov": 4707,
    "keley": 4708,
    " superh": 4709,
    "rene": 4710,
    "ibb": 4711,
    "nd": 4712,
    "ator": 4713,
    " Stan": 4714,
    "Jefferson": 4715,
    "resent": 4716,
    "1953": 4717,
    " First": 4718,
    " Dr": 4719,
    " Carlos": 4720,
    " biograph": 4721,
    "short": 4722,
    "Carmencita": 4723,
    " fo": 4724,
    "Canone": 4725,
    "Candidates": 4726,
    " Dan": 4727,
    "alber": 4728,
    "albergo": 4729,
    "owever": 4730,
    " studio": 4731,
    "Canaris": 4732,
    " jo": 4733,
    " Screen": 4734,
    " Chris": 4735,
    " Isra": 4736,
    "Careeb": 4737,
    "Careebey": 4738,
    "Careebeyans": 4739,
    " Hall": 4740,
    " 2005": 4741,
    "Calvin": 4742,
    "itri": 4743,
    "Must": 4744,
    " 2001": 4745,
    "Tomorrow": 4746,
    "Capetown": 4747,
    "1958": 4748,
    "amela": 4749,
    "ukor": 4750,
    "pin": 4751,
    "FC": 4752,
    "ritz": 4753,
    "rons": 4754,
    "hr": 4755,
    "iang": 4756,
    "ords": 4757,
    "rini": 4758,
    "isha": 4759,
    "ridge": 4760,
    "jee": 4761,
    "isuke": 4762,
    "Capri": 4763,
    "manuel": 4764,
    "rash": 4765,
    "sley": 4766,
    "ucci": 4767,
    "Dow": 4768,
    "esa": 4769,
    "gler": 4770,
    "itzer": 4771,
    "erie": 4772,
    "Carradine": 4773,
    "omet": 4774,
    " Elliott": 4775,
    "Schult": 4776,
    "arian": 4777,
    "Nanni": 4778,
    "lores": 4779,
    " fem": 4780,
    " Anthony": 4781,
    " Jen": 4782,
    "Vanity": 4783,
    "Dwan": 4784,
    "Bennet": 4785,
    "Cass": 4786,
    "Ned": 4787,
    "Beat": 4788,
    "Vince": 4789,
    "Rey": 4790,
    "Chuck": 4791,
    "Roach": 4792,
    "Jimmy": 4793,
    " Nor": 4794,
    "Schm": 4795,
    "Schmidt": 4796,
    "Shochiku": 4797,
    "Oh": 4798,
    "zan": 4799,
    "dalle": 4800,
    "nubi": 4801,
    "Kumar": 4802,
    "Cable": 4803,
    "Jar": 4804,
    "Ewok": 4805,
    "Adventure": 4806,
    "Windsor": 4807,
    " Hawtrey": 4808,
    " shoot": 4809,
    " 23": 4810,
    " Globe": 4811,
    "Kath": 4812,
    "Emil": 4813,
    "Roland": 4814,
    "Gal": 4815,
    "Glick": 4816,
    "Glickman": 4817,
    "Joanna": 4818,
    "Evans": 4819,
    " nomine": 4820,
    "thul": 4821,
    "thulhu": 4822,
    "MacDonald": 4823,
    "tal": 4824,
    "Unnatural": 4825,
    "History": 4826,
    "Inheritance": 4827,
    "Earl": 4828,
    "Neumann": 4829,
    "Heinz": 4830,
    "Seitz": 4831,
    "Ladd": 4832,
    " Bizet": 4833,
    "Doorman": 4834,
    "Ronald": 4835,
    "Sin": 4836,
    " Ra": 4837,
    "Off": 4838,
    " Jos": 4839,
    "Alice": 4840,
    "Swan": 4841,
    "Swanberg": 4842,
    "Geoffrey": 4843,
    "Ivan": 4844,
    "Steward": 4845,
    " Up": 4846,
    " Carl": 4847,
    " Boy": 4848,
    "Marcel": 4849,
    "Kishore": 4850,
    " Australia": 4851,
    " grossing": 4852,
    "Fabien": 4853,
    "Onteniente": 4854,
    "Franck": 4855,
    "Dubosc": 4856,
    "Crooks": 4857,
    " non": 4858,
    " featured": 4859,
    " Cinema": 4860,
    " Fracass": 4861,
    "lucha": 4862,
    "Baby": 4863,
    "Bell": 4864,
    "Hall": 4865,
    "udson": 4866,
    " Based": 4867,
    " Char": 4868,
    "Mam": 4869,
    "Da": 4870,
    "Tab": 4871,
    " Er": 4872,
    " Germany": 4873,
    "Execution": 4874,
    "Loews": 4875,
    "Armand": 4876,
    "Mame": 4877,
    "Hope": 4878,
    "mings": 4879,
    " Marc": 4880,
    " Cur": 4881,
    " 11": 4882,
    "Silv": 4883,
    "Matth": 4884,
    "Primal": 4885,
    "Species": 4886,
    " desc": 4887,
    " 1994": 4888,
    " compu": 4889,
    " computer": 4890,
    "asm": 4891,
    "Diamond": 4892,
    "rum": 4893,
    "Sean": 4894,
    "jabi": 4895,
    "Sharma": 4896,
    "Oriental": 4897,
    "Kaw": 4898,
    "Billie": 4899,
    " resp": 4900,
    "rincip": 4901,
    " partic": 4902,
    "pelli": 4903,
    "Poll": 4904,
    "Mason": 4905,
    "Pras": 4906,
    " Harris": 4907,
    "Sie": 4908,
    "Gor": 4909,
    "Milton": 4910,
    "Baker": 4911,
    "Isobe": 4912,
    "Dino": 4913,
    " came": 4914,
    "Hun": 4915,
    "Fey": 4916,
    "Shapiro": 4917,
    "Dachra": 4918,
    "Laine": 4919,
    "Catherine": 4920,
    "kers": 4921,
    "Adams": 4922,
    " picture": 4923,
    "Brand": 4924,
    "Nino": 4925,
    " 1969": 4926,
    " go": 4927,
    " White": 4928,
    " nominations": 4929,
    " critic": 4930,
    "Edmund": 4931,
    "Muk": 4932,
    "Comes": 4933,
    "Produc": 4934,
    "Denis": 4935,
    "Kennedy": 4936,
    "Tonight": 4937,
    "Alfonso": 4938,
    "Steal": 4939,
    "Noir": 4940,
    "Lamar": 4941,
    " Harvey": 4942,
    "Associated": 4943,
    "Hé": 4944,
    "Daniels": 4945,
    "Phyllis": 4946,
    " tal": 4947,
    "bins": 4948,
    " superhero": 4949,
    " dom": 4950,
    " exper": 4951,
    " included": 4952,
    "tiz": 4953,
    " Supporting": 4954,
    "ple": 4955,
    "Crist": 4956,
    "Katherine": 4957,
    "Carter": 4958,
    "comedian": 4959,
    "Pere": 4960,
    " 25": 4961,
    " broadcast": 4962,
    "Jor": 4963,
    " Su": 4964,
    "Atom": 4965,
    "Hou": 4966,
    " make": 4967,
    " fourth": 4968,
    "Labaki": 4969,
    "Bon": 4970,
    "Brass": 4971,
    "Nia": 4972,
    "Wisberg": 4973,
    " 1938": 4974,
    " Its": 4975,
    "Wright": 4976,
    "Golden": 4977,
    "Kam": 4978,
    "Rose": 4979,
    " prom": 4980,
    " 1999": 4981,
    "Tsu": 4982,
    " ref": 4983,
    "inverso": 4984,
    "Marriage": 4985,
    "ulli": 4986,
    "Nelson": 4987,
    " Bear": 4988,
    "Thirteen": 4989,
    "León": 4990,
    "year": 4991,
    "emb": 4992,
    " generally": 4993,
    "Diary": 4994,
    "Doyle": 4995,
    "Pablo": 4996,
    "Zh": 4997,
    "echnic": 4998,
    "Philo": 4999,
    "Vance": 5000,
    "Pantoufle": 5001,
    "Tucker": 5002,
    "Campout": 5003,
    "Iron": 5004,
    " executive": 5005,
    " mur": 5006,
    "Gad": 5007,
    "Radley": 5008,
    "Metz": 5009,
    "Metzger": 5010,
    "grossing": 5011,
    "Fei": 5012,
    "ident": 5013,
    "Zacarías": 5014,
    "News": 5015,
    "Knights": 5016,
    "Ji": 5017,
    "Falcon": 5018,
    "Fools": 5019,
    "Stripe": 5020,
    "Nurses": 5021,
    "Goldberg": 5022,
    "abor": 5023,
    "Barklow": 5024,
    "els": 5025,
    "Toons": 5026,
    "Rascasse": 5027,
    "ourist": 5028,
    "29": 5029,
    "din": 5030,
    "utes": 5031,
    "GM": 5032,
    "Dillon": 5033,
    "Amat": 5034,
    "estley": 5035,
    "eating": 5036,
    "rank": 5037,
    "arg": 5038,
    "érard": 5039,
    "ronski": 5040,
    "rzys": 5041,
    "rzysz": 5042,
    "rzyszt": 5043,
    "rzysztof": 5044,
    "mate": 5045,
    "aar": 5046,
    "rane": 5047,
    "igg": 5048,
    "owler": 5049,
    "ju": 5050,
    "55": 5051,
    "lest": 5052,
    "asso": 5053,
    "bin": 5054,
    "Media": 5055,
    "assics": 5056,
    "ovsky": 5057,
    "eginning": 5058,
    "Ele": 5059,
    "ieta": 5060,
    "nan": 5061,
    "Calz": 5062,
    "ishment": 5063,
    "itars": 5064,
    " ri": 5065,
    " Du": 5066,
    "mour": 5067,
    " Pan": 5068,
    " fac": 5069,
    " ter": 5070,
    " Feature": 5071,
    " limited": 5072,
    " high": 5073,
    " Cle": 5074,
    " 1984": 5075,
    " crim": 5076,
    " son": 5077,
    "redi": 5078,
    " Barbara": 5079,
    " Sims": 5080,
    " previously": 5081,
    " Bur": 5082,
    " av": 5083,
    " down": 5084,
    " arr": 5085,
    "irc": 5086,
    " Sund": 5087,
    " Actor": 5088,
    " nominee": 5089,
    " Columbia": 5090,
    "ned": 5091,
    " 1931": 5092,
    " than": 5093,
    " Roy": 5094,
    "ission": 5095,
    " Mary": 5096,
    "aige": 5097,
    "app": 5098,
    " Jeff": 5099,
    "ually": 5100,
    " lives": 5101,
    " Short": 5102,
    " Sal": 5103,
    " fall": 5104,
    " audi": 5105,
    "stead": 5106,
    " cent": 5107,
    " disc": 5108,
    " au": 5109,
    " Miller": 5110,
    " former": 5111,
    "ken": 5112,
    "iser": 5113,
    " Hong": 5114,
    " commercial": 5115,
    " Malayalam": 5116,
    " Girls": 5117,
    " Young": 5118,
    " differ": 5119,
    " 1985": 5120,
    " Mérimée": 5121,
    " novella": 5122,
    " 1953": 5123,
    " Mer": 5124,
    " stories": 5125,
    "raj": 5126,
    "ango": 5127,
    "urch": 5128,
    " Venice": 5129,
    "lette": 5130,
    " Greg": 5131,
    "igel": 5132,
    "reta": 5133,
    " Albert": 5134,
    " Productions": 5135,
    " My": 5136,
    "itation": 5137,
    "ize": 5138,
    " help": 5139,
    " 1946": 5140,
    " called": 5141,
    "ils": 5142,
    "rico": 5143,
    "ogn": 5144,
    " foota": 5145,
    " footage": 5146,
    "urop": 5147,
    "fford": 5148,
    " du": 5149,
    " plays": 5150,
    "lv": 5151,
    " sur": 5152,
    " local": 5153,
    " Arthur": 5154,
    "mberto": 5155,
    " Mir": 5156,
    "hile": 5157,
    " Nic": 5158,
    " female": 5159,
    " titled": 5160,
    " Brian": 5161,
    " Mat": 5162,
    "ascal": 5163,
    " nomination": 5164,
    " Hor": 5165,
    " although": 5166,
    " 1948": 5167,
    " coll": 5168,
    " tourist": 5169,
    "orraine": 5170,
    "Pedro": 5171,
    "Between": 5172,
    "Bin": 5173,
    "company": 5174,
    "Campfire": 5175,
    "zio": 5176,
    "Arab": 5177,
    "inter": 5178,
    "idi": 5179,
    "añ": 5180,
    "Amalg": 5181,
    "Amalgam": 5182,
    "Amalgamated": 5183,
    "ande": 5184,
    "ène": 5185,
    "autier": 5186,
    "asi": 5187,
    "CA": 5188,
    "Canopy": 5189,
    "Careg": 5190,
    "Caregiver": 5191,
    "yne": 5192,
    "oî": 5193,
    "oît": 5194,
    "itage": 5195,
    "Ja": 5196,
    "Carole": 5197,
    "buck": 5198,
    "Canola": 5199,
    "coe": 5200,
    "ively": 5201,
    "sha": 5202,
    "62": 5203,
    "non": 5204,
    "Lav": 5205,
    "Tre": 5206,
    "we": 5207,
    "vana": 5208,
    "nst": 5209,
    "Calculated": 5210,
    "Afric": 5211,
    "Carthy": 5212,
    "hel": 5213,
    "18": 5214,
    "ional": 5215,
    "sk": 5216,
    "iven": 5217,
    "colm": 5218,
    "Johans": 5219,
    "elugu": 5220,
    "CandyFli": 5221,
    "CandyFlip": 5222,
    "ésar": 5223,
    "estic": 5224,
    "emory": 5225,
    "agnino": 5226,
    "asy": 5227,
    "arado": 5228,
    "Flag": 5229,
    "unes": 5230,
    "assi": 5231,
    "Bride": 5232,
    "Lisa": 5233,
    "mph": 5234,
    "mphony": 5235,
    "omias": 5236,
    "aurism": 5237,
    "aurismä": 5238,
    "aurismäki": 5239,
    "Cantonen": 5240,
    "Calls": 5241,
    "Camõ": 5242,
    "Camões": 5243,
    "uti": 5244,
    "arden": 5245,
    " Cra": 5246,
    " wrote": 5247,
    "avin": 5248,
    "length": 5249,
    "orsese": 5250,
    "jan": 5251,
    " works": 5252,
    " Arm": 5253,
    "act": 5254,
    "34": 5255,
    "enters": 5256,
    "gr": 5257,
    " Street": 5258,
    " 1997": 5259,
    "iu": 5260,
    " Green": 5261,
    " Georges": 5262,
    " Ham": 5263,
    " father": 5264,
    " remake": 5265,
    "oking": 5266,
    "iane": 5267,
    "obart": 5268,
    " José": 5269,
    "gyp": 5270,
    "gypt": 5271,
    "iper": 5272,
    " 1970": 5273,
    " death": 5274,
    " Directed": 5275,
    " Leon": 5276,
    " present": 5277,
    "ns": 5278,
    " 1992": 5279,
    " su": 5280,
    "anti": 5281,
    " psy": 5282,
    " psych": 5283,
    "arious": 5284,
    "its": 5285,
    "orean": 5286,
    "guard": 5287,
    " 1954": 5288,
    " 1930": 5289,
    " best": 5290,
    "Rodrí": 5291,
    "Rodríguez": 5292,
    "fel": 5293,
    "vador": 5294,
    " Mass": 5295,
    "reeman": 5296,
    " Ann": 5297,
    " becomes": 5298,
    " Lion": 5299,
    " takes": 5300,
    " left": 5301,
    " imp": 5302,
    "oj": 5303,
    " Carnosaur": 5304,
    "ugger": 5305,
    "uggero": 5306,
    " describ": 5307,
    " Director": 5308,
    " sw": 5309,
    " Ter": 5310,
    "odore": 5311,
    " Red": 5312,
    "ebb": 5313,
    " Kong": 5314,
    "meep": 5315,
    "rewal": 5316,
    " deal": 5317,
    "umont": 5318,
    " Dev": 5319,
    "araj": 5320,
    " such": 5321,
    " writer": 5322,
    "aolo": 5323,
    " different": 5324,
    " relation": 5325,
    " race": 5326,
    "rills": 5327,
    " Alfred": 5328,
    "uiz": 5329,
    " Raj": 5330,
    " acting": 5331,
    " Gab": 5332,
    "production": 5333,
    "oshita": 5334,
    "emor": 5335,
    " Pix": 5336,
    " Im": 5337,
    "Star": 5338,
    " filming": 5339,
    "lished": 5340,
    "orts": 5341,
    "uman": 5342,
    "ored": 5343,
    " Corporation": 5344,
    " Sil": 5345,
    "leen": 5346,
    " Che": 5347,
    "khar": 5348,
    "kik": 5349,
    "atin": 5350,
    "aiwanese": 5351,
    "ucqu": 5352,
    " Douglas": 5353,
    " Clau": 5354,
    " Paris": 5355,
    " Ne": 5356,
    "Laglen": 5357,
    " Story": 5358,
    " Hugh": 5359,
    " sm": 5360,
    " Hans": 5361,
    " Bel": 5362,
    "reed": 5363,
    "ently": 5364,
    " Technic": 5365,
    " Technicolor": 5366,
    " Alan": 5367,
    " project": 5368,
    " Crit": 5369,
    "idy": 5370,
    " attemp": 5371,
    "ardi": 5372,
    " Rock": 5373,
    "chary": 5374,
    " Wall": 5375,
    "mani": 5376,
    "endra": 5377,
    "erved": 5378,
    " murder": 5379,
    "irth": 5380,
    " Robin": 5381,
    " –": 5382,
    " vi": 5383,
    "Carnera": 5384,
    "Calais": 5385,
    " collabor": 5386,
    "oms": 5387,
    "Jenkins": 5388,
    "Intertitle": 5389,
    "Edwards": 5390,
    "Hy": 5391,
    "Quinn": 5392,
    "Lorraine": 5393,
    "Mell": 5394,
    "Marian": 5395,
    "riffith": 5396,
    "Ferdin": 5397,
    "Temp": 5398,
    "Kend": 5399,
    "Gaspar": 5400,
    "Noé": 5401,
    "Blan": 5402,
    "Julia": 5403,
    "Keller": 5404,
    "Patricia": 5405,
    "acek": 5406,
    "Peace": 5407,
    "Hannah": 5408,
    "Willy": 5409,
    "Josh": 5410,
    "Hop": 5411,
    "Jun": 5412,
    "Nicolas": 5413,
    "Hag": 5414,
    "Blake": 5415,
    "Jamie": 5416,
    "ika": 5417,
    "Angela": 5418,
    "Clara": 5419,
    "Bow": 5420,
    "Priestley": 5421,
    "Werner": 5422,
    "Wyatt": 5423,
    "Stripers": 5424,
    "Landers": 5425,
    "Minn": 5426,
    "Pamela": 5427,
    "Turner": 5428,
    "Tropics": 5429,
    "Vill": 5430,
    "Set": 5431,
    "Darry": 5432,
    "Darryl": 5433,
    "Zanuck": 5434,
    "Ali": 5435,
    "Janet": 5436,
    "opad": 5437,
    "opadhy": 5438,
    "opadhyay": 5439,
    "Desmond": 5440,
    "Wolf": 5441,
    "Sel": 5442,
    "Trey": 5443,
    "Lane": 5444,
    "Paris": 5445,
    "enev": 5446,
    "Baj": 5447,
    "General": 5448,
    "IFC": 5449,
    "Boyd": 5450,
    "Reilly": 5451,
    "Bresslaw": 5452,
    "Frankie": 5453,
    "Gay": 5454,
    "Corey": 5455,
    "Heidi": 5456,
    "Fleiss": 5457,
    "Enrique": 5458,
    "Men": 5459,
    "Anglo": 5460,
    "Angel": 5461,
    "Vá": 5462,
    "Kurt": 5463,
    "ovic": 5464,
    "Caval": 5465,
    "Mul": 5466,
    "cey": 5467,
    "Hill": 5468,
    "Gérard": 5469,
    "Wronski": 5470,
    "Lola": 5471,
    "Oswald": 5472,
    "Vanessa": 5473,
    "Mend": 5474,
    "Barrymore": 5475,
    "Thor": 5476,
    "McC": 5477,
    "Sebastian": 5478,
    "Katzman": 5479,
    "Krzysztof": 5480,
    "Benoît": 5481,
    "Sz": 5482,
    "Heritage": 5483,
    "Pet": 5484,
    "Peck": 5485,
    "Pi": 5486,
    "Marlin": 5487,
    "sin": 5488,
    "Laurence": 5489,
    "Wu": 5490,
    "Radio": 5491,
    "Jonas": 5492,
    "Suk": 5493,
    "Scarpelli": 5494,
    "Luigi": 5495,
    "Variety": 5496,
    "Wat": 5497,
    "Emm": 5498,
    "Norma": 5499,
    "andro": 5500,
    "Na": 5501,
    "Av": 5502,
    "Alexander": 5503,
    "Rossi": 5504,
    "Monicelli": 5505,
    "Stef": 5506,
    "Ira": 5507,
    "Cox": 5508,
    "Bizet": 5509,
    "Curtis": 5510,
    "Fowler": 5511,
    "Jessica": 5512,
    "Dra": 5513,
    "Keisuke": 5514,
    "Janis": 5515,
    "Rus": 5516,
    "Sar": 5517,
    "Franç": 5518,
    "war": 5519,
    "arth": 5520,
    "Hayes": 5521,
    "uf": 5522,
    "Risk": 5523,
    "Rich": 5524,
    "Hong": 5525,
    "Kong": 5526,
    "gie": 5527,
    "Emmanuel": 5528,
    "Dep": 5529,
    "Yu": 5530,
    "Trotti": 5531,
    "Kerrigan": 5532,
    "Héctor": 5533,
    "Crash": 5534,
    "Bod": 5535,
    "Kawachi": 5536,
    "Barton": 5537,
    "Intertitles": 5538,
    "Court": 5539,
    "Stephan": 5540,
    "Prasad": 5541,
    "Pen": 5542,
    "Holmes": 5543,
    "Classics": 5544,
    "Stories": 5545,
    "Judd": 5546,
    "Butler": 5547,
    "Twentieth": 5548,
    "Ak": 5549,
    "Skin": 5550,
    "zon": 5551,
    "Kirst": 5552,
    "illand": 5553,
    "lak": 5554,
    "69": 5555,
    "Shane": 5556,
    "Liz": 5557,
    "irk": 5558,
    "Tinto": 5559,
    "Malcolm": 5560,
    "Teresa": 5561,
    "Rach": 5562,
    "Chang": 5563,
    "Ay": 5564,
    "Clarke": 5565,
    "Field": 5566,
    "Affair": 5567,
    "César": 5568,
    "Ac": 5569,
    "rin": 5570,
    "rd": 5571,
    "Gior": 5572,
    "Reed": 5573,
    "Beginning": 5574,
    "Ga": 5575,
    "inquieta": 5576,
    "Sum": 5577,
    "mers": 5578,
    "Kline": 5579,
    "Boxer": 5580,
    "itness": 5581,
    "Siddi": 5582,
    "Mariano": 5583,
    "Stall": 5584,
    "enco": 5585,
    "ción": 5586,
    "Justin": 5587,
    "Paco": 5588,
    "Xavier": 5589,
    "Wind": 5590,
    "000": 5591,
    "Sharon": 5592,
    "Feyder": 5593,
    "Valerie": 5594,
    "Monte": 5595,
    "iko": 5596,
    "Low": 5597,
    "Nun": 5598,
    "Mountains": 5599,
    "Mish": 5600,
    "Din": 5601,
    "Hoy": 5602,
    "Romero": 5603,
    "Punishment": 5604,
    "Steven": 5605,
    "McBride": 5606,
    "Kash": 5607,
    "Sergiu": 5608,
    "Nicolaescu": 5609,
    "Francesco": 5610,
    "Rocha": 5611,
    "osal": 5612,
    "Marath": 5613,
    "Bol": 5614,
    "Falling": 5615,
    "Productions": 5616,
    "Worms": 5617,
    "Symphony": 5618,
    "contra": 5619,
    "momias": 5620,
    "Kaurismäki": 5621,
    "oshe": 5622,
    "Scha": 5623,
    "Kung": 5624,
    "Walters": 5625,
    "Kra": 5626,
    "Feely": 5627,
    "ogan": 5628,
    "Lasseter": 5629,
    "Gall": 5630,
    "Emb": 5631,
    "Dim": 5632,
    "Station": 5633,
    "Guitars": 5634,
    "Helena": 5635,
    "Weber": 5636,
    "Vicente": 5637,
    "men": 5638,
    " Ko": 5639,
    " Brown": 5640,
    " Dorothy": 5641,
    "urey": 5642,
    "lynn": 5643,
    " Shirley": 5644,
    "nolds": 5645,
    " long": 5646,
    "toon": 5647,
    " MGM": 5648,
    "réal": 5649,
    " them": 5650,
    " what": 5651,
    "zanar": 5652,
    "udy": 5653,
    "ichi": 5654,
    " concern": 5655,
    " Barry": 5656,
    " appeared": 5657,
    " altern": 5658,
    "osen": 5659,
    "Amato": 5660,
    " dem": 5661,
    "ets": 5662,
    "adcasting": 5663,
    "hmann": 5664,
    " Walter": 5665,
    " 1996": 5666,
    " 26": 5667,
    "racy": 5668,
    "baum": 5669,
    " romance": 5670,
    " Chan": 5671,
    "icki": 5672,
    " Wash": 5673,
    " Dale": 5674,
    "ology": 5675,
    " performed": 5676,
    " children": 5677,
    " Company": 5678,
    " cou": 5679,
    "canti": 5680,
    " various": 5681,
    "gra": 5682,
    "Cardf": 5683,
    "Cardfight": 5684,
    " sequels": 5685,
    " Fl": 5686,
    " 1937": 5687,
    " Light": 5688,
    "minute": 5689,
    " Rick": 5690,
    " 1927": 5691,
    "elman": 5692,
    " 007": 5693,
    " inst": 5694,
    "animated": 5695,
    " franch": 5696,
    " franchise": 5697,
    "jit": 5698,
    " Bh": 5699,
    " turn": 5700,
    "overs": 5701,
    "hart": 5702,
    "rincipal": 5703,
    "Cardillac": 5704,
    "zina": 5705,
    " inv": 5706,
    " Larry": 5707,
    " Prosper": 5708,
    " mon": 5709,
    "roian": 5710,
    "roianni": 5711,
    "athy": 5712,
    " Gabri": 5713,
    " praised": 5714,
    " soc": 5715,
    " political": 5716,
    "herjee": 5717,
    " having": 5718,
    "National": 5719,
    "Callsh": 5720,
    "Callshop": 5721,
    " 1981": 5722,
    "ature": 5723,
    "phine": 5724,
    "dio": 5725,
    " Jacques": 5726,
    " Bark": 5727,
    "ville": 5728,
    "dan": 5729,
    " explo": 5730,
    " Tra": 5731,
    " 008": 5732,
    " voice": 5733,
    " Wild": 5734,
    " Star": 5735,
    "raser": 5736,
    " Norman": 5737,
    " development": 5738,
    "sequ": 5739,
    " Ev": 5740,
    " 1957": 5741,
    "itha": 5742,
    " Camille": 5743,
    " Bra": 5744,
    " Produced": 5745,
    "Mex": 5746,
    " Die": 5747,
    " Ran": 5748,
    "cardo": 5749,
    "adway": 5750,
    " conf": 5751,
    " Allan": 5752,
    " century": 5753,
    " competition": 5754,
    "zram": 5755,
    "geance": 5756,
    "owski": 5757,
    "ryk": 5758,
    "ume": 5759,
    "bor": 5760,
    "zzi": 5761,
    "uppert": 5762,
    " Jess": 5763,
    "wh": 5764,
    "iao": 5765,
    " relationship": 5766,
    "ved": 5767,
    "iah": 5768,
    "kikage": 5769,
    " scenes": 5770,
    "ined": 5771,
    " 1945": 5772,
    "eda": 5773,
    "erick": 5774,
    " Des": 5775,
    "asses": 5776,
    "zech": 5777,
    "artya": 5778,
    "attachary": 5779,
    "attacharyya": 5780,
    " With": 5781,
    "Robbie": 5782,
    " Fever": 5783,
    " Netflix": 5784,
    " 1987": 5785,
    " Musical": 5786,
    "esser": 5787,
    "sell": 5788,
    " Pixar": 5789,
    " becoming": 5790,
    "inod": 5791,
    " repl": 5792,
    " Dem": 5793,
    " peri": 5794,
    " period": 5795,
    " members": 5796,
    "ombardo": 5797,
    " 1982": 5798,
    " er": 5799,
    "anding": 5800,
    "raddock": 5801,
    "Carrots": 5802,
    "olfo": 5803,
    "eymour": 5804,
    "ingo": 5805,
    "eves": 5806,
    "mad": 5807,
    "iger": 5808,
    "stone": 5809,
    "rude": 5810,
    "chev": 5811,
    "ernon": 5812,
    "ummings": 5813,
    "urp": 5814,
    "tt": 5815,
    "erty": 5816,
    "Caine": 5817,
    "ains": 5818,
    "chie": 5819,
    "1969": 5820,
    "amous": 5821,
    "Brien": 5822,
    "ittle": 5823,
    "lip": 5824,
    "ersh": 5825,
    "52": 5826,
    "arro": 5827,
    "ullivan": 5828,
    "Canción": 5829,
    "terworth": 5830,
    "ector": 5831,
    "egal": 5832,
    "ussain": 5833,
    "cox": 5834,
    "endy": 5835,
    " Jennifer": 5836,
    " Carlo": 5837,
    " 1991": 5838,
    "nio": 5839,
    "Caff": 5840,
    "Caffè": 5841,
    "Forrest": 5842,
    "Noah": 5843,
    "aya": 5844,
    "umai": 5845,
    " Sak": 5846,
    " friends": 5847,
    " Animation": 5848,
    "Ni": 5849,
    " concerns": 5850,
    "ratz": 5851,
    "Cabasc": 5852,
    "Cabascabo": 5853,
    "elod": 5854,
    " Sec": 5855,
    " making": 5856,
    " shooting": 5857,
    " opening": 5858,
    " Eric": 5859,
    " circ": 5860,
    " Sav": 5861,
    " hom": 5862,
    " accep": 5863,
    " 1947": 5864,
    "oni": 5865,
    "ramax": 5866,
    "ares": 5867,
    "hmed": 5868,
    " Met": 5869,
    "Arabic": 5870,
    " Clark": 5871,
    " Lyn": 5872,
    "aign": 5873,
    "Russian": 5874,
    " Anton": 5875,
    "dic": 5876,
    " cor": 5877,
    "fic": 5878,
    "lène": 5879,
    " 1929": 5880,
    " Fracasse": 5881,
    " Mont": 5882,
    "aint": 5883,
    " found": 5884,
    " another": 5885,
    "vio": 5886,
    " Victor": 5887,
    "fen": 5888,
    "zel": 5889,
    " 30": 5890,
    " mean": 5891,
    " days": 5892,
    " sexual": 5893,
    "Camou": 5894,
    "Camoufl": 5895,
    "Camouflage": 5896,
    "bray": 5897,
    "Calla": 5898,
    " install": 5899,
    " Val": 5900,
    " gen": 5901,
    " sit": 5902,
    " cinematography": 5903,
    "eek": 5904,
    " photography": 5905,
    " Ker": 5906,
    " particular": 5907,
    " Andre": 5908,
    " addition": 5909,
    " Jay": 5910,
    " 1965": 5911,
    " credi": 5912,
    " 1968": 5913,
    " directors": 5914,
    " Ma": 5915,
    "matic": 5916,
    " Del": 5917,
    "omplain": 5918,
    " those": 5919,
    "Pre": 5920,
    " Midnight": 5921,
    " similar": 5922,
    " Carrie": 5923,
    "ilot": 5924,
    " chang": 5925,
    " social": 5926,
    "Caballer": 5927,
    "Caballerango": 5928,
    "umi": 5929,
    "Caning": 5930,
    " Tal": 5931,
    "ostalg": 5932,
    "ostalgia": 5933,
    "Cadavere": 5934,
    "94": 5935,
    "Cahier": 5936,
    "Op": 5937,
    " 1966": 5938,
    " 1959": 5939,
    " Gang": 5940,
    "Dun": 5941,
    "attery": 5942,
    " Guy": 5943,
    "Bye": 5944,
    " Dick": 5945,
    " Ralph": 5946,
    " care": 5947,
    " exploitation": 5948,
    " Ex": 5949,
    " Law": 5950,
    " Herbert": 5951,
    "Cally": 5952,
    " Ger": 5953,
    "ickey": 5954,
    " live": 5955,
    "CBS": 5956,
    " bel": 5957,
    "Grey": 5958,
    "iani": 5959,
    " depicts": 5960,
    " Calamity": 5961,
    "Candlest": 5962,
    "Candlestick": 5963,
    " 24": 5964,
    "Las": 5965,
    " Tamil": 5966,
    " African": 5967,
    "vor": 5968,
    " great": 5969,
    "adagnino": 5970,
    "Spirit": 5971,
    "bers": 5972,
    "Cantante": 5973,
    " myst": 5974,
    " mystery": 5975,
    "mie": 5976,
    "ians": 5977,
    " Jackson": 5978,
    " fant": 5979,
    " among": 5980,
    "Carmilla": 5981,
    "Amen": 5982,
    "Lar": 5983,
    " biographical": 5984,
    " Os": 5985,
    "Wol": 5986,
    " Helen": 5987,
    "pero": 5988,
    " Freda": 5989,
    " 10": 5990,
    "illionai": 5991,
    "illionairess": 5992,
    " Kevin": 5993,
    "wer": 5994,
    " Italy": 5995,
    " dig": 5996,
    " Picture": 5997,
    "Poland": 5998,
    " Dom": 5999,
    "fton": 6000,
    " Israel": 6001,
    " ap": 6002,
    "Carc": 6003,
    "Carcasses": 6004,
    "té": 6005,
    "tone": 6006,
    "ounced": 6007,
    "iné": 6008,
    " Lasseter": 6009,
    "Cakew": 6010,
    "Cakewalk": 6011,
    "ged": 6012,
    "Ricky": 6013,
    " replac": 6014,
    " Nel": 6015,
    "inda": 6016,
    " entire": 6017,
    " Phillips": 6018,
    "Dover": 6019,
    " Univers": 6020,
    "ventures": 6021,
    "ago": 6022,
    "Freed": 6023,
    " upon": 6024,
    " modern": 6025,
    "venuti": 6026,
    " across": 6027,
    "Austr": 6028,
    "ombe": 6029,
    "wford": 6030,
    "vonne": 6031,
    "anya": 6032,
    "inh": 6033,
    "rol": 6034,
    "ahon": 6035,
    "65": 6036,
    "mit": 6037,
    "yoti": 6038,
    "oven": 6039,
    "zuki": 6040,
    "lani": 6041,
    "chevarr": 6042,
    "chevarría": 6043,
    "andem": 6044,
    "1977": 6045,
    "smith": 6046,
    "bertooth": 6047,
    "alla": 6048,
    "agnani": 6049,
    "gal": 6050,
    "olini": 6051,
    "hen": 6052,
    "wal": 6053,
    "ailey": 6054,
    "ankar": 6055,
    "eline": 6056,
    "illo": 6057,
    "aghan": 6058,
    "reyer": 6059,
    "iedell": 6060,
    "illan": 6061,
    "hna": 6062,
    "pi": 6063,
    "uy": 6064,
    "alie": 6065,
    "ecords": 6066,
    "oa": 6067,
    "rigo": 6068,
    "enie": 6069,
    "Sullivan": 6070,
    "tens": 6071,
    "obias": 6072,
    "nick": 6073,
    "Kee": 6074,
    "spector": 6075,
    "lman": 6076,
    "ár": 6077,
    "eville": 6078,
    "zen": 6079,
    "eyer": 6080,
    "aley": 6081,
    "eba": 6082,
    "lyson": 6083,
    "erd": 6084,
    "oja": 6085,
    "asir": 6086,
    "Eb": 6087,
    "Schultz": 6088,
    "Moretti": 6089,
    "Bertrand": 6090,
    "chner": 6091,
    "Mari": 6092,
    "Nancy": 6093,
    "Tash": 6094,
    "Gaum": 6095,
    "Gaumont": 6096,
    "Reb": 6097,
    " 1989": 6098,
    " Fer": 6099,
    "Brid": 6100,
    "Cold": 6101,
    "Han": 6102,
    " Christopher": 6103,
    "Pine": 6104,
    "Laz": 6105,
    "Ferdinando": 6106,
    "Baldi": 6107,
    "Reynolds": 6108,
    "gn": 6109,
    "Had": 6110,
    " contin": 6111,
    " full": 6112,
    " Jerry": 6113,
    "Italia": 6114,
    "Montréal": 6115,
    "Payne": 6116,
    "Kumai": 6117,
    " Sakura": 6118,
    " animation": 6119,
    " comes": 6120,
    "Mouzanar": 6121,
    "Seth": 6122,
    " 1955": 6123,
    "cco": 6124,
    "Paw": 6125,
    "Giuliano": 6126,
    " criminal": 6127,
    " Ke": 6128,
    " Den": 6129,
    "Gratz": 6130,
    " 1971": 6131,
    "lars": 6132,
    " Connor": 6133,
    " Lang": 6134,
    " Sundance": 6135,
    "Edwin": 6136,
    "Fogo": 6137,
    "Garcia": 6138,
    "Sher": 6139,
    " accepted": 6140,
    "Cthulhu": 6141,
    "LaMartina": 6142,
    "Freddie": 6143,
    "omew": 6144,
    " 22": 6145,
    "Zo": 6146,
    "Pau": 6147,
    "Brod": 6148,
    "Broadcasting": 6149,
    "Miramax": 6150,
    "Roem": 6151,
    "Roemh": 6152,
    "Roemheld": 6153,
    "Seton": 6154,
    "Gail": 6155,
    " near": 6156,
    "Aleks": 6157,
    "Aleksandr": 6158,
    "Luca": 6159,
    "Bandopadhyay": 6160,
    "Var": 6161,
    "Lawrence": 6162,
    "Bach": 6163,
    "Sanders": 6164,
    "Ahmed": 6165,
    "Maz": 6166,
    " Jung": 6167,
    "Cruz": 6168,
    " awards": 6169,
    " Jer": 6170,
    "Booking": 6171,
    "Offices": 6172,
    "Perry": 6173,
    "Naz": 6174,
    "Bav": 6175,
    "Bradford": 6176,
    "Vla": 6177,
    "Raf": 6178,
    "Hobart": 6179,
    "Johnston": 6180,
    "Heymann": 6181,
    "Paige": 6182,
    "McDonald": 6183,
    "Veron": 6184,
    " Foster": 6185,
    "Alton": 6186,
    "Bergen": 6187,
    "Conrad": 6188,
    "Too": 6189,
    "Soon": 6190,
    "Piper": 6191,
    " every": 6192,
    " classic": 6193,
    "Grace": 6194,
    "Morris": 6195,
    " Ir": 6196,
    " Antonio": 6197,
    "Santos": 6198,
    "Amanda": 6199,
    " Ser": 6200,
    "rate": 6201,
    " cur": 6202,
    "Yves": 6203,
    "Angelo": 6204,
    "Math": 6205,
    "Sandra": 6206,
    " supp": 6207,
    " Documentary": 6208,
    "ilit": 6209,
    "stit": 6210,
    "Emily": 6211,
    "Izz": 6212,
    "Bad": 6213,
    "Cavalcanti": 6214,
    "éoph": 6215,
    "éophile": 6216,
    "Porter": 6217,
    "Gert": 6218,
    "Hale": 6219,
    "Doris": 6220,
    "Claire": 6221,
    "Hudson": 6222,
    " Rose": 6223,
    " act": 6224,
    " Mel": 6225,
    " psycholog": 6226,
    " Sing": 6227,
    "Nol": 6228,
    "!!_": 6229,
    "Vanguard": 6230,
    "igo": 6231,
    "Sat": 6232,
    "voice": 6233,
    "Japan": 6234,
    "Lud": 6235,
    " refer": 6236,
    " &": 6237,
    " Rom": 6238,
    "Salvador": 6239,
    "Oliv": 6240,
    "August": 6241,
    "Jag": 6242,
    "Pollex": 6243,
    "Pollexfen": 6244,
    "Te": 6245,
    "841": 6246,
    "McN": 6247,
    "Cahill": 6248,
    "Wong": 6249,
    "Plan": 6250,
    "Freeman": 6251,
    "Hoff": 6252,
    "Buff": 6253,
    " travel": 6254,
    "Coubray": 6255,
    "Agu": 6256,
    "Sidney": 6257,
    "Matthieu": 6258,
    "video": 6259,
    " Dean": 6260,
    " try": 6261,
    "Gun": 6262,
    "Ruggero": 6263,
    "Sheila": 6264,
    " episodes": 6265,
    "Renato": 6266,
    " 27": 6267,
    "Skiles": 6268,
    "Theodore": 6269,
    " men": 6270,
    "Webb": 6271,
    "Dal": 6272,
    " Hung": 6273,
    "Smeep": 6274,
    "Kang": 6275,
    "Punjabi": 6276,
    "Singh": 6277,
    "Binn": 6278,
    "Dh": 6279,
    "Gipp": 6280,
    "Gippy": 6281,
    "Grewal": 6282,
    "Roscoe": 6283,
    "Bair": 6284,
    "Crane": 6285,
    "McG": 6286,
    "Fa": 6287,
    " find": 6288,
    "ising": 6289,
    "Armando": 6290,
    "Guer": 6291,
    "Hold": 6292,
    "Nav": 6293,
    "Fine": 6294,
    "Chad": 6295,
    "Thief": 6296,
    "cinema": 6297,
    "Sieg": 6298,
    "Siegfried": 6299,
    "Adolph": 6300,
    "Zukor": 6301,
    " edi": 6302,
    "rup": 6303,
    " police": 6304,
    "Paolo": 6305,
    "Pas": 6306,
    "Vanzina": 6307,
    "Lauren": 6308,
    "Cic": 6309,
    "Brittain": 6310,
    " Donald": 6311,
    " led": 6312,
    " Mara": 6313,
    "Belt": 6314,
    "Complain": 6315,
    "Akira": 6316,
    "MacLaine": 6317,
    "Maril": 6318,
    "Loeff": 6319,
    "Loeffler": 6320,
    " month": 6321,
    "Thrills": 6322,
    "Mastroianni": 6323,
    " Pra": 6324,
    " Gene": 6325,
    " date": 6326,
    "Stein": 6327,
    "Eugene": 6328,
    "Sen": 6329,
    "Mukherjee": 6330,
    "Kinoshita": 6331,
    "brothers": 6332,
    "François": 6333,
    "Robinson": 6334,
    "based": 6335,
    " use": 6336,
    " list": 6337,
    " times": 6338,
    "Alb": 6339,
    "Istanbul": 6340,
    "Piero": 6341,
    "Erik": 6342,
    "Anderson": 6343,
    " regard": 6344,
    " Grand": 6345,
    "Colette": 6346,
    "Nostalgia": 6347,
    "33": 6348,
    "Julio": 6349,
    "spasso": 6350,
    "Evel": 6351,
    "Africain": 6352,
    "Courtney": 6353,
    "Colin": 6354,
    "Lie": 6355,
    "Boer": 6356,
    "Battery": 6357,
    "274": 6358,
    "Irene": 6359,
    " Production": 6360,
    " 1961": 6361,
    "Magid": 6362,
    "Magidson": 6363,
    "Nichols": 6364,
    " Bay": 6365,
    "owers": 6366,
    " Dream": 6367,
    " focuses": 6368,
    " human": 6369,
    "Loy": 6370,
    " 1934": 6371,
    " Nichol": 6372,
    " Caine": 6373,
    "Comet": 6374,
    "Bre": 6375,
    "Fung": 6376,
    "Chester": 6377,
    "Linda": 6378,
    "Perez": 6379,
    " sing": 6380,
    "Cherry": 6381,
    " Prix": 6382,
    "Fro": 6383,
    "Curtiz": 6384,
    "Woodson": 6385,
    "Jorge": 6386,
    "Oy": 6387,
    "Picture": 6388,
    "Houston": 6389,
    "Fraser": 6390,
    "ior": 6391,
    " five": 6392,
    "Spring": 6393,
    "oud": 6394,
    "Yuri": 6395,
    "Japanese": 6396,
    "Lop": 6397,
    " Spencer": 6398,
    "Alt": 6399,
    "Ull": 6400,
    "Ashle": 6401,
    "Ashleigh": 6402,
    "Jules": 6403,
    " 1914": 6404,
    "Arnold": 6405,
    "ift": 6406,
    "Andrea": 6407,
    "Wer": 6408,
    " 1926": 6409,
    "Bucqu": 6410,
    " theaters": 6411,
    " Luis": 6412,
    "Across": 6413,
    "Anita": 6414,
    "Goff": 6415,
    " Kir": 6416,
    "Giorgio": 6417,
    " 1941": 6418,
    " Cine": 6419,
    "Diego": 6420,
    " Virginia": 6421,
    " tt": 6422,
    "Tosh": 6423,
    "Randy": 6424,
    "So": 6425,
    "Riccardo": 6426,
    "McLaglen": 6427,
    " Broadway": 6428,
    " small": 6429,
    "ashi": 6430,
    "Hav": 6431,
    "occ": 6432,
    "Panzram": 6433,
    "Hatred": 6434,
    "Vengeance": 6435,
    "Ramon": 6436,
    "Past": 6437,
    " worked": 6438,
    "UK": 6439,
    "issm": 6440,
    "issmuller": 6441,
    "Burnett": 6442,
    " so": 6443,
    "Huppert": 6444,
    " fantasy": 6445,
    " ann": 6446,
    "Const": 6447,
    "Imper": 6448,
    " husband": 6449,
    " Kingdom": 6450,
    "Menz": 6451,
    "Raine": 6452,
    "Cook": 6453,
    "Dina": 6454,
    "Tsukikage": 6455,
    " cinema": 6456,
    " acqu": 6457,
    " Mike": 6458,
    " Spain": 6459,
    "Alli": 6460,
    "Chase": 6461,
    " represent": 6462,
    " stru": 6463,
    " Walt": 6464,
    "Trapero": 6465,
    "Wang": 6466,
    "Il": 6467,
    "iler": 6468,
    "Millionairess": 6469,
    "Az": 6470,
    "Grav": 6471,
    " Todd": 6472,
    "Elmer": 6473,
    " María": 6474,
    " producers": 6475,
    " event": 6476,
    " fin": 6477,
    "track": 6478,
    "gest": 6479,
    " winning": 6480,
    " Critics": 6481,
    "Nair": 6482,
    "Gro": 6483,
    "Gle": 6484,
    "Clifton": 6485,
    "Frederick": 6486,
    " rev": 6487,
    "Vol": 6488,
    " Gar": 6489,
    " via": 6490,
    " Sus": 6491,
    "Amartya": 6492,
    "Bhattacharyya": 6493,
    "Mishra": 6494,
    "white": 6495,
    " sched": 6496,
    " (\"": 6497,
    " Cabin": 6498,
    " However": 6499,
    "Cristian": 6500,
    "Tonino": 6501,
    "Travis": 6502,
    "Pons": 6503,
    "Fair": 6504,
    "Lyon": 6505,
    "enna": 6506,
    "Joey": 6507,
    " His": 6508,
    "Hip": 6509,
    "Hopera": 6510,
    "Maratha": 6511,
    "Pascal": 6512,
    "Flav": 6513,
    "Graff": 6514,
    " Ryan": 6515,
    "iana": 6516,
    " Stew": 6517,
    " Stewart": 6518,
    " working": 6519,
    "Feige": 6520,
    "Tru": 6521,
    "Umberto": 6522,
    "Universum": 6523,
    "AG": 6524,
    "Davidson": 6525,
    " vill": 6526,
    "Loretta": 6527,
    "Flock": 6528,
    "Clive": 6529,
    " Nelvana": 6530,
    " hand": 6531,
    "cess": 6532,
    "Jiř": 6533,
    "Mexico": 6534,
    "Mohr": 6535,
    "Kirsten": 6536,
    "Javier": 6537,
    " events": 6538,
    " entirely": 6539,
    "Lombardo": 6540,
    "Walking": 6541,
    " 1915": 6542,
    "Kraush": 6543,
    "Kraushaar": 6544,
    "CU": 6545,
    " Mack": 6546,
    "Cob": 6547,
    "Craddock": 6548,
    " X": 6549,
    "Lin": 6550,
    "Rita": 6551,
    "otic": 6552,
    "Ricardo": 6553,
    "Alv": 6554,
    " viol": 6555,
    " Cast": 6556,
    " Pen": 6557,
    "Dimitri": 6558,
    " brother": 6559,
    "Adolfo": 6560,
    "Jogo": 6561,
    "Benvenuti": 6562,
    " power": 6563,
    "Thiaroye": 6564,
    " style": 6565,
    "Solberg": 6566,
    "Jordan": 6567,
    " 1977": 6568,
    " Way": 6569,
    "Berkeley": 6570,
    "Aranda": 6571,
    "Kiss": 6572,
    "Pinoy": 6573,
    " playing": 6574,
    " tourists": 6575,
    "Australia": 6576,
    "attle": 6577,
    "Neill": 6578,
    "shan": 6579,
    "aud": 6580,
    "eggy": 6581,
    "Cambodian": 6582,
    "ami": 6583,
    "reland": 6584,
    "andra": 6585,
    "osef": 6586,
    "gyptian": 6587,
    "iscé": 6588,
    "iscép": 6589,
    "iscépolo": 6590,
    "mut": 6591,
    "atsu": 6592,
    "khi": 6593,
    "asa": 6594,
    "felt": 6595,
    "don": 6596,
    "isch": 6597,
    "ser": 6598,
    "ubb": 6599,
    "Caballo": 6600,
    "rumbo": 6601,
    "Cantonese": 6602,
    "urpreet": 6603,
    "uggi": 6604,
    "aswin": 6605,
    "aswinder": 6606,
    "ampton": 6607,
    "kash": 6608,
    "irard": 6609,
    "ega": 6610,
    "diego": 6611,
    "hee": 6612,
    "ontz": 6613,
    "inifred": 6614,
    "elope": 6615,
    "evan": 6616,
    "rellan": 6617,
    "rellana": 6618,
    "therton": 6619,
    "ahan": 6620,
    "emm": 6621,
    "alo": 6622,
    "asekhar": 6623,
    "unch": 6624,
    "adori": 6625,
    "redo": 6626,
    "oza": 6627,
    "hem": 6628,
    "Cannary": 6629,
    "ender": 6630,
    "mán": 6631,
    "brook": 6632,
    "Filipino": 6633,
    "light": 6634,
    "uela": 6635,
    "Barrera": 6636,
    "royd": 6637,
    "adis": 6638,
    "jani": 6639,
    "rone": 6640,
    "una": 6641,
    "emescu": 6642,
    "alli": 6643,
    "kely": 6644,
    "rillo": 6645,
    "assy": 6646,
    "illou": 6647,
    "Group": 6648,
    "strong": 6649,
    "Rour": 6650,
    "Rourke": 6651,
    " Hear": 6652,
    " 1983": 6653,
    " explores": 6654,
    " tradition": 6655,
    " Nan": 6656,
    " 1949": 6657,
    " Mad": 6658,
    " Ross": 6659,
    " Pe": 6660,
    " Kh": 6661,
    " Nick": 6662,
    " Vi": 6663,
    " melod": 6664,
    "gether": 6665,
    " day": 6666,
    " Ha": 6667,
    " Cer": 6668,
    " Board": 6669,
    " Rev": 6670,
    " Lew": 6671,
    "yler": 6672,
    " Fair": 6673,
    " Metro": 6674,
    " YouT": 6675,
    " YouTub": 6676,
    " YouTube": 6677,
    " Juan": 6678,
    " Russell": 6679,
    "ended": 6680,
    "63": 6681,
    " very": 6682,
    " infl": 6683,
    " Per": 6684,
    "ality": 6685,
    " wife": 6686,
    " Go": 6687,
    " Sl": 6688,
    "aged": 6689,
    " Oliver": 6690,
    " Carolina": 6691,
    "anger": 6692,
    " bu": 6693,
    " large": 6694,
    " host": 6695,
    " Ren": 6696,
    "ulp": 6697,
    " Polish": 6698,
    " Filmed": 6699,
    " aux": 6700,
    "allas": 6701,
    "wright": 6702,
    " Davis": 6703,
    "eigh": 6704,
    " Hoff": 6705,
    "ogue": 6706,
    " Bab": 6707,
    " Bu": 6708,
    "actory": 6709,
    " content": 6710,
    " Prize": 6711,
    "evens": 6712,
    "')": 6713,
    " himself": 6714,
    " Mag": 6715,
    " Kap": 6716,
    " media": 6717,
    " RKO": 6718,
    " critical": 6719,
    " Flor": 6720,
    " Sy": 6721,
    " o": 6722,
    " Great": 6723,
    " comedi": 6724,
    " filmma": 6725,
    " Oscar": 6726,
    " wid": 6727,
    " sig": 6728,
    " signi": 6729,
    " signific": 6730,
    " school": 6731,
    " network": 6732,
    " poor": 6733,
    " Sen": 6734,
    " commun": 6735,
    " community": 6736,
    " Earth": 6737,
    " Kim": 6738,
    " von": 6739,
    " Mau": 6740,
    " Our": 6741,
    " talking": 6742,
    " marks": 6743,
    " Barker": 6744,
    " Comics": 6745,
    "cade": 6746,
    " But": 6747,
    " experien": 6748,
    " experiences": 6749,
    " Army": 6750,
    " Air": 6751,
    " pub": 6752,
    " 1913": 6753,
    " Child": 6754,
    " beh": 6755,
    " Women": 6756,
    " ind": 6757,
    " vic": 6758,
    "ovi": 6759,
    " Simon": 6760,
    " Nat": 6761,
    "enov": 6762,
    " never": 6763,
    " Special": 6764,
    " given": 6765,
    " Call": 6766,
    " nota": 6767,
    " Patrick": 6768,
    " Adam": 6769,
    " Josh": 6770,
    " rem": 6771,
    " Lady": 6772,
    " Dum": 6773,
    " Dumas": 6774,
    " Adap": 6775,
    "44": 6776,
    " Edi": 6777,
    "lair": 6778,
    " Stanley": 6779,
    "ós": 6780,
    "ract": 6781,
    " filmmaker": 6782,
    " Tur": 6783,
    "read": 6784,
    " way": 6785,
    " language": 6786,
    " there": 6787,
    " Alice": 6788,
    " Japan": 6789,
    " even": 6790,
    " subsequ": 6791,
    " occ": 6792,
    " Marshall": 6793,
    " 29": 6794,
    " crew": 6795,
    "ifer": 6796,
    " mass": 6797,
    " soundtrack": 6798,
    " distribution": 6799,
    "ades": 6800,
    " Pac": 6801,
    " Woman": 6802,
    " announced": 6803,
    " Da": 6804,
    "face": 6805,
    " While": 6806,
    " served": 6807,
    " prim": 6808,
    " Allen": 6809,
    " become": 6810,
    " Elizabeth": 6811,
    " Motion": 6812,
    " Roger": 6813,
    " Washington": 6814,
    " Song": 6815,
    "run": 6816,
    " ide": 6817,
    " beg": 6818,
    " Lor": 6819,
    " ban": 6820,
    " Mitch": 6821,
    " Cli": 6822,
    " true": 6823,
    " es": 6824,
    " died": 6825,
    " 1973": 6826,
    " Burn": 6827,
    " Winter": 6828,
    " Labaki": 6829,
    " Flesh": 6830,
    " erotic": 6831,
    " collaboration": 6832,
    " Filipino": 6833,
    "ellow": 6834,
    "lym": 6835,
    "oche": 6836,
    "idden": 6837,
    "prison": 6838,
    " Annie": 6839,
    " Underpants": 6840,
    " Ford": 6841,
    "anski": 6842,
    " Kosal": 6843,
    "aneke": 6844,
    "iy": 6845,
    "alone": 6846,
    "istic": 6847,
    "umarou": 6848,
    "Sté": 6849,
    "Stéph": 6850,
    "Stéphane": 6851,
    "uchu": 6852,
    "Ti": 6853,
    "Camele": 6854,
    "Cameleon": 6855,
    "upert": 6856,
    "Captivated": 6857,
    "asan": 6858,
    "dimir": 6859,
    "Genev": 6860,
    "aël": 6861,
    "uellet": 6862,
    "Julien": 6863,
    "Barros": 6864,
    "acher": 6865,
    "lev": 6866,
    "asseur": 6867,
    "Pl": 6868,
    "earch": 6869,
    "Melissa": 6870,
    "wig": 6871,
    "egre": 6872,
    "vino": 6873,
    "nier": 6874,
    "Derm": 6875,
    "Cummings": 6876,
    "eeney": 6877,
    "abache": 6878,
    "str": 6879,
    "buckle": 6880,
    "Juliette": 6881,
    "aniele": 6882,
    "grass": 6883,
    "ught": 6884,
    "itan": 6885,
    "illermo": 6886,
    "Laverty": 6887,
    "alas": 6888,
    "ranger": 6889,
    "iggins": 6890,
    "Cot": 6891,
    "Lev": 6892,
    "ecki": 6893,
    "arina": 6894,
    "Not": 6895,
    "ardon": 6896,
    "85": 6897,
    "ared": 6898,
    "nink": 6899,
    "ninkme": 6900,
    "ninkmeij": 6901,
    "ninkmeijer": 6902,
    "xt": 6903,
    "Byrd": 6904,
    "Cardiogram": 6905,
    "arez": 6906,
    "wor": 6907,
    "Caring": 6908,
    "ül": 6909,
    "üller": 6910,
    "Dowell": 6911,
    "Johansson": 6912,
    "aviani": 6913,
    "Mol": 6914,
    "CarniK": 6915,
    "Telugu": 6916,
    "Kern": 6917,
    "ilmore": 6918,
    "eroy": 6919,
    "Lasky": 6920,
    "num": 6921,
    "orah": 6922,
    "odb": 6923,
    "odbye": 6924,
    "arsh": 6925,
    "Canoa": 6926,
    "ameful": 6927,
    "érez": 6928,
    "phy": 6929,
    "Buzz": 6930,
    "vovsky": 6931,
    "nieve": 6932,
    "bum": 6933,
    "Davies": 6934,
    "Germa": 6935,
    "Germain": 6936,
    "ourn": 6937,
    "ournal": 6938,
    "ansen": 6939,
    "óh": 6940,
    "allée": 6941,
    "Calzonz": 6942,
    "Calzonzin": 6943,
    "ombo": 6944,
    "Leonardo": 6945,
    "Terence": 6946,
    "ottfried": 6947,
    "urati": 6948,
    "Ly": 6949,
    "ôté": 6950,
    "Carmin": 6951,
    "beck": 6952,
    "arek": 6953,
    "cell": 6954,
    "enzi": 6955,
    "Calum": 6956,
    "Calumnia": 6957,
    "Cardiof": 6958,
    "Cardiofitness": 6959,
    "uba": 6960,
    "Campe": 6961,
    "Campeón": 6962,
    "uerza": 6963,
    "azón": 6964,
    "sheng": 6965,
    "arath": 6966,
    "iraja": 6967,
    "Lach": 6968,
    "mane": 6969,
    "egv": 6970,
    "egvary": 6971,
    "ová": 6972,
    "askal": 6973,
    "askalj": 6974,
    "askaljev": 6975,
    "askaljević": 6976,
    " auth": 6977,
    "nez": 6978,
    "Hungarian": 6979,
    " often": 6980,
    " 1978": 6981,
    "akh": 6982,
    " Roberts": 6983,
    " 1967": 6984,
    " Cambo": 6985,
    "amo": 6986,
    "hol": 6987,
    " Row": 6988,
    "vid": 6989,
    "credi": 6990,
    "credited": 6991,
    " regulars": 6992,
    " Terry": 6993,
    " together": 6994,
    " alternative": 6995,
    " Burton": 6996,
    "ailable": 6997,
    " Matt": 6998,
    " living": 6999,
    " top": 7000,
    " 1932": 7001,
    "star": 7002,
    " Raymond": 7003,
    " Cec": 7004,
    "guer": 7005,
    " era": 7006,
    " Johnson": 7007,
    " 50": 7008,
    " Bart": 7009,
    "utry": 7010,
    "ydney": 7011,
    " marked": 7012,
    " regular": 7013,
    "most": 7014,
    "gon": 7015,
    " Universal": 7016,
    " Naz": 7017,
    " proble": 7018,
    " hum": 7019,
    " anth": 7020,
    " document": 7021,
    "igner": 7022,
    " Ron": 7023,
    " person": 7024,
    " copy": 7025,
    " interviews": 7026,
    "ened": 7027,
    " killed": 7028,
    " Instit": 7029,
    " Pier": 7030,
    "mez": 7031,
    " 1920": 7032,
    " Fort": 7033,
    " Lam": 7034,
    " Bor": 7035,
    " general": 7036,
    " psychological": 7037,
    " Two": 7038,
    "cía": 7039,
    " Fle": 7040,
    " sequences": 7041,
    " Back": 7042,
    "ground": 7043,
    "annadh": 7044,
    "amford": 7045,
    " init": 7046,
    " ran": 7047,
    " Warren": 7048,
    " Georg": 7049,
    " Otto": 7050,
    " 04": 7051,
    " few": 7052,
    "dez": 7053,
    " Rod": 7054,
    "ought": 7055,
    " Dead": 7056,
    " Sean": 7057,
    " Eddie": 7058,
    " acclaim": 7059,
    "cept": 7060,
    " respect": 7061,
    " any": 7062,
    " lit": 7063,
    " night": 7064,
    " sup": 7065,
    " supern": 7066,
    " supernatural": 7067,
    " Baker": 7068,
    " Mil": 7069,
    " Banks": 7070,
    " contro": 7071,
    " controvers": 7072,
    " invest": 7073,
    " dramatic": 7074,
    "eryl": 7075,
    "imer": 7076,
    " Hun": 7077,
    "ages": 7078,
    " 0046": 7079,
    " Pre": 7080,
    "lyric": 7081,
    "75": 7082,
    " format": 7083,
    " Lib": 7084,
    "olfe": 7085,
    "ording": 7086,
    " oth": 7087,
    " others": 7088,
    "ewitt": 7089,
    " dance": 7090,
    " figu": 7091,
    " movies": 7092,
    " without": 7093,
    "emorande": 7094,
    " Night": 7095,
    "hag": 7096,
    " Maria": 7097,
    "gher": 7098,
    "gheriti": 7099,
    " 28": 7100,
    "television": 7101,
    "itzger": 7102,
    "itzgerald": 7103,
    "irvan": 7104,
    "adsen": 7105,
    " 00274": 7106,
    " Laura": 7107,
    " Sara": 7108,
    " Newman": 7109,
    " Gregory": 7110,
    " Hu": 7111,
    " Danish": 7112,
    " career": 7113,
    " published": 7114,
    " surv": 7115,
    " ens": 7116,
    " 100": 7117,
    " profess": 7118,
    " Les": 7119,
    " BBC": 7120,
    " Pro": 7121,
    "ovies": 7122,
    " Bod": 7123,
    " just": 7124,
    ".\"": 7125,
    " Evans": 7126,
    "arde": 7127,
    "onia": 7128,
    "uccione": 7129,
    " sal": 7130,
    " storyline": 7131,
    " Taiwanese": 7132,
    "akris": 7133,
    "akrishna": 7134,
    " Camé": 7135,
    "lias": 7136,
    " Alexandre": 7137,
    " fils": 7138,
    " Adapted": 7139,
    " Kildare": 7140,
    " Louise": 7141,
    " described": 7142,
    " Emp": 7143,
    " Empire": 7144,
    " portrays": 7145,
    "uech": 7146,
    "harth": 7147,
    " 009": 7148,
    "onne": 7149,
    " 1921": 7150,
    " Cour": 7151,
    "imon": 7152,
    " Fried": 7153,
    " Black": 7154,
    " Sab": 7155,
    " refu": 7156,
    " refuge": 7157,
    "empor": 7158,
    " Europ": 7159,
    "ID": 7160,
    "iak": 7161,
    " Karl": 7162,
    " Bav": 7163,
    " Mun": 7164,
    " 011": 7165,
    " Max": 7166,
    " One": 7167,
    " Out": 7168,
    "Washington": 7169,
    " Jonathan": 7170,
    " Lloyd": 7171,
    " Power": 7172,
    " Fun": 7173,
    " ag": 7174,
    " exist": 7175,
    " est": 7176,
    " see": 7177,
    " Marg": 7178,
    " subsequently": 7179,
    " sports": 7180,
    " comic": 7181,
    " Animated": 7182,
    "esnick": 7183,
    "jar": 7184,
    "esú": 7185,
    "esús": 7186,
    " par": 7187,
    " Carp": 7188,
    " 1924": 7189,
    "sel": 7190,
    "ronic": 7191,
    " grad": 7192,
    " Est": 7193,
    "pped": 7194,
    " joined": 7195,
    "inic": 7196,
    " Parker": 7197,
    " Cape": 7198,
    "ength": 7199,
    "ovak": 7200,
    " Czech": 7201,
    "aking": 7202,
    " Cabaret": 7203,
    "anned": 7204,
    " slash": 7205,
    " slasher": 7206,
    " Gonz": 7207,
    " installment": 7208,
    "Robbins": 7209,
    " 005": 7210,
    "owns": 7211,
    "dale": 7212,
    "aura": 7213,
    "andark": 7214,
    "andarkar": 7215,
    "nelly": 7216,
    " Ver": 7217,
    " late": 7218,
    " em": 7219,
    "ribu": 7220,
    " praise": 7221,
    " Robertson": 7222,
    " thems": 7223,
    " themsel": 7224,
    " themselves": 7225,
    " free": 7226,
    " Latin": 7227,
    " Scorsese": 7228,
    " Capit": 7229,
    " cost": 7230,
    "haber": 7231,
    "theson": 7232,
    " Ash": 7233,
    " escap": 7234,
    "inhardt": 7235,
    " summer": 7236,
    "banks": 7237,
    " Sm": 7238,
    " Civil": 7239,
    " Soldier": 7240,
    " program": 7241,
    " inf": 7242,
    "2004": 7243,
    " Billy": 7244,
    " successful": 7245,
    " mostly": 7246,
    "igan": 7247,
    " cameo": 7248,
    "ondo": 7249,
    "tugu": 7250,
    "tuguese": 7251,
    "user": 7252,
    "ellini": 7253,
    " herself": 7254,
    " interest": 7255,
    " Fel": 7256,
    " Por": 7257,
    " 1933": 7258,
    " Vincent": 7259,
    " strugg": 7260,
    " Philippines": 7261,
    " Soul": 7262,
    " Cannibal": 7263,
    " Romanian": 7264,
    " idea": 7265,
    " Dutch": 7266,
    " 1975": 7267,
    "rya": 7268,
    "helm": 7269,
    " Brass": 7270,
    " Chic": 7271,
    " Chicago": 7272,
    " schedul": 7273,
    "arried": 7274,
    " Carlito": 7275,
    "rising": 7276,
    "Jodie": 7277,
    "Wendy": 7278,
    "Blier": 7279,
    "Wallis": 7280,
    "Elmo": 7281,
    "Crawford": 7282,
    "Duff": 7283,
    "Yvonne": 7284,
    "Brook": 7285,
    "Danielle": 7286,
    "Byrne": 7287,
    "Seymour": 7288,
    "Cassel": 7289,
    "Beatty": 7290,
    "Griffith": 7291,
    "Weather": 7292,
    "MacMurray": 7293,
    "Ai": 7294,
    "Cantafor": 7295,
    "Cantafora": 7296,
    "Kendall": 7297,
    "Nahon": 7298,
    "Ant": 7299,
    "Peggy": 7300,
    "Dary": 7301,
    "Gent": 7302,
    "Gentner": 7303,
    "Viva": 7304,
    "Bandai": 7305,
    "Visual": 7306,
    "ayuki": 7307,
    "Neg": 7308,
    "Og": 7309,
    "Seki": 7310,
    "Holly": 7311,
    "Checco": 7312,
    "Zalone": 7313,
    "Francisco": 7314,
    "Henley": 7315,
    "Jackman": 7316,
    "Guill": 7317,
    "Aldo": 7318,
    "Oumarou": 7319,
    "Ganda": 7320,
    "Mis": 7321,
    "Raw": 7322,
    "Kuchu": 7323,
    "réd": 7324,
    "Bett": 7325,
    "Corrigan": 7326,
    "Rupert": 7327,
    "Warwick": 7328,
    "Cre": 7329,
    "Fenton": 7330,
    "Trials": 7331,
    "Smart": 7332,
    "Zoë": 7333,
    "Keating": 7334,
    "Paulo": 7335,
    "Ced": 7336,
    "Trank": 7337,
    "Gate": 7338,
    "392": 7339,
    "Farrow": 7340,
    "Prosper": 7341,
    "Mérimée": 7342,
    "Zim": 7343,
    "reek": 7344,
    "Adrian": 7345,
    "Lynch": 7346,
    "Esther": 7347,
    "Garr": 7348,
    "Panama": 7349,
    "Smiley": 7350,
    "Burnette": 7351,
    "Vivian": 7352,
    "Sung": 7353,
    "Grib": 7354,
    "Gribble": 7355,
    "McNeil": 7356,
    "Amin": 7357,
    "Matal": 7358,
    "Matalq": 7359,
    "Matalqa": 7360,
    "Austin": 7361,
    "Rana": 7362,
    "Natal": 7363,
    "Kita": 7364,
    "Vir": 7365,
    "Virg": 7366,
    "Virgil": 7367,
    "Steele": 7368,
    "Reich": 7369,
    "Vladimir": 7370,
    "Jeanne": 7371,
    "Rafaël": 7372,
    "Ouellet": 7373,
    "Aud": 7374,
    "Éric": 7375,
    "Olga": 7376,
    "Josef": 7377,
    "Else": 7378,
    "Sri": 7379,
    "Wells": 7380,
    "Nagy": 7381,
    "Jacki": 7382,
    "Sheen": 7383,
    "Cel": 7384,
    "Sach": 7385,
    "Brenda": 7386,
    "Et": 7387,
    "Discépolo": 7388,
    "años": 7389,
    "Barrie": 7390,
    "Grasse": 7391,
    "Bot": 7392,
    "Patrice": 7393,
    "Brasseur": 7394,
    "Mylène": 7395,
    "Demonge": 7396,
    "Demongeot": 7397,
    "Anto": 7398,
    "Antoine": 7399,
    "Dul": 7400,
    "Dulé": 7401,
    "Duléry": 7402,
    "Thom": 7403,
    "lein": 7404,
    "usiness": 7405,
    "VanCamp": 7406,
    "Gautier": 7407,
    "Hena": 7408,
    "Henaine": 7409,
    "Gertrude": 7410,
    "Burt": 7411,
    "Suzuki": 7412,
    "etime": 7413,
    "hib": 7414,
    "ense": 7415,
    "Bos": 7416,
    "Berke": 7417,
    "Ts": 7418,
    "Min": 7419,
    "Hermann": 7420,
    "Ludwig": 7421,
    "Echevarría": 7422,
    "Elfelt": 7423,
    "Carpenter": 7424,
    "alegre": 7425,
    "Manc": 7426,
    "Meg": 7427,
    "Mauro": 7428,
    "Ramos": 7429,
    "Oth": 7430,
    "Augusto": 7431,
    "Fleming": 7432,
    "Puri": 7433,
    "Vernon": 7434,
    "992": 7435,
    "Wurt": 7436,
    "Wurtzel": 7437,
    "Erich": 7438,
    "Ku": 7439,
    "Sweeney": 7440,
    "Donnell": 7441,
    "Temple": 7442,
    "Vinc": 7443,
    "Vincenzo": 7444,
    "Heller": 7445,
    "Yor": 7446,
    "prieto": 7447,
    "azabache": 7448,
    "Page": 7449,
    "Shawn": 7450,
    "Valent": 7451,
    "Riz": 7452,
    "Francesca": 7453,
    "Goldsmith": 7454,
    "Sabertooth": 7455,
    "Massimo": 7456,
    "isi": 7457,
    "Bowie": 7458,
    "Marcus": 7459,
    "Dalton": 7460,
    "Trumbo": 7461,
    "Benny": 7462,
    "bir": 7463,
    "Binnu": 7464,
    "Dhillon": 7465,
    "Karam": 7466,
    "Gurpreet": 7467,
    "Ghuggi": 7468,
    "Jaswinder": 7469,
    "Bhalla": 7470,
    "Arbuckle": 7471,
    "Wilbur": 7472,
    "Foy": 7473,
    "Bi": 7474,
    "Lyman": 7475,
    "Daniele": 7476,
    "Bian": 7477,
    "Yordan": 7478,
    "Dumont": 7479,
    "Ethel": 7480,
    "Reitz": 7481,
    "ef": 7482,
    "6277": 7483,
    "Laurenti": 7484,
    "Laurentiis": 7485,
    "Grig": 7486,
    "Elsa": 7487,
    ")_": 7488,
    "Cohen": 7489,
    "Abujam": 7490,
    "Abujamra": 7491,
    "iel": 7492,
    "Telly": 7493,
    "Savalas": 7494,
    "Luise": 7495,
    "Cas": 7496,
    "Shak": 7497,
    "Rajan": 7498,
    "Long": 7499,
    "Hunter": 7500,
    "Ruiz": 7501,
    "Newley": 7502,
    "Prakash": 7503,
    "Sai": 7504,
    "Babu": 7505,
    "Greene": 7506,
    "gela": 7507,
    "Dutt": 7508,
    "Madh": 7509,
    "Mani": 7510,
    "Romano": 7511,
    "Palma": 7512,
    "Lenny": 7513,
    "Girard": 7514,
    "Gus": 7515,
    "Peterson": 7516,
    "Bran": 7517,
    "Hirsh": 7518,
    "Rosenfeld": 7519,
    "Font": 7520,
    "Vega": 7521,
    "Ernst": 7522,
    "Isa": 7523,
    "Bres": 7524,
    "Sandiego": 7525,
    "Mouret": 7526,
    "Penn": 7527,
    "Depardon": 7528,
    "Bairns": 7529,
    "Bairnsf": 7530,
    "Bairnsfather": 7531,
    "Palmer": 7532,
    "Haas": 7533,
    "Koontz": 7534,
    "Gabriela": 7535,
    "Delphine": 7536,
    "Coates": 7537,
    "Winifred": 7538,
    "Brenninkmeijer": 7539,
    "Dur": 7540,
    "ogg": 7541,
    "Barker": 7542,
    "Penelope": 7543,
    "Rit": 7544,
    "Greta": 7545,
    "Wilde": 7546,
    "NBC": 7547,
    "Syn": 7548,
    "Trif": 7549,
    "Sale": 7550,
    "Barbell": 7551,
    "Nicolás": 7552,
    "Gains": 7553,
    "Haden": 7554,
    "Gale": 7555,
    "Rudolf": 7556,
    "Barn": 7557,
    "onti": 7558,
    "Dreyer": 7559,
    "Riedell": 7560,
    "hm": 7561,
    "ayr": 7562,
    "Denham": 7563,
    "Orellana": 7564,
    "Troff": 7565,
    "Troffey": 7566,
    "Mund": 7567,
    " 016": 7568,
    "Ezio": 7569,
    "Massa": 7570,
    "Archie": 7571,
    "Bretherton": 7572,
    "Delia": 7573,
    "Kane": 7574,
    "Anand": 7575,
    "Johann": 7576,
    "Jeremy": 7577,
    "Gem": 7578,
    "Menon": 7579,
    "McDon": 7580,
    "Bake": 7581,
    "Pie": 7582,
    "Lagoon": 7583,
    "Oscar": 7584,
    "Flyn": 7585,
    "Flynn": 7586,
    "Conway": 7587,
    "Nour": 7588,
    "Zaki": 7589,
    "Hayward": 7590,
    "hor": 7591,
    "Med": 7592,
    "ards": 7593,
    "Judi": 7594,
    "Judith": 7595,
    "Fur": 7596,
    "Ph": 7597,
    "ills": 7598,
    "Sven": 7599,
    "Phillip": 7600,
    "Kathleen": 7601,
    "Bog": 7602,
    "McDowell": 7603,
    "Mirren": 7604,
    "Vidal": 7605,
    "Ramis": 7606,
    "Cory": 7607,
    "Stefan": 7608,
    "Altman": 7609,
    "Elwood": 7610,
    "Ullman": 7611,
    "Brothers": 7612,
    "Taviani": 7613,
    "Bunch": 7614,
    "Ball": 7615,
    "Rachel": 7616,
    "Estev": 7617,
    "Estevez": 7618,
    "Dugan": 7619,
    "Dai": 7620,
    "rj": 7621,
    "Wald": 7622,
    "Morric": 7623,
    "Morricone": 7624,
    "mazon": 7625,
    "Gilmore": 7626,
    "Inc": 7627,
    "Zie": 7628,
    "Ziegler": 7629,
    "Leroy": 7630,
    "Switzer": 7631,
    "Amadori": 7632,
    "Fil": 7633,
    "Liber": 7634,
    "mig": 7635,
    "Pure": 7636,
    "Boden": 7637,
    "Dustin": 7638,
    "Farnum": 7639,
    "deMille": 7640,
    "rari": 7641,
    "Goffredo": 7642,
    "Alessandrini": 7643,
    "Gau": 7644,
    "Deborah": 7645,
    "Butt": 7646,
    "Buttolph": 7647,
    "Goodbye": 7648,
    "Nath": 7649,
    "Randolph": 7650,
    "Deep": 7651,
    "Kamal": 7652,
    "Arlen": 7653,
    "Dana": 7654,
    "Andrews": 7655,
    "Freda": 7656,
    "Martino": 7657,
    "Records": 7658,
    "avi": 7659,
    "Salah": 7660,
    "ABC": 7661,
    "Domestic": 7662,
    "Shameful": 7663,
    "Memory": 7664,
    "Pérez": 7665,
    "Summers": 7666,
    "Yosh": 7667,
    "Hiro": 7668,
    "Ry": 7669,
    "imat": 7670,
    "Ota": 7671,
    "Fum": 7672,
    "Rhy": 7673,
    "Angi": 7674,
    "Borowski": 7675,
    "Danny": 7676,
    "Wyn": 7677,
    "Stallich": 7678,
    "Martha": 7679,
    "Alexandra": 7680,
    "Aniston": 7681,
    "58": 7682,
    "Ho": 7683,
    "Holbrook": 7684,
    "Babenco": 7685,
    "Noémie": 7686,
    "Lvovsky": 7687,
    "Moreau": 7688,
    "Ginger": 7689,
    "ician": 7690,
    "Andri": 7691,
    "Andriot": 7692,
    "Bó": 7693,
    "Mendoza": 7694,
    "Doi": 7695,
    "Tracey": 7696,
    "Tabitha": 7697,
    "Corlett": 7698,
    "Constant": 7699,
    "Anders": 7700,
    "Sig": 7701,
    "Kei": 7702,
    "Tanaka": 7703,
    "Luke": 7704,
    "299": 7705,
    "Gilles": 7706,
    "Tobias": 7707,
    "Victoria": 7708,
    "Haller": 7709,
    "Dinah": 7710,
    "Shurey": 7711,
    "ealand": 7712,
    "Caio": 7713,
    "Sóh": 7714,
    "Butterworth": 7715,
    "Vallée": 7716,
    "Alliance": 7717,
    "Inspector": 7718,
    "Arau": 7719,
    "Buckley": 7720,
    "Perlman": 7721,
    "Glenn": 7722,
    "Sham": 7723,
    "Rap": 7724,
    "Noel": 7725,
    "Abb": 7726,
    "Desires": 7727,
    "Bir": 7728,
    "Ilse": 7729,
    "Bonnie": 7730,
    "lei": 7731,
    "Herr": 7732,
    "Gravit": 7733,
    "Gravitas": 7734,
    "Ventures": 7735,
    "Alois": 7736,
    "Hilton": 7737,
    "rine": 7738,
    "Cyn": 7739,
    "Sun": 7740,
    "Xia": 7741,
    "Gottfried": 7742,
    "Camurati": 7743,
    "Grover": 7744,
    "Cro": 7745,
    "Neville": 7746,
    "Montes": 7747,
    "McCarthy": 7748,
    "Middle": 7749,
    "Chand": 7750,
    "Hampton": 7751,
    "Côté": 7752,
    "Blow": 7753,
    "Beck": 7754,
    "Dau": 7755,
    "Sayadian": 7756,
    "Dinata": 7757,
    "Mik": 7758,
    "Berger": 7759,
    "Dj": 7760,
    "Tropical": 7761,
    "Strad": 7762,
    "Stradling": 7763,
    "Bartel": 7764,
    "Mos": 7765,
    "antaño": 7766,
    "Ernesto": 7767,
    "burg": 7768,
    "Clements": 7769,
    "Ladis": 7770,
    "Pall": 7771,
    "kos": 7772,
    "Ventura": 7773,
    "eh": 7774,
    "267": 7775,
    "Adjani": 7776,
    "Pastrone": 7777,
    "Nemescu": 7778,
    "Whaley": 7779,
    "Hamil": 7780,
    "Hamilton": 7781,
    "Sud": 7782,
    "Desf": 7783,
    "Serra": 7784,
    "Eve": 7785,
    "cks": 7786,
    "Herk": 7787,
    "Natash": 7788,
    "Natasha": 7789,
    "Ennio": 7790,
    "Cyril": 7791,
    "McCord": 7792,
    "enka": 7793,
    "Trueba": 7794,
    "Faye": 7795,
    "Gris": 7796,
    "wart": 7797,
    "Berlin": 7798,
    "Alyson": 7799,
    "Jiří": 7800,
    "Kyle": 7801,
    "retton": 7802,
    "Fabio": 7803,
    "Kirk": 7804,
    "Gould": 7805,
    "Kate": 7806,
    "Cesar": 7807,
    "awn": 7808,
    "Melora": 7809,
    "Shyam": 7810,
    "Grand": 7811,
    "Horace": 7812,
    "Holl": 7813,
    "Markus": 7814,
    "McFeely": 7815,
    "Small": 7816,
    "Melvin": 7817,
    "Fesser": 7818,
    "Lock": 7819,
    "Len": 7820,
    "Terrence": 7821,
    "Kap": 7822,
    "Cobb": 7823,
    "Rot": 7824,
    "Ramí": 7825,
    "Ramírez": 7826,
    "Yann": 7827,
    "Giuliani": 7828,
    "Cris": 7829,
    "Pooja": 7830,
    "Bhatt": 7831,
    "Leit": 7832,
    "fuerza": 7833,
    "Kashan": 7834,
    "Admani": 7835,
    "Alexandre": 7836,
    "203": 7837,
    "Steiner": 7838,
    "Kristen": 7839,
    "Harrison": 7840,
    "corazón": 7841,
    "Segal": 7842,
    "Simona": 7843,
    "Izzo": 7844,
    "Renzo": 7845,
    "Nasir": 7846,
    "Blomet": 7847,
    "Eryk": 7848,
    "Osbor": 7849,
    "Osborne": 7850,
    "Hadd": 7851,
    "Bharath": 7852,
    "Bharathiraja": 7853,
    "Monogram": 7854,
    "Amé": 7855,
    "Armstrong": 7856,
    "Gallone": 7857,
    "Stoll": 7858,
    "Deron": 7859,
    "Peele": 7860,
    "Szegvary": 7861,
    "Rajendra": 7862,
    "Adol": 7863,
    "Mellissa": 7864,
    "Mandy": 7865,
    "Hussain": 7866,
    "Human": 7867,
    "Jacobson": 7868,
    "Tours": 7869,
    "Goran": 7870,
    "Paskaljević": 7871,
    " author": 7872,
    " Loc": 7873,
    " Bert": 7874,
    " sati": 7875,
    " rise": 7876,
    "uz": 7877,
    " Far": 7878,
    " Dennis": 7879,
    " Cass": 7880,
    "Tot": 7881,
    "eleine": 7882,
    " repor": 7883,
    "estyle": 7884,
    "aspar": 7885,
    " daughter": 7886,
    " minutes": 7887,
    " continu": 7888,
    "asconc": 7889,
    "asconcel": 7890,
    "asconcelos": 7891,
    " Chuck": 7892,
    "oble": 7893,
    " quest": 7894,
    "zom": 7895,
    "kawa": 7896,
    " fe": 7897,
    " Iri": 7898,
    " Irish": 7899,
    " Ireland": 7900,
    " collection": 7901,
    " melodrama": 7902,
    " fictional": 7903,
    " Windsor": 7904,
    " seven": 7905,
    " available": 7906,
    " theme": 7907,
    "ryn": 7908,
    "ahn": 7909,
    " decade": 7910,
    "Morten": 7911,
    " Francis": 7912,
    " Bow": 7913,
    " Sher": 7914,
    "thol": 7915,
    "ombell": 7916,
    "ydon": 7917,
    "inna": 7918,
    "97": 7919,
    " Cecil": 7920,
    "rix": 7921,
    "acho": 7922,
    " Wolf": 7923,
    "uston": 7924,
    " Jungle": 7925,
    " online": 7926,
    " Jordan": 7927,
    " Royal": 7928,
    " nu": 7929,
    " numer": 7930,
    " numerous": 7931,
    " festivals": 7932,
    "Maj": 7933,
    "frid": 7934,
    "iève": 7935,
    "tte": 7936,
    "hof": 7937,
    " Ol": 7938,
    "leton": 7939,
    "yotii": 7940,
    " Egyptian": 7941,
    " Most": 7942,
    " Tar": 7943,
    "aganda": 7944,
    " multi": 7945,
    " Bol": 7946,
    " introduc": 7947,
    "ystem": 7948,
    " comple": 7949,
    "iron": 7950,
    " past": 7951,
    " Pl": 7952,
    " audience": 7953,
    " Doc": 7954,
    " rat": 7955,
    " milit": 7956,
    " military": 7957,
    " Institute": 7958,
    " Sebastian": 7959,
    " Pierre": 7960,
    "ómez": 7961,
    "mstead": 7962,
    "Mull": 7963,
    " Moon": 7964,
    " finds": 7965,
    " Fall": 7966,
    " debuted": 7967,
    " Television": 7968,
    "Giovanna": 7969,
    "real": 7970,
    "rary": 7971,
    " activ": 7972,
    "ogen": 7973,
    "lrich": 7974,
    " officer": 7975,
    " Fritz": 7976,
    "known": 7977,
    " Raf": 7978,
    "ona": 7979,
    " mid": 7980,
    "Slaughter": 7981,
    "Dallas": 7982,
    "ubin": 7983,
    "osi": 7984,
    " inn": 7985,
    " Dy": 7986,
    " Jason": 7987,
    "unications": 7988,
    "yrone": 7989,
    "gium": 7990,
    "elz": 7991,
    " Lucas": 7992,
    " singer": 7993,
    " taken": 7994,
    " current": 7995,
    " Peck": 7996,
    " neg": 7997,
    "fran": 7998,
    " compete": 7999,
    " mag": 8000,
    "sten": 8001,
    "arin": 8002,
    "asana": 8003,
    "mol": 8004,
    " Pun": 8005,
    " record": 8006,
    " mother": 8007,
    "agle": 8008,
    "witz": 8009,
    " India": 8010,
    " particularly": 8011,
    " Rome": 8012,
    " Andy": 8013,
    " Murray": 8014,
    " prior": 8015,
    " Whit": 8016,
    " Philip": 8017,
    " u": 8018,
    " uni": 8019,
    " opp": 8020,
    "earl": 8021,
    "zed": 8022,
    "áz": 8023,
    " Run": 8024,
    " cross": 8025,
    "form": 8026,
    " lyric": 8027,
    "Lux": 8028,
    " motion": 8029,
    " significant": 8030,
    "ovo": 8031,
    "urup": 8032,
    "vathy": 8033,
    " Gabriel": 8034,
    " trip": 8035,
    " Bry": 8036,
    "rilog": 8037,
    "rilogy": 8038,
    "cou": 8039,
    " intended": 8040,
    " pilot": 8041,
    "espite": 8042,
    " 1972": 8043,
    " noted": 8044,
    " There": 8045,
    "elgu": 8046,
    "elgud": 8047,
    " problems": 8048,
    " met": 8049,
    " mat": 8050,
    " figure": 8051,
    " history": 8052,
    "usty": 8053,
    " Korean": 8054,
    " Sor": 8055,
    " Hattie": 8056,
    "ribbins": 8057,
    "awi": 8058,
    " Nag": 8059,
    " concl": 8060,
    "ibbee": 8061,
    "hman": 8062,
    " Gl": 8063,
    " Viv": 8064,
    " Maj": 8065,
    " Gray": 8066,
    "aling": 8067,
    "ushbu": 8068,
    "lystone": 8069,
    " behind": 8070,
    " Walker": 8071,
    "ffick": 8072,
    "iring": 8073,
    " Police": 8074,
    " Count": 8075,
    " Heat": 8076,
    " Wat": 8077,
    " victim": 8078,
    "cott": 8079,
    "Gabby": 8080,
    "axon": 8081,
    " Leslie": 8082,
    " ABC": 8083,
    " dubb": 8084,
    "lom": 8085,
    " Mah": 8086,
    "illian": 8087,
    "baud": 8088,
    "ulin": 8089,
    "gom": 8090,
    "gomery": 8091,
    " tel": 8092,
    " telenov": 8093,
    " telenovela": 8094,
    " Do": 8095,
    " spin": 8096,
    "action": 8097,
    " sitcom": 8098,
    "188": 8099,
    " Cab": 8100,
    " notable": 8101,
    "riguez": 8102,
    "agli": 8103,
    "Pro": 8104,
    "Scarlett": 8105,
    " Gill": 8106,
    " Jam": 8107,
    " Mast": 8108,
    " Some": 8109,
    " oper": 8110,
    "zl": 8111,
    " Dame": 8112,
    " Camélias": 8113,
    " 1848": 8114,
    " Marion": 8115,
    "madge": 8116,
    " Gil": 8117,
    " deals": 8118,
    " Russian": 8119,
    " nine": 8120,
    "owery": 8121,
    "thea": 8122,
    " line": 8123,
    "ility": 8124,
    " Mexico": 8125,
    "onora": 8126,
    " adult": 8127,
    " editing": 8128,
    "gnes": 8129,
    " Wood": 8130,
    "iggin": 8131,
    "akefield": 8132,
    " Istanbul": 8133,
    " mainly": 8134,
    "emporary": 8135,
    " city": 8136,
    " Jor": 8137,
    "regman": 8138,
    "Moe": 8139,
    " titles": 8140,
    " Claude": 8141,
    " Isabel": 8142,
    " Andrew": 8143,
    " conne": 8144,
    " When": 8145,
    " inc": 8146,
    " Ian": 8147,
    "yen": 8148,
    "aldo": 8149,
    "Álv": 8150,
    " acquired": 8151,
    " themes": 8152,
    "Dere": 8153,
    " hal": 8154,
    " half": 8155,
    " occur": 8156,
    " each": 8157,
    "hagiar": 8158,
    "quez": 8159,
    " Miranda": 8160,
    " Genie": 8161,
    " entit": 8162,
    " entitled": 8163,
    " Rosen": 8164,
    " ensem": 8165,
    " ensemble": 8166,
    " massacre": 8167,
    " Samuel": 8168,
    " Cas": 8169,
    " eventually": 8170,
    " Cinematograph": 8171,
    " cate": 8172,
    " categ": 8173,
    " Screenplay": 8174,
    " attempts": 8175,
    " Anna": 8176,
    "illed": 8177,
    " ended": 8178,
    "vement": 8179,
    " UK": 8180,
    " camera": 8181,
    "eva": 8182,
    " hit": 8183,
    " Wallace": 8184,
    "thor": 8185,
    "pez": 8186,
    "rimm": 8187,
    " pse": 8188,
    " pseud": 8189,
    " Gol": 8190,
    " money": 8191,
    "weta": 8192,
    "adav": 8193,
    "Carbonn": 8194,
    "Carbonnaux": 8195,
    "auber": 8196,
    "change": 8197,
    " Bal": 8198,
    "Sawers": 8199,
    " artist": 8200,
    "enmann": 8201,
    " vo": 8202,
    " pred": 8203,
    "estern": 8204,
    "ulgar": 8205,
    "url": 8206,
    "urlitzer": 8207,
    " indi": 8208,
    " order": 8209,
    " capital": 8210,
    " include": 8211,
    "therlands": 8212,
    "Dutch": 8213,
    " Fern": 8214,
    " appro": 8215,
    " mer": 8216,
    " replaced": 8217,
    " Theater": 8218,
    " Hughes": 8219,
    " noir": 8220,
    " distributor": 8221,
    " elem": 8222,
    " elements": 8223,
    " issu": 8224,
    "uson": 8225,
    " Capitan": 8226,
    " 1958": 8227,
    " Benn": 8228,
    "isenberg": 8229,
    " Although": 8230,
    "ams": 8231,
    "letta": 8232,
    " asp": 8233,
    " River": 8234,
    " pandem": 8235,
    " pandemic": 8236,
    " vir": 8237,
    "ühl": 8238,
    " Three": 8239,
    " Arch": 8240,
    "acker": 8241,
    " bl": 8242,
    "hir": 8243,
    " criticism": 8244,
    " Frances": 8245,
    " Hard": 8246,
    "gland": 8247,
    "etsy": 8248,
    " Good": 8249,
    "Candice": 8250,
    " Kal": 8251,
    "ffe": 8252,
    " process": 8253,
    " Abel": 8254,
    " Cain": 8255,
    "Carmi": 8256,
    "bbe": 8257,
    "Huit": 8258,
    " Susan": 8259,
    "otta": 8260,
    " couple": 8261,
    "hler": 8262,
    " Nutcracker": 8263,
    "zi": 8264,
    " Sto": 8265,
    " po": 8266,
    "orden": 8267,
    " conv": 8268,
    " Hale": 8269,
    "umaran": 8270,
    "edict": 8271,
    "ün": 8272,
    " claim": 8273,
    "inke": 8274,
    "pied": 8275,
    "ritt": 8276,
    " University": 8277,
    "oisson": 8278,
    "Capel": 8279,
    "Capellani": 8280,
    "phe": 8281,
    "volta": 8282,
    " Comedy": 8283,
    " hired": 8284,
    " Irving": 8285,
    " scheduled": 8286,
    "ogelman": 8287,
    " dri": 8288,
    " Thiaroye": 8289,
    " head": 8290,
    " Ast": 8291,
    " Cal": 8292,
    " Vidal": 8293,
    " instead": 8294,
    " official": 8295,
    " Camilla": 8296,
    " Looney": 8297,
    " Tunes": 8298,
    " TVB": 8299,
    "istan": 8300,
    "bone": 8301,
    "adow": 8302,
    "1951": 8303,
    "tory": 8304,
    "not": 8305,
    "wy": 8306,
    "augh": 8307,
    "LA": 8308,
    "904": 8309,
    "odato": 8310,
    "weg": 8311,
    "wegian": 8312,
    "ilh": 8313,
    "ilhac": 8314,
    "évy": 8315,
    "gun": 8316,
    "het": 8317,
    "iat": 8318,
    "orks": 8319,
    "elo": 8320,
    "itar": 8321,
    "ouri": 8322,
    "ellman": 8323,
    "inley": 8324,
    "ido": 8325,
    "vei": 8326,
    "itagra": 8327,
    "itagraph": 8328,
    "CO": 8329,
    "atzen": 8330,
    "atzenber": 8331,
    "atzenberger": 8332,
    "athi": 8333,
    "usch": 8334,
    "house": 8335,
    "andon": 8336,
    "inéma": 8337,
    "rav": 8338,
    "Cagney": 8339,
    "eed": 8340,
    "mens": 8341,
    "opesh": 8342,
    "ikand": 8343,
    "Roche": 8344,
    "rises": 8345,
    "arraz": 8346,
    "arrazin": 8347,
    " Bad": 8348,
    "Robby": 8349,
    "Carlit": 8350,
    "Carlitinh": 8351,
    "Carlitinhos": 8352,
    "Santis": 8353,
    " Society": 8354,
    " Philippe": 8355,
    " narrative": 8356,
    " 01065": 8357,
    "romski": 8358,
    " Cambodia": 8359,
    " may": 8360,
    "Domingo": 8361,
    "ishi": 8362,
    " feel": 8363,
    " Media": 8364,
    " def": 8365,
    " Cannonball": 8366,
    "wara": 8367,
    "aes": 8368,
    "comedy": 8369,
    " Distribu": 8370,
    "ases": 8371,
    "ible": 8372,
    " 0034": 8373,
    " Morten": 8374,
    " centers": 8375,
    " Regard": 8376,
    "ecker": 8377,
    " ten": 8378,
    "Fon": 8379,
    "Fontaine": 8380,
    "rall": 8381,
    " Dillon": 8382,
    " Clara": 8383,
    "ison": 8384,
    "tholomew": 8385,
    " Cre": 8386,
    "ecret": 8387,
    "ertical": 8388,
    " demand": 8389,
    " earned": 8390,
    "atoro": 8391,
    " country": 8392,
    "Lean": 8393,
    "emberg": 8394,
    " Po": 8395,
    " nearly": 8396,
    "asanto": 8397,
    " Cruz": 8398,
    " Sin": 8399,
    " Philipp": 8400,
    " Philippine": 8401,
    " Comm": 8402,
    "chard": 8403,
    "ovan": 8404,
    " Rand": 8405,
    "Geneviève": 8406,
    "ederer": 8407,
    " China": 8408,
    " Jeffrey": 8409,
    "Shea": 8410,
    "Mama": 8411,
    "afa": 8412,
    " Bresslaw": 8413,
    " returns": 8414,
    "tagon": 8415,
    " cer": 8416,
    "Campaign": 8417,
    "ropaganda": 8418,
    "arence": 8419,
    " Gary": 8420,
    " emp": 8421,
    " 1964": 8422,
    " returned": 8423,
    "eleb": 8424,
    "niversary": 8425,
    " Kish": 8426,
    " ser": 8427,
    " ec": 8428,
    " env": 8429,
    " environ": 8430,
    " environment": 8431,
    " Queen": 8432,
    " Radi": 8433,
    "eleased": 8434,
    "910": 8435,
    " Kay": 8436,
    "ankovic": 8437,
    " Costa": 8438,
    " went": 8439,
    "lyle": 8440,
    " Gautier": 8441,
    "ños": 8442,
    " Cla": 8443,
    " located": 8444,
    " Phyllis": 8445,
    " Bruce": 8446,
    " Giov": 8447,
    "ilt": 8448,
    " Fab": 8449,
    " Camping": 8450,
    " Temp": 8451,
    "iding": 8452,
    "rantx": 8453,
    "rantxa": 8454,
    " Romero": 8455,
    " León": 8456,
    "oyeur": 8457,
    "Cafard": 8458,
    "uso": 8459,
    "onç": 8460,
    " Cou": 8461,
    " Cir": 8462,
    " Theat": 8463,
    " white": 8464,
    " coming": 8465,
    " setting": 8466,
    "avernier": 8467,
    "Wade": 8468,
    "overy": 8469,
    " narrated": 8470,
    " comedian": 8471,
    "insle": 8472,
    "inslee": 8473,
    " Ruth": 8474,
    " Tim": 8475,
    "ommer": 8476,
    " Leigh": 8477,
    " Mason": 8478,
    "ieś": 8479,
    "ieślow": 8480,
    "ieślowski": 8481,
    " worker": 8482,
    " obs": 8483,
    "Laurent": 8484,
    " concert": 8485,
    " road": 8486,
    "wards": 8487,
    " bre": 8488,
    " yet": 8489,
    " Mr": 8490,
    "irstow": 8491,
    "kanen": 8492,
    "gueiro": 8493,
    "ieri": 8494,
    "asmus": 8495,
    " Ellis": 8496,
    " Filming": 8497,
    " week": 8498,
    "reco": 8499,
    "92": 8500,
    "hanan": 8501,
    "jibal": 8502,
    " cinematographer": 8503,
    " respectively": 8504,
    " Principal": 8505,
    " locations": 8506,
    " Kerala": 8507,
    " vis": 8508,
    " State": 8509,
    "Anza": 8510,
    "vaj": 8511,
    " Reginald": 8512,
    "grid": 8513,
    "orf": 8514,
    "eatures": 8515,
    " Footpath": 8516,
    " edited": 8517,
    " system": 8518,
    " corrup": 8519,
    " 0066": 8520,
    "erling": 8521,
    " Alexander": 8522,
    " 006277": 8523,
    "Maury": 8524,
    " fight": 8525,
    " investig": 8526,
    " test": 8527,
    "ebelle": 8528,
    " porn": 8529,
    " centres": 8530,
    "ducted": 8531,
    " filmmakers": 8532,
    " 00468": 8533,
    "minger": 8534,
    "onte": 8535,
    " lyrics": 8536,
    " Hammer": 8537,
    " 184": 8538,
    " Henri": 8539,
    " Color": 8540,
    "ervation": 8541,
    " Library": 8542,
    "tage": 8543,
    "oundar": 8544,
    "Lust": 8545,
    "eleando": 8546,
    "chero": 8547,
    " Ever": 8548,
    "Connell": 8549,
    " Monro": 8550,
    " Monroe": 8551,
    "life": 8552,
    " fl": 8553,
    " Vancou": 8554,
    " Vancouver": 8555,
    "ajan": 8556,
    "esema": 8557,
    "esemael": 8558,
    "714": 8559,
    "auh": 8560,
    " By": 8561,
    "urtis": 8562,
    "urchase": 8563,
    " sour": 8564,
    "wed": 8565,
    "ovel": 8566,
    "oreograph": 8567,
    " contra": 8568,
    "alogue": 8569,
    "Hind": 8570,
    " Je": 8571,
    " Written": 8572,
    " regarded": 8573,
    "argely": 8574,
    " -": 8575,
    " Joh": 8576,
    "gang": 8577,
    "rows": 8578,
    "uchi": 8579,
    "Kinney": 8580,
    "aves": 8581,
    "Lovato": 8582,
    " Kid": 8583,
    " Lov": 8584,
    "ilys": 8585,
    "entag": 8586,
    "esham": 8587,
    " Death": 8588,
    " CBS": 8589,
    "Geraldine": 8590,
    " Leo": 8591,
    "edic": 8592,
    " Field": 8593,
    "hner": 8594,
    " Hunt": 8595,
    " McCarthy": 8596,
    "udley": 8597,
    " Children": 8598,
    " stat": 8599,
    "fficking": 8600,
    " Dep": 8601,
    " County": 8602,
    " i": 8603,
    " hon": 8604,
    "fredi": 8605,
    " Tro": 8606,
    " Cannon": 8607,
    "stell": 8608,
    "arezhan": 8609,
    "mirba": 8610,
    "mirbaev": 8611,
    " dubbed": 8612,
    " Ted": 8613,
    " how": 8614,
    "holm": 8615,
    "taba": 8616,
    " Chil": 8617,
    "gui": 8618,
    "anco": 8619,
    " Your": 8620,
    " Owen": 8621,
    " planned": 8622,
    " Paradi": 8623,
    " belie": 8624,
    "ea": 8625,
    " Bre": 8626,
    "amu": 8627,
    " 018": 8628,
    "iev": 8629,
    " 0087": 8630,
    "East": 8631,
    "andrasekhar": 8632,
    " Armand": 8633,
    "iddens": 8634,
    "elow": 8635,
    "elowo": 8636,
    "zlau": 8637,
    " 1852": 8638,
    " Ay": 8639,
    " Lionel": 8640,
    " 00444": 8641,
    " Lester": 8642,
    "instein": 8643,
    " App": 8644,
    " Anita": 8645,
    " Men": 8646,
    "Loos": 8647,
    " Show": 8648,
    " romanized": 8649,
    " Kirby": 8650,
    " conspi": 8651,
    " conspiracy": 8652,
    " Alessand": 8653,
    "uechang": 8654,
    "uytten": 8655,
    " Say": 8656,
    "ahl": 8657,
    "neaux": 8658,
    "ertm": 8659,
    "ertmüller": 8660,
    "enahem": 8661,
    " conflic": 8662,
    " Lane": 8663,
    " 55": 8664,
    "ops": 8665,
    " these": 8666,
    " showc": 8667,
    " por": 8668,
    "Austri": 8669,
    " Med": 8670,
    "ñez": 8671,
    "upont": 8672,
    "Mackie": 8673,
    " colon": 8674,
    " colonial": 8675,
    "ulik": 8676,
    "andez": 8677,
    "omplet": 8678,
    " Johnny": 8679,
    " cine": 8680,
    " cinemas": 8681,
    " Ernst": 8682,
    " det": 8683,
    " 02": 8684,
    "olande": 8685,
    " album": 8686,
    "pol": 8687,
    " Belg": 8688,
    "thriller": 8689,
    "turo": 8690,
    " Lions": 8691,
    "gani": 8692,
    "siao": 8693,
    "hs": 8694,
    "hsien": 8695,
    " journal": 8696,
    " secret": 8697,
    " my": 8698,
    " 00299": 8699,
    " Emily": 8700,
    "asiles": 8701,
    "asilescu": 8702,
    "Canto": 8703,
    "rigoyen": 8704,
    "mar": 8705,
    " however": 8706,
    "amor": 8707,
    "font": 8708,
    "itaro": 8709,
    " like": 8710,
    "arō": 8711,
    " Buck": 8712,
    "Edi": 8713,
    "hea": 8714,
    " Arnold": 8715,
    "Armie": 8716,
    "Hammer": 8717,
    "Gav": 8718,
    "Gavras": 8719,
    " Ric": 8720,
    " Ele": 8721,
    "Ör": 8722,
    "Örne": 8723,
    "Örnek": 8724,
    " Nav": 8725,
    " far": 8726,
    " Hope": 8727,
    "tore": 8728,
    " Noah": 8729,
    " Bac": 8730,
    "released": 8731,
    " East": 8732,
    "kul": 8733,
    "kulova": 8734,
    " Guadagnino": 8735,
    " chronic": 8736,
    " principal": 8737,
    "nered": 8738,
    " Kelly": 8739,
    "ñoz": 8740,
    " fail": 8741,
    " Grant": 8742,
    " Fear": 8743,
    " sent": 8744,
    " dead": 8745,
    "achon": 8746,
    "ezuela": 8747,
    "chitel": 8748,
    "dge": 8749,
    " Harrison": 8750,
    "ustry": 8751,
    " credited": 8752,
    " dan": 8753,
    " circus": 8754,
    " front": 8755,
    "aggero": 8756,
    " names": 8757,
    " numbers": 8758,
    "Canary": 8759,
    "hail": 8760,
    "icz": 8761,
    "cano": 8762,
    "Cantani": 8763,
    "Cantaniño": 8764,
    "ento": 8765,
    " Ramis": 8766,
    " Ladd": 8767,
    "lao": 8768,
    "ajda": 8769,
    "ópez": 8770,
    " pseudonym": 8771,
    " Roth": 8772,
    " Matthew": 8773,
    "Candace": 8774,
    " Summer": 8775,
    "arily": 8776,
    "offici": 8777,
    "endola": 8778,
    " falls": 8779,
    " Play": 8780,
    "astha": 8781,
    "hifer": 8782,
    "hether": 8783,
    "Ont": 8784,
    "Cheung": 8785,
    " Nicol": 8786,
    " soon": 8787,
    "Sab": 8788,
    "Calug": 8789,
    "Caluga": 8790,
    "roney": 8791,
    "Connelly": 8792,
    "icke": 8793,
    "hoite": 8794,
    " Sea": 8795,
    " Graham": 8796,
    " Lightning": 8797,
    " still": 8798,
    " focusing": 8799,
    " Brad": 8800,
    " revol": 8801,
    " old": 8802,
    "iggs": 8803,
    "yGra": 8804,
    "yGram": 8805,
    "ulgarian": 8806,
    "orel": 8807,
    " Lawrence": 8808,
    " musicians": 8809,
    " Artists": 8810,
    " Barb": 8811,
    "ahiro": 8812,
    "inoda": 8813,
    "nol": 8814,
    "orna": 8815,
    " Scar": 8816,
    " could": 8817,
    " beginning": 8818,
    " Pres": 8819,
    " na": 8820,
    " nature": 8821,
    "än": 8822,
    " Gener": 8823,
    "Ferg": 8824,
    "Ferguson": 8825,
    "ogalli": 8826,
    "ogalliani": 8827,
    "itta": 8828,
    "pherd": 8829,
    "ognazz": 8830,
    "ognazzi": 8831,
    "phic": 8832,
    "osl": 8833,
    " spirit": 8834,
    " [": 8835,
    " gra": 8836,
    "thouse": 8837,
    " Atlan": 8838,
    " Atlanta": 8839,
    " college": 8840,
    " teen": 8841,
    "ched": 8842,
    " 0026": 8843,
    "ogut": 8844,
    " rest": 8845,
    " digit": 8846,
    " CO": 8847,
    " COV": 8848,
    " COVID": 8849,
    "Europ": 8850,
    " Mos": 8851,
    " Il": 8852,
    "enfeld": 8853,
    " Caesar": 8854,
    "MA": 8855,
    " held": 8856,
    " MCU": 8857,
    " Press": 8858,
    " extens": 8859,
    "Paz": 8860,
    " Island": 8861,
    " get": 8862,
    "manol": 8863,
    "like": 8864,
    " greatest": 8865,
    "ushan": 8866,
    " escape": 8867,
    "agher": 8868,
    " domestic": 8869,
    "peror": 8870,
    " cancer": 8871,
    " Candide": 8872,
    "ographic": 8873,
    "terman": 8874,
    " Life": 8875,
    "ennaro": 8876,
    "zian": 8877,
    "ziante": 8878,
    "thia": 8879,
    " stri": 8880,
    "amy": 8881,
    "phael": 8882,
    " Johnston": 8883,
    "ention": 8884,
    "qar": 8885,
    " portrayed": 8886,
    " prisoners": 8887,
    " Dar": 8888,
    " shorts": 8889,
    "untier": 8890,
    "inique": 8891,
    "dant": 8892,
    "lymp": 8893,
    "lympton": 8894,
    "jian": 8895,
    "èle": 8896,
    "ardie": 8897,
    "ardieu": 8898,
    "Caillou": 8899,
    "far": 8900,
    " boy": 8901,
    "esio": 8902,
    "ipley": 8903,
    " Massacre": 8904,
    " sol": 8905,
    "reon": 8906,
    " Carr": 8907,
    " Cole": 8908,
    " Without": 8909,
    " Jag": 8910,
    " Adventures": 8911,
    "adda": 8912,
    " started": 8913,
    "usmane": 8914,
    "embene": 8915,
    "choa": 8916,
    "eters": 8917,
    " using": 8918,
    "riana": 8919,
    "ause": 8920,
    "Calzav": 8921,
    "Calzavara": 8922,
    " Vera": 8923,
    " accident": 8924,
    " Andrews": 8925,
    " forces": 8926,
    "ünther": 8927,
    "sted": 8928,
    "ussi": 8929,
    "Til": 8930,
    "ometimes": 8931,
    " Destiny": 8932,
    "Cadena": 8933,
    "raga": 8934,
    "ska": 8935,
    " novels": 8936,
    " uses": 8937,
    " 0043": 8938,
    " web": 8939,
    "ák": 8940,
    "ither": 8941,
    " Rud": 8942,
    "imova": 8943,
    "laren": 8944,
    "stad": 8945,
    "Boms": 8946,
    "Bomsaw": 8947,
    "Bomsawin": 8948,
    "fest": 8949,
    "àto": 8950,
    "dul": 8951,
    " Caligula": 8952,
    "ardem": 8953,
    " pir": 8954,
    " fire": 8955,
    " gain": 8956,
    " stud": 8957,
    "ayev": 8958,
    "Laren": 8959,
    " ext": 8960,
    "ghton": 8961,
    "Armen": 8962,
    "thart": 8963,
    "itman": 8964,
    "Carface": 8965,
    "iges": 8966,
    "bidden": 8967,
    "directed": 8968,
    "Binoche": 8969,
    " Flynn": 8970,
    " doctor": 8971,
    " tr": 8972,
    " Mirren": 8973,
    "rite": 8974,
    "wne": 8975,
    " married": 8976,
    " Nirvan": 8977,
    "fort": 8978,
    "ixon": 8979,
    "athbone": 8980,
    "yap": 8981,
    "iggo": 8982,
    "guerite": 8983,
    "aten": 8984,
    "adilla": 8985,
    " 014": 8986,
    "Romanian": 8987,
    "Mr": 8988,
    "ugar": 8989,
    "cker": 8990,
    "nian": 8991,
    "ete": 8992,
    "ifetime": 8993,
    "enden": 8994,
    "eland": 8995,
    "004": 8996,
    "rier": 8997,
    "emi": 8998,
    " 07": 8999,
    "esc": 9000,
    "icked": 9001,
    "noc": 9002,
    "67": 9003,
    "egan": 9004,
    "ör": 9005,
    "ership": 9006,
    "entral": 9007,
    "rose": 9008,
    "arkington": 9009,
    "dis": 9010,
    "erno": 9011,
    "eller": 9012,
    "007": 9013,
    "ault": 9014,
    "alamet": 9015,
    "36": 9016,
    "sini": 9017,
    "hta": 9018,
    "okvei": 9019,
    "BO": 9020,
    "olly": 9021,
    "orff": 9022,
    "osse": 9023,
    "olff": 9024,
    "onder": 9025,
    "sta": 9026,
    "ownsend": 9027,
    "ajani": 9028,
    "olanda": 9029,
    "onzo": 9030,
    "ustice": 9031,
    "berta": 9032,
    "avan": 9033,
    "anor": 9034,
    "idge": 9035,
    "izi": 9036,
    "pt": 9037,
    "aku": 9038,
    "ickford": 9039,
    "uenca": 9040,
    "ilda": 9041,
    "oviet": 9042,
    "du": 9043,
    "acy": 9044,
    "lub": 9045,
    "lubien": 9046,
    "va": 9047,
    "inslet": 9048,
    "uteu": 9049,
    "uteuil": 9050,
    ".-": 9051,
    "ierra": 9052,
    "Roopesh": 9053,
    "Rai": 9054,
    "Sikand": 9055,
    "Roby": 9056,
    "Reno": 9057,
    "Deler": 9058,
    "Delerue": 9059,
    "Fechner": 9060,
    "Marielle": 9061,
    " traditional": 9062,
    "Smet": 9063,
    "Sloc": 9064,
    "Slocombe": 9065,
    "Beh": 9066,
    "Sarrazin": 9067,
    "McMah": 9068,
    "McMahon": 9069,
    " Nancy": 9070,
    "Ng": 9071,
    "Ugo": 9072,
    "Glassberg": 9073,
    "Goldstein": 9074,
    " Hart": 9075,
    "Barney": 9076,
    "Bobby": 9077,
    " Han": 9078,
    "Mellor": 9079,
    " Griffith": 9080,
    " Carroll": 9081,
    " reporter": 9082,
    " win": 9083,
    "Lazar": 9084,
    "Lazarus": 9085,
    "Madeleine": 9086,
    "Freestyle": 9087,
    "Aiace": 9088,
    "Parolin": 9089,
    "Tempera": 9090,
    "Cres": 9091,
    "Lucile": 9092,
    "Bland": 9093,
    "Leno": 9094,
    "Lenoir": 9095,
    " horse": 9096,
    "Vasconcelos": 9097,
    " cartoon": 9098,
    "Noble": 9099,
    "Blanc": 9100,
    "Tana": 9101,
    "Halsey": 9102,
    "Beery": 9103,
    "Clarkson": 9104,
    "Abol": 9105,
    "Naga": 9106,
    "Jacek": 9107,
    "Bromski": 9108,
    "Scorsese": 9109,
    "Make": 9110,
    "Morio": 9111,
    "Asaka": 9112,
    "Takayuki": 9113,
    "Negishi": 9114,
    "Megu": 9115,
    "Megumi": 9116,
    "Ogata": 9117,
    "Tange": 9118,
    "Moto": 9119,
    "Motoko": 9120,
    "Aya": 9121,
    "His": 9122,
    "Hisak": 9123,
    "Hisakawa": 9124,
    "Tomok": 9125,
    "Tomokaz": 9126,
    "Tomokazu": 9127,
    "asaki": 9128,
    "Junko": 9129,
    "Iwa": 9130,
    "Iwao": 9131,
    "Yukana": 9132,
    "Nog": 9133,
    "Nogami": 9134,
    "Nanase": 9135,
    "Ohkawa": 9136,
    " Card": 9137,
    "ード": 9138,
    " Kin": 9139,
    " Blu": 9140,
    "Warhol": 9141,
    "Moros": 9142,
    "Morosco": 9143,
    "Judy": 9144,
    "Pawan": 9145,
    "Barnes": 9146,
    "Eugen": 9147,
    "Eugenio": 9148,
    " Giuli": 9149,
    " Coby": 9150,
    " Cos": 9151,
    " Jar": 9152,
    "Fortun": 9153,
    "ousand": 9154,
    " Africa": 9155,
    " Certain": 9156,
    "Patric": 9157,
    "Zahn": 9158,
    "Kathryn": 9159,
    "Hahn": 9160,
    "leston": 9161,
    "Emilie": 9162,
    "Kandy": 9163,
    "Kandyse": 9164,
    "McCl": 9165,
    "McClure": 9166,
    " Savage": 9167,
    " scene": 9168,
    "Lange": 9169,
    "Burke": 9170,
    "Galile": 9171,
    "Galileu": 9172,
    "guel": 9173,
    "Cer": 9174,
    "Juliet": 9175,
    " 71": 9176,
    "ghese": 9177,
    "Liv": 9178,
    "Ghe": 9179,
    "Gheor": 9180,
    "Bartholomew": 9181,
    "Minna": 9182,
    "Gombell": 9183,
    "Lydon": 9184,
    " Landers": 9185,
    " Jimmy": 9186,
    "Keep": 9187,
    "Secret": 9188,
    "Vertical": 9189,
    " Dur": 9190,
    " total": 9191,
    "Betti": 9192,
    "Cedar": 9193,
    "Boll": 9194,
    "Katie": 9195,
    "Griff": 9196,
    "Griffin": 9197,
    "Villatoro": 9198,
    "35": 9199,
    "Madness": 9200,
    "Mim": 9201,
    "Wardour": 9202,
    "Leav": 9203,
    "Leavitt": 9204,
    "Ces": 9205,
    "Zimmer": 9206,
    "McLean": 9207,
    "Lehmann": 9208,
    "enko": 9209,
    "Marais": 9210,
    "Luisa": 9211,
    "Bemberg": 9212,
    "Mazhar": 9213,
    "Walang": 9214,
    "Sinasanto": 9215,
    " Sant": 9216,
    " streaming": 9217,
    " Commission": 9218,
    " Heart": 9219,
    "Jerome": 9220,
    "Donovan": 9221,
    "Murdock": 9222,
    " Randolph": 9223,
    " Off": 9224,
    "Bavaria": 9225,
    "Yak": 9226,
    "Reicher": 9227,
    "Waller": 9228,
    "Cool": 9229,
    "Sonam": 9230,
    "Bajwa": 9231,
    "Tracy": 9232,
    "Autry": 9233,
    "Alma": 9234,
    "Macror": 9235,
    "Macrorie": 9236,
    "Friedhof": 9237,
    "Friedhofer": 9238,
    "Mai": 9239,
    "Hend": 9240,
    "Lederer": 9241,
    " Marie": 9242,
    "Fuller": 9243,
    "McCann": 9244,
    "Poul": 9245,
    " Payne": 9246,
    " Lynn": 9247,
    " Edgar": 9248,
    " Ellen": 9249,
    "Cailli": 9250,
    "Cailliet": 9251,
    "Corby": 9252,
    "Lon": 9253,
    "Chaney": 9254,
    "Jyotii": 9255,
    "Sethi": 9256,
    "Reeve": 9257,
    "Sub": 9258,
    "Sriv": 9259,
    "Sydney": 9260,
    "Bennett": 9261,
    "Carell": 9262,
    " almost": 9263,
    "uelle": 9264,
    " tone": 9265,
    " tri": 9266,
    "Celest": 9267,
    "Hate": 9268,
    "Russia": 9269,
    "Propaganda": 9270,
    "Whitfield": 9271,
    "Pry": 9272,
    "Clarence": 9273,
    "Muse": 9274,
    "Aj": 9275,
    "Sist": 9276,
    "Dixon": 9277,
    " Originally": 9278,
    " emplo": 9279,
    "Sachin": 9280,
    "Meray": 9281,
    "Merayo": 9282,
    "Rosal": 9283,
    "Marcelo": 9284,
    "Hansen": 9285,
    " celeb": 9286,
    " anniversary": 9287,
    "Fraz": 9288,
    " humor": 9289,
    " environmental": 9290,
    " Released": 9291,
    "Fréd": 9292,
    "Frédé": 9293,
    "Frédéric": 9294,
    "Botton": 9295,
    "Ledou": 9296,
    "Ledoux": 9297,
    "Mathil": 9298,
    "Mathilde": 9299,
    "Seigner": 9300,
    "Ví": 9301,
    "Scenes": 9302,
    "upper": 9303,
    "Ok": 9304,
    "Okada": 9305,
    "Tina": 9306,
    "Hirsch": 9307,
    "Short": 9308,
    "Warr": 9309,
    "Warrenton": 9310,
    "Weird": 9311,
    "Yankovic": 9312,
    " developed": 9313,
    " copyright": 9314,
    " once": 9315,
    " heav": 9316,
    " Hot": 9317,
    "Campos": 9318,
    " support": 9319,
    " Captive": 9320,
    "Carlyle": 9321,
    "Théophile": 9322,
    " Blan": 9323,
    " Théophile": 9324,
    "Duval": 9325,
    "Gómez": 9326,
    "Weaver": 9327,
    "Olmstead": 9328,
    "Fritz": 9329,
    "Goodwin": 9330,
    "Zsa": 9331,
    "Gabor": 9332,
    "Braund": 9333,
    "Cure": 9334,
    "Stacey": 9335,
    " Hudson": 9336,
    " Sky": 9337,
    "Tolkin": 9338,
    "Guber": 9339,
    "Aidan": 9340,
    "chitec": 9341,
    "chitecture": 9342,
    " Ba": 9343,
    " Vill": 9344,
    " bor": 9345,
    " arch": 9346,
    " throughout": 9347,
    "educ": 9348,
    " Khan": 9349,
    "Bosworth": 9350,
    "Satō": 9351,
    "Anj": 9352,
    "Huston": 9353,
    "Imogen": 9354,
    "Ig": 9355,
    "Igor": 9356,
    "Ulrich": 9357,
    "Schultze": 9358,
    " Elisabeth": 9359,
    " plans": 9360,
    " Directors": 9361,
    "Arantxa": 9362,
    "Voyeur": 9363,
    "García": 9364,
    "Isab": 9365,
    "Balcon": 9366,
    "Mancuso": 9367,
    "Pill": 9368,
    "Malvino": 9369,
    "Ot": 9370,
    "Cliff": 9371,
    " Theatre": 9372,
    "Wax": 9373,
    "Waxman": 9374,
    "Cline": 9375,
    "Jagannadh": 9376,
    "Tavernier": 9377,
    "Thorpe": 9378,
    "Salinger": 9379,
    "Hagen": 9380,
    "Morrow": 9381,
    "Bamford": 9382,
    "McNally": 9383,
    " initially": 9384,
    "season": 9385,
    "Made": 9386,
    "Dyke": 9387,
    "Pommer": 9388,
    "Kyne": 9389,
    "Ainslee": 9390,
    "Kidtoon": 9391,
    "Planer": 9392,
    "Georgia": 9393,
    "Ky": 9394,
    "Hoffman": 9395,
    " Hoffman": 9396,
    " Georgia": 9397,
    "Comm": 9398,
    "Communications": 9399,
    "Kieślowski": 9400,
    "Jerzy": 9401,
    " obsess": 9402,
    " transfor": 9403,
    "SC": 9404,
    "Tyrone": 9405,
    "Debie": 9406,
    "Belgium": 9407,
    "Fabrice": 9408,
    "Welz": 9409,
    " Christmas": 9410,
    " region": 9411,
    " Bartel": 9412,
    "keep": 9413,
    " fra": 9414,
    " begin": 9415,
    "Bairstow": 9416,
    "ński": 9417,
    "Jaime": 9418,
    "Bradley": 9419,
    "Torre": 9420,
    "Petit": 9421,
    "Jameson": 9422,
    " currently": 9423,
    " Valent": 9424,
    " negative": 9425,
    "Valentine": 9426,
    "Ort": 9427,
    "Ortol": 9428,
    "Ortolani": 9429,
    "Kerman": 9430,
    "Gian": 9431,
    "Cler": 9432,
    "Bartek": 9433,
    "biograph": 9434,
    "tured": 9435,
    "382": 9436,
    "Lanci": 9437,
    "Piov": 9438,
    "Piovani": 9439,
    "Carpent": 9440,
    "Carpentieri": 9441,
    " Diamond": 9442,
    " swash": 9443,
    " swashbuck": 9444,
    "Rasmus": 9445,
    "Siv": 9446,
    "Wyler": 9447,
    "Olivier": 9448,
    "Goetz": 9449,
    "Garrett": 9450,
    " rival": 9451,
    "3113": 9452,
    "Mandarin": 9453,
    "Shu": 9454,
    "Jing": 9455,
    "Hilary": 9456,
    "Sukhe": 9457,
    "Doctorz": 9458,
    "Sidhu": 9459,
    "Upasana": 9460,
    "Karamjit": 9461,
    "Anmol": 9462,
    " Jatta": 9463,
    " Punjabi": 9464,
    " Son": 9465,
    " Sharma": 9466,
    " turned": 9467,
    " accomp": 9468,
    "Greco": 9469,
    "Goodman": 9470,
    "Devon": 9471,
    "Pantol": 9472,
    "Pantoliano": 9473,
    "Antony": 9474,
    "Eagle": 9475,
    "McGow": 9476,
    "McGowan": 9477,
    "Venu": 9478,
    "Bijibal": 9479,
    " praising": 9480,
    "Broening": 9481,
    " Sat": 9482,
    " appears": 9483,
    "179": 9484,
    "Trovaj": 9485,
    "Trovajoli": 9486,
    "coli": 9487,
    "Pollard": 9488,
    "Denny": 9489,
    "Beatrice": 9490,
    "Ingrid": 9491,
    "Waters": 9492,
    "Line": 9493,
    "Features": 9494,
    "Emmet": 9495,
    "Morali": 9496,
    "Boyle": 9497,
    "Sandi": 9498,
    "Tammy": 9499,
    " Kishan": 9500,
    " legal": 9501,
    "Sperling": 9502,
    "Pasolini": 9503,
    "Pino": 9504,
    "Stefano": 9505,
    "Chi": 9506,
    "Ciccio": 9507,
    "Ingrass": 9508,
    "Ingrassia": 9509,
    "stenberg": 9510,
    "Domen": 9511,
    "Domenico": 9512,
    "Age": 9513,
    " Franco": 9514,
    "Cary": 9515,
    "Gries": 9516,
    " doc": 9517,
    " leader": 9518,
    " signed": 9519,
    " compan": 9520,
    "Cheryl": 9521,
    "Newcom": 9522,
    "Grignon": 9523,
    "Hunebelle": 9524,
    " André": 9525,
    "Hillary": 9526,
    "composed": 9527,
    "Pearl": 9528,
    "Beltram": 9529,
    "Beltrami": 9530,
    "Elisha": 9531,
    "Alonso": 9532,
    " Roland": 9533,
    "Bassman": 9534,
    "Bou": 9535,
    " Like": 9536,
    " MacLaine": 9537,
    "Needham": 9538,
    "Kress": 9539,
    "Ruddy": 9540,
    "Sinatra": 9541,
    "Preminger": 9542,
    "Bailey": 9543,
    "Bela": 9544,
    " Lud": 9545,
    " CinemaSc": 9546,
    " CinemaScope": 9547,
    " within": 9548,
    " epic": 9549,
    " opened": 9550,
    " theatres": 9551,
    " Cong": 9552,
    " Congress": 9553,
    "Vantage": 9554,
    "Shakti": 9555,
    "Soundar": 9556,
    " Bush": 9557,
    " 1911": 9558,
    "Higgins": 9559,
    "Rolfe": 9560,
    "Coz": 9561,
    "Manfred": 9562,
    "Cotter": 9563,
    "Lustig": 9564,
    "Brandner": 9565,
    "peleando": 9566,
    "cochero": 9567,
    "Chap": 9568,
    " Hum": 9569,
    "retz": 9570,
    "ucher": 9571,
    "Gut": 9572,
    "tenberg": 9573,
    "Cinemas": 9574,
    "Saiju": 9575,
    "Kurup": 9576,
    "Parvathy": 9577,
    " Kumar": 9578,
    "mont": 9579,
    " meet": 9580,
    "Pay": 9581,
    "Haynes": 9582,
    "ining": 9583,
    " Bryan": 9584,
    " Angela": 9585,
    " reve": 9586,
    " viewed": 9587,
    " poorly": 9588,
    " esp": 9589,
    "Drake": 9590,
    "Trem": 9591,
    " trilogy": 9592,
    "Shankar": 9593,
    "Ajit": 9594,
    "Ajitesh": 9595,
    "Bas": 9596,
    "Jarecki": 9597,
    "Christy": 9598,
    "Wesemael": 9599,
    "Russo": 9600,
    "Isid": 9601,
    "Bethel": 9602,
    "Gielgud": 9603,
    "Silver": 9604,
    "Rauh": 9605,
    " Hayes": 9606,
    " adv": 9607,
    " consists": 9608,
    "Wool": 9609,
    "Madeline": 9610,
    "Hewitt": 9611,
    "Pauline": 9612,
    " choreograph": 9613,
    " sk": 9614,
    " dialogue": 9615,
    "Albright": 9616,
    "Benche": 9617,
    "Brescia": 9618,
    "singer": 9619,
    "Teddy": 9620,
    "Blakeley": 9621,
    "Chito": 9622,
    "Roño": 9623,
    "Maggie": 9624,
    "Horne": 9625,
    "Rusty": 9626,
    "Lemorande": 9627,
    "Luciano": 9628,
    " Yu": 9629,
    " largely": 9630,
    " liter": 9631,
    "Je": 9632,
    "Ivo": 9633,
    " MacDonald": 9634,
    "Maxwell": 9635,
    "Yū": 9636,
    "Yūko": 9637,
    "Richardson": 9638,
    "Nigel": 9639,
    "Margheriti": 9640,
    "Stormy": 9641,
    "letcher": 9642,
    "McHugh": 9643,
    "Kaylin": 9644,
    "Garza": 9645,
    "Evelyn": 9646,
    "Demi": 9647,
    "rak": 9648,
    "Wim": 9649,
    "Opbro": 9650,
    "Opbrouck": 9651,
    "Claudio": 9652,
    "Sei": 9653,
    "Seijun": 9654,
    "Koe": 9655,
    "Cribbins": 9656,
    "Dilys": 9657,
    " fund": 9658,
    "Regentag": 9659,
    "Ricket": 9660,
    "Exit": 9661,
    "Hesham": 9662,
    "Iss": 9663,
    "Issawi": 9664,
    "Lieb": 9665,
    "Loubert": 9666,
    "Hamlet": 9667,
    "Sark": 9668,
    "Sarkiss": 9669,
    "Sarkissian": 9670,
    "Morton": 9671,
    " Nagy": 9672,
    "usion": 9673,
    "NBCUniversal": 9674,
    "Syndic": 9675,
    "Syndication": 9676,
    "Trifec": 9677,
    "Trifecta": 9678,
    "Fitzgerald": 9679,
    "Catal": 9680,
    "Madsen": 9681,
    "Lic": 9682,
    "Ruskin": 9683,
    "Morra": 9684,
    "Sli": 9685,
    "Slim": 9686,
    "Summerville": 9687,
    "Kibbee": 9688,
    "Darwell": 9689,
    " domain": 9690,
    "Giac": 9691,
    "Galea": 9692,
    "Kingsley": 9693,
    "animator": 9694,
    "Angie": 9695,
    "Sargent": 9696,
    "Eph": 9697,
    "Ephron": 9698,
    " Curtis": 9699,
    " station": 9700,
    " Ari": 9701,
    "Mia": 9702,
    " Min": 9703,
    "Metier": 9704,
    " Thor": 9705,
    " Sally": 9706,
    "Weihm": 9707,
    "Weihmayr": 9708,
    "Dudley": 9709,
    "Khushbu": 9710,
    "Nicolai": 9711,
    "Glo": 9712,
    "Ormond": 9713,
    "Blystone": 9714,
    " surviv": 9715,
    " survivors": 9716,
    " Time": 9717,
    " Nik": 9718,
    " Rap": 9719,
    " multiple": 9720,
    " trafficking": 9721,
    " audiences": 9722,
    "Kann": 9723,
    "Manfredi": 9724,
    "Elvio": 9725,
    "Porta": 9726,
    "Starrett": 9727,
    "Faith": 9728,
    "Stout": 9729,
    "Ellison": 9730,
    "Saxon": 9731,
    "Parks": 9732,
    "PBS": 9733,
    "Johannes": 9734,
    "Amstell": 9735,
    "Eil": 9736,
    "Gemma": 9737,
    "Bassett": 9738,
    " nor": 9739,
    "Pank": 9740,
    "Malle": 9741,
    "Darezhan": 9742,
    "Omirbaev": 9743,
    "Eda": 9744,
    "Jaglom": 9745,
    " Family": 9746,
    " Lake": 9747,
    "Daw": 9748,
    "Soles": 9749,
    "Emmett": 9750,
    "Stro": 9751,
    "contaba": 9752,
    "Chal": 9753,
    "Ewa": 9754,
    "Mickey": 9755,
    "Praj": 9756,
    "Prajesh": 9757,
    "Montgomery": 9758,
    " Chilean": 9759,
    "Telev": 9760,
    "Televisi": 9761,
    "Televisión": 9762,
    "Gonzalo": 9763,
    "Movies": 9764,
    " Tok": 9765,
    "kli": 9766,
    "Dickey": 9767,
    "enson": 9768,
    " Rh": 9769,
    " Present": 9770,
    "Mulkey": 9771,
    " Liz": 9772,
    "Gy": 9773,
    " too": 9774,
    " much": 9775,
    " little": 9776,
    " come": 9777,
    "Bai": 9778,
    "Ling": 9779,
    " 1956": 9780,
    "Bernds": 9781,
    "Gina": 9782,
    "Rodriguez": 9783,
    "Finn": 9784,
    "Dirk": 9785,
    "Bonn": 9786,
    "Dein": 9787,
    "Polonia": 9788,
    "Kuri": 9789,
    "Morita": 9790,
    "Silvano": 9791,
    "Ipp": 9792,
    "Ippol": 9793,
    "Ippoliti": 9794,
    "Guccione": 9795,
    "276": 9796,
    "Collis": 9797,
    "Lopez": 9798,
    "Alessandra": 9799,
    " Dog": 9800,
    " sales": 9801,
    " cars": 9802,
    " done": 9803,
    "Scot": 9804,
    "Chandrasekhar": 9805,
    "Snell": 9806,
    " remade": 9807,
    " Telugu": 9808,
    " Ban": 9809,
    "Ranbir": 9810,
    " Cameron": 9811,
    " Hunter": 9812,
    "Molina": 9813,
    "Giddens": 9814,
    "Chow": 9815,
    " Coff": 9816,
    " air": 9817,
    "Marvin": 9818,
    "Hatley": 9819,
    "Cornel": 9820,
    "Kendrick": 9821,
    "Saï": 9822,
    "Saïd": 9823,
    "Swift": 9824,
    "Sigu": 9825,
    "Sigurj": 9826,
    "Sigh": 9827,
    "Sighv": 9828,
    "Sighvats": 9829,
    "Sighvatsson": 9830,
    "Oyelowo": 9831,
    "Kenny": 9832,
    "Nicole": 9833,
    " Pr": 9834,
    " Norma": 9835,
    " lover": 9836,
    "Nib": 9837,
    "Talmadge": 9838,
    "Pr": 9839,
    "Bucquet": 9840,
    "Ayres": 9841,
    "Willis": 9842,
    "Goldbeck": 9843,
    " Ayres": 9844,
    " Barrymore": 9845,
    "Joshu": 9846,
    "Joshua": 9847,
    " Charlotte": 9848,
    "bridge": 9849,
    "Shield": 9850,
    "Tommy": 9851,
    "Darla": 9852,
    "Kaye": 9853,
    "McFar": 9854,
    "McFarland": 9855,
    " Gard": 9856,
    "Sono": 9857,
    "Weinstein": 9858,
    " biography": 9859,
    " Charlie": 9860,
    " Claudel": 9861,
    "Mach": 9862,
    " Home": 9863,
    "Fleck": 9864,
    " Farn": 9865,
    "Kingston": 9866,
    "Booth": 9867,
    " Wright": 9868,
    " native": 9869,
    "Sykes": 9870,
    " Mess": 9871,
    " mission": 9872,
    "Frate": 9873,
    "Xuechang": 9874,
    "Nuytten": 9875,
    "Lowery": 9876,
    "Str": 9877,
    "Doro": 9878,
    "Dorothea": 9879,
    "Gri": 9880,
    "Nathalie": 9881,
    "Massey": 9882,
    " Iv": 9883,
    "Nerv": 9884,
    "Nervig": 9885,
    "Brock": 9886,
    "Jayaraj": 9887,
    "Arlene": 9888,
    "Quaid": 9889,
    "Ritch": 9890,
    "Marte": 9891,
    "Gerardo": 9892,
    "Eleonora": 9893,
    "Drago": 9894,
    "Darnell": 9895,
    "Sidd": 9896,
    "Seif": 9897,
    "Agnes": 9898,
    "Dres": 9899,
    "Drescher": 9900,
    "ári": 9901,
    "Rex": 9902,
    "Serandre": 9903,
    "Serandrei": 9904,
    "Cicogn": 9905,
    "Cicognini": 9906,
    "Lina": 9907,
    "Wertmüller": 9908,
    "Esp": 9909,
    "Menahem": 9910,
    "Golan": 9911,
    "Forman": 9912,
    " 1919": 9913,
    "Moham": 9914,
    "Stavis": 9915,
    "Staviski": 9916,
    "Roc": 9917,
    "Fenn": 9918,
    "Fennelly": 9919,
    "Hirosh": 9920,
    "Hiroshi": 9921,
    "Higgin": 9922,
    "Diane": 9923,
    "Michelle": 9924,
    "Enger": 9925,
    "DeM": 9926,
    "Tai": 9927,
    "oyama": 9928,
    "Naka": 9929,
    "Brunetti": 9930,
    "Tsuji": 9931,
    "Rowland": 9932,
    "Enrico": 9933,
    "Duning": 9934,
    "Concor": 9935,
    "Concorde": 9936,
    "Rhys": 9937,
    "Wakefield": 9938,
    "Sami": 9939,
    " Asia": 9940,
    " Ara": 9941,
    "atives": 9942,
    " portion": 9943,
    "Siddique": 9944,
    "Mayo": 9945,
    "Guadagnino": 9946,
    " Jorge": 9947,
    " Starring": 9948,
    "Angiol": 9949,
    "Angiolillo": 9950,
    "Rie": 9951,
    "Riepl": 9952,
    "Marin": 9953,
    "Nov": 9954,
    "Ewald": 9955,
    "Dupont": 9956,
    " Second": 9957,
    "Kulik": 9958,
    "Bregman": 9959,
    "Carrol": 9960,
    "Naish": 9961,
    "Curly": 9962,
    "879": 9963,
    "Momplet": 9964,
    "Weissmuller": 9965,
    " Weissmuller": 9966,
    " ship": 9967,
    "ertz": 9968,
    "Busey": 9969,
    "ective": 9970,
    "ouble": 9971,
    "Yolande": 9972,
    "Florence": 9973,
    "Guzzi": 9974,
    "Lants": 9975,
    "Lantschner": 9976,
    "emoir": 9977,
    "Pod": 9978,
    "Aart": 9979,
    "Aarti": 9980,
    "Bajaj": 9981,
    "Silverman": 9982,
    " Belgian": 9983,
    " refers": 9984,
    " explor": 9985,
    "site": 9986,
    "Bucquoy": 9987,
    "yas": 9988,
    "Gersh": 9989,
    "God": 9990,
    "Adele": 9991,
    "Brillan": 9992,
    "Brillante": 9993,
    "Dickson": 9994,
    "Siss": 9995,
    " Now": 9996,
    " must": 9997,
    "Hsiao": 9998,
    " hous": 9999,
    "Nikol": 10000,
    "Nikolai": 10001,
    "Top": 10002,
    "Verd": 10003,
    "Derrick": 10004,
    "mant": 10005,
    " Jade": 10006,
    " reli": 10007,
    " connec": 10008,
    " Cost": 10009,
    " agreed": 10010,
    " transl": 10011,
    "Armfield": 10012,
    "Dany": 10013,
    "Emile": 10014,
    " Margaret": 10015,
    "Jansen": 10016,
    "annah": 10017,
    "Menzies": 10018,
    "Pile": 10019,
    "Ră": 10020,
    "Răz": 10021,
    "Răzvan": 10022,
    "Vasilescu": 10023,
    " middle": 10024,
    "Brady": 10025,
    "Olivia": 10026,
    "Havilland": 10027,
    "Liberman": 10028,
    "Heerman": 10029,
    "Heermance": 10030,
    " Siddi": 10031,
    "Gop": 10032,
    "Mune": 10033,
    " dest": 10034,
    " Pab": 10035,
    "Irigoyen": 10036,
    "Gregg": 10037,
    "Elfont": 10038,
    "Gul": 10039,
    "Gulshan": 10040,
    "Deva": 10041,
    "Devaiah": 10042,
    "Akitaro": 10043,
    "Daichi": 10044,
    " Band": 10045,
    "fiction": 10046,
    "Derek": 10047,
    "Si": 10048,
    "Resnick": 10049,
    "Grable": 10050,
    "DaCosta": 10051,
    "Arim": 10052,
    "Kas": 10053,
    "Mamrie": 10054,
    "Jesús": 10055,
    " Adventure": 10056,
    " univers": 10057,
    "ensive": 10058,
    "Evelyne": 10059,
    "Harline": 10060,
    "Kenney": 10061,
    "Rodney": 10062,
    "Chevy": 10063,
    "Gance": 10064,
    " occurred": 10065,
    "ression": 10066,
    "Crom": 10067,
    "Dex": 10068,
    "Dexter": 10069,
    "Terror": 10070,
    "Hem": 10071,
    "Debney": 10072,
    "Rhea": 10073,
    " Super": 10074,
    "Ivory": 10075,
    " Dwan": 10076,
    "Adnan": 10077,
    "Shamroy": 10078,
    "Lara": 10079,
    "Otakar": 10080,
    "Váv": 10081,
    "Vávra": 10082,
    "Hick": 10083,
    "Buhagiar": 10084,
    " Dra": 10085,
    "Zhong": 10086,
    "McDonagh": 10087,
    "Asim": 10088,
    "Abbasi": 10089,
    "Tolga": 10090,
    "Demir": 10091,
    "Karen": 10092,
    "Martín": 10093,
    " Ak": 10094,
    " Live": 10095,
    "Vo": 10096,
    "Voig": 10097,
    "Voigt": 10098,
    "Felissa": 10099,
    "Johanna": 10100,
    "Ettore": 10101,
    "Scola": 10102,
    "Git": 10103,
    "Brando": 10104,
    "Emma": 10105,
    "Roque": 10106,
    " Beery": 10107,
    "Reiser": 10108,
    "Sb": 10109,
    "Fisher": 10110,
    "Stafford": 10111,
    "umiko": 10112,
    "kai": 10113,
    "Toshih": 10114,
    "Toshihiko": 10115,
    "Chie": 10116,
    "Gardner": 10117,
    "Lowe": 10118,
    " Bacon": 10119,
    " though": 10120,
    "Gramer": 10121,
    "Gramercy": 10122,
    "Wen": 10123,
    "Bernstein": 10124,
    "Nunn": 10125,
    "Pollak": 10126,
    "Natalya": 10127,
    "Merkulova": 10128,
    " School": 10129,
    " gradu": 10130,
    " Develop": 10131,
    " Development": 10132,
    " Muk": 10133,
    " digital": 10134,
    " gar": 10135,
    " garnered": 10136,
    " category": 10137,
    " Guild": 10138,
    "Taiwan": 10139,
    "Sandrine": 10140,
    "Wa": 10141,
    "Hsin": 10142,
    "Josephine": 10143,
    "Hsu": 10144,
    "Dominic": 10145,
    "Factory": 10146,
    "Holz": 10147,
    "Gerard": 10148,
    "Ark": 10149,
    "Cassidy": 10150,
    "Gleeson": 10151,
    "Ana": 10152,
    "Muñoz": 10153,
    "Guillermo": 10154,
    "Ri": 10155,
    "Brandon": 10156,
    " length": 10157,
    "Snow": 10158,
    "Matthe": 10159,
    "Lydia": 10160,
    "Chandler": 10161,
    "Christine": 10162,
    "Vachon": 10163,
    "Leban": 10164,
    "Lebanon": 10165,
    "Venezuela": 10166,
    "Alexei": 10167,
    "Uchitel": 10168,
    "Kr": 10169,
    " Carmina": 10170,
    " Ana": 10171,
    "Bernhard": 10172,
    "Kaun": 10173,
    "Gable": 10174,
    "aird": 10175,
    "did": 10176,
    "Barnett": 10177,
    "Milburn": 10178,
    "Piv": 10179,
    " Stone": 10180,
    " Walters": 10181,
    " campaign": 10182,
    " refle": 10183,
    "Bartlett": 10184,
    "Arturo": 10185,
    " industry": 10186,
    " involvement": 10187,
    " editor": 10188,
    " Capital": 10189,
    " Op": 10190,
    " Amazon": 10191,
    " USA": 10192,
    "Martins": 10193,
    " performing": 10194,
    " Acc": 10195,
    " According": 10196,
    "Pist": 10197,
    " Ball": 10198,
    " uncredited": 10199,
    "Sally": 10200,
    "Avani": 10201,
    "Modi": 10202,
    "Canals": 10203,
    "Gaggero": 10204,
    "Wag": 10205,
    " Withers": 10206,
    "office": 10207,
    " allow": 10208,
    "\"),": 10209,
    " material": 10210,
    " chall": 10211,
    "Hoyte": 10212,
    "Nordi": 10213,
    "Nordisk": 10214,
    "Matti": 10215,
    "Baum": 10216,
    "people": 10217,
    "Season": 10218,
    "Evgen": 10219,
    "omon": 10220,
    "kiew": 10221,
    "kiewicz": 10222,
    "Rigo": 10223,
    "Rigoberto": 10224,
    "Pérezcano": 10225,
    "Pec": 10226,
    "list": 10227,
    "cuenta": 10228,
    "cuento": 10229,
    "wrote": 10230,
    " Chase": 10231,
    "Brodine": 10232,
    "Farrar": 10233,
    "Hak": 10234,
    "Trent": 10235,
    "Opal": 10236,
    "Opaloch": 10237,
    "Delli": 10238,
    "Guerra": 10239,
    "Matthau": 10240,
    "Ubal": 10241,
    "Ubaldo": 10242,
    "Arata": 10243,
    "Ladislao": 10244,
    "Vajda": 10245,
    "Pallos": 10246,
    "Ákos": 10247,
    "Toln": 10248,
    "Tolnay": 10249,
    "Rosa": 10250,
    "Sard": 10251,
    "Agust": 10252,
    "Agustín": 10253,
    "López": 10254,
    "Ingram": 10255,
    " primarily": 10256,
    " House": 10257,
    "chetti": 10258,
    "Soffici": 10259,
    "Gusmán": 10260,
    "Sylv": 10261,
    "Lyons": 10262,
    "Amendola": 10263,
    "Winfield": 10264,
    "Harlow": 10265,
    " Will": 10266,
    " dist": 10267,
    "Anura": 10268,
    "Shweta": 10269,
    " Hindi": 10270,
    " Kash": 10271,
    "Bey": 10272,
    "Knowles": 10273,
    "Mekhi": 10274,
    "Phifer": 10275,
    "Link": 10276,
    " whether": 10277,
    "Donna": 10278,
    "Mill": 10279,
    "Nyman": 10280,
    "Saura": 10281,
    "Gades": 10282,
    "Beyer": 10283,
    "Farrell": 10284,
    "Zhang": 10285,
    "Mych": 10286,
    "Mychael": 10287,
    "Danna": 10288,
    "Siddiqui": 10289,
    "Glauber": 10290,
    " camer": 10291,
    " concept": 10292,
    "Middleton": 10293,
    "Madhur": 10294,
    "Bhandarkar": 10295,
    " Cthulhu": 10296,
    " birth": 10297,
    " ru": 10298,
    " aid": 10299,
    "menta": 10300,
    "Dermot": 10301,
    "Mulroney": 10302,
    "original": 10303,
    " Capitaine": 10304,
    "Felix": 10305,
    "Rosem": 10306,
    "Firth": 10307,
    "Boles": 10308,
    "Mazz": 10309,
    "Wilhoite": 10310,
    "Graffin": 10311,
    "Desfassi": 10312,
    "Desfassiaux": 10313,
    " Baby": 10314,
    "Unsell": 10315,
    "Fee": 10316,
    "Lea": 10317,
    " do": 10318,
    "AS": 10319,
    " McQueen": 10320,
    " 500": 10321,
    " predec": 10322,
    " predecess": 10323,
    " predecessor": 10324,
    "ais": 10325,
    " contribu": 10326,
    "Imman": 10327,
    " put": 10328,
    " genre": 10329,
    "Huppertz": 10330,
    "Ack": 10331,
    "Ackroyd": 10332,
    "PolyGram": 10333,
    "Filmed": 10334,
    " Mak": 10335,
    "nik": 10336,
    "Mock": 10337,
    "Mockridge": 10338,
    "Rudy": 10339,
    "Wurlitzer": 10340,
    "Berman": 10341,
    "Annette": 10342,
    " cover": 10343,
    " widely": 10344,
    "Netherlands": 10345,
    " 54": 10346,
    " Dave": 10347,
    "Mitri": 10348,
    "Filipp": 10349,
    "Deitch": 10350,
    "Lopes": 10351,
    "Masahiro": 10352,
    "Shinoda": 10353,
    "Mae": 10354,
    "Grissell": 10355,
    "Lorna": 10356,
    " hero": 10357,
    " villain": 10358,
    "ked": 10359,
    "Corp": 10360,
    " banner": 10361,
    "Clausen": 10362,
    " childhood": 10363,
    "Sheridan": 10364,
    "ao": 10365,
    "Rory": 10366,
    "Bless": 10367,
    "Blessy": 10368,
    " Thunder": 10369,
    "Tomas": 10370,
    "Herrmann": 10371,
    "Mitchum": 10372,
    " Thompson": 10373,
    " elec": 10374,
    "Presswell": 10375,
    "Lord": 10376,
    "thelm": 10377,
    "Veronica": 10378,
    "Valton": 10379,
    "Valtonen": 10380,
    "Tu": 10381,
    "Kari": 10382,
    "ikka": 10383,
    "kka": 10384,
    " Vac": 10385,
    "Soria": 10386,
    " Clive": 10387,
    "ys": 10388,
    " handled": 10389,
    " Patricia": 10390,
    "used": 10391,
    " Upon": 10392,
    "Menzel": 10393,
    "Campogalliani": 10394,
    " costume": 10395,
    "Koshe": 10396,
    " Kate": 10397,
    "Felitta": 10398,
    "Shepherd": 10399,
    "Goldhaber": 10400,
    "Bretton": 10401,
    " Bennet": 10402,
    "Chih": 10403,
    "Bennis": 10404,
    "Bennison": 10405,
    "Eisenberg": 10406,
    "564": 10407,
    "Marcos": 10408,
    "mation": 10409,
    " spo": 10410,
    " scen": 10411,
    "Tognazzi": 10412,
    "Matheson": 10413,
    " Comp": 10414,
    "Werker": 10415,
    "Hyams": 10416,
    "Black": 10417,
    "Leonor": 10418,
    "Frost": 10419,
    " Fro": 10420,
    "lio": 10421,
    "Nico": 10422,
    "Nicoletta": 10423,
    "Reinhardt": 10424,
    " experience": 10425,
    "Language": 10426,
    "Sastha": 10427,
    " Torres": 10428,
    " High": 10429,
    "Meaghan": 10430,
    "Ston": 10431,
    "Stoner": 10432,
    "Julius": 10433,
    "Pag": 10434,
    "Pagano": 10435,
    "Grande": 10436,
    "Kogut": 10437,
    " bey": 10438,
    " beyond": 10439,
    " Louisiana": 10440,
    "leans": 10441,
    " digitally": 10442,
    "Wilton": 10443,
    "enne": 10444,
    " Kent": 10445,
    "Reeves": 10446,
    "Fairbanks": 10447,
    "Wolff": 10448,
    "umed": 10449,
    "Exchange": 10450,
    " versions": 10451,
    "bb": 10452,
    " land": 10453,
    "Au": 10454,
    "Auric": 10455,
    "Rains": 10456,
    " Avenger": 10457,
    "inematic": 10458,
    " Markus": 10459,
    " McFeely": 10460,
    " /": 10461,
    " central": 10462,
    "Grillo": 10463,
    "Holland": 10464,
    "Hurt": 10465,
    "Brühl": 10466,
    "Marisa": 10467,
    "Logan": 10468,
    "Bava": 10469,
    "Hau": 10470,
    " gov": 10471,
    " govern": 10472,
    " government": 10473,
    " 69": 10474,
    "187": 10475,
    "Cahan": 10476,
    "Network": 10477,
    "Williamson": 10478,
    "Maggio": 10479,
    "Sekely": 10480,
    " champ": 10481,
    " champion": 10482,
    "Imanol": 10483,
    "Laure": 10484,
    "Gardette": 10485,
    " enc": 10486,
    " encoun": 10487,
    "Bridget": 10488,
    "Jenn": 10489,
    "Radice": 10490,
    "Sudhir": 10491,
    "Glen": 10492,
    "Rotun": 10493,
    "Rotunno": 10494,
    "Bhushan": 10495,
    "Goz": 10496,
    "Gozlan": 10497,
    "Arie": 10498,
    "Elm": 10499,
    "Elmale": 10500,
    "Elmaleh": 10501,
    " Swan": 10502,
    " deta": 10503,
    " details": 10504,
    " Fri": 10505,
    " Zealand": 10506,
    "Pic": 10507,
    "Gher": 10508,
    "Hotaling": 10509,
    "Hardy": 10510,
    "Ting": 10511,
    "Gallagher": 10512,
    "Maron": 10513,
    "Salim": 10514,
    "England": 10515,
    " Morgan": 10516,
    "Duigan": 10517,
    "Craven": 10518,
    "Betsy": 10519,
    "Andi": 10520,
    "Leitão": 10521,
    "Strain": 10522,
    "Grayson": 10523,
    "Rudolph": 10524,
    "Kamenka": 10525,
    "Dier": 10526,
    "Myron": 10527,
    "Astin": 10528,
    " Christian": 10529,
    " pornographic": 10530,
    "Embassy": 10531,
    "Moreno": 10532,
    "LaSh": 10533,
    "LaShelle": 10534,
    " Chinese": 10535,
    "Gennaro": 10536,
    "Nunziante": 10537,
    " Mani": 10538,
    "Hanks": 10539,
    " Low": 10540,
    "Lowden": 10541,
    "Cynthia": 10542,
    "Gibb": 10543,
    " Journey": 10544,
    "Newton": 10545,
    "Soll": 10546,
    "Sollace": 10547,
    "Raphael": 10548,
[...]
