{
  "vocab": {
    "<PAD>": 0,
    "<UNK>": 1,
    "<SOT>": 2,
    "<EOT>": 3,
    "<SUBJ>": 4,
    "<PRED>": 5,
    "<OBJ>": 6,
    "<RDF2Text>": 7,
    "<Text2RDF>": 8,
    "<CONTINUERDF>": 9,
    "<MASK>": 10,
    " ": 11,
    "!": 12,
    "\"": 13,
    "#": 14,
    "$": 15,
    "%": 16,
    "&": 17,
    "'": 18,
    "(": 19,
    ")": 20,
    "+": 21,
    ",": 22,
    "-": 23,
    ".": 24,
    "/": 25,
    "0": 26,
    "1": 27,
    "3": 28,
    "4": 29,
    "5": 30,
    "6": 31,
    "7": 32,
    "8": 33,
    "9": 34,
    ":": 35,
    ";": 36,
    "?": 37,
    "G": 38,
    "H": 39,
    "L": 40,
    "Q": 41,
    "V": 42,
    "W": 43,
    "X": 44,
    "Y": 45,
    "Z": 46,
    "[": 47,
    "]": 48,
    "_": 49,
    "a": 50,
    "b": 51,
    "c": 52,
    "d": 53,
    "f": 54,
    "g": 55,
    "h": 56,
    "i": 57,
    "j": 58,
    "k": 59,
    "l": 60,
    "m": 61,
    "n": 62,
    "o": 63,
    "p": 64,
    "q": 65,
    "r": 66,
    "s": 67,
    "u": 68,
    "v": 69,
    "w": 70,
    "y": 71,
    "z": 72,
    "£": 73,
    "¿": 74,
    "Á": 75,
    "É": 76,
    "ß": 77,
    "á": 78,
    "â": 79,
    "ã": 80,
    "ä": 81,
    "ç": 82,
    "è": 83,
    "é": 84,
    "ê": 85,
    "ë": 86,
    "í": 87,
    "î": 88,
    "ï": 89,
    "ñ": 90,
    "ó": 91,
    "õ": 92,
    "ö": 93,
    "ø": 94,
    "ú": 95,
    "ü": 96,
    "ā": 97,
    "ă": 98,
    "ć": 99,
    "ē": 100,
    "ě": 101,
    "ī": 102,
    "ń": 103,
    "ō": 104,
    "ř": 105,
    "š": 106,
    "Ž": 107,
    "ž": 108,
    "ș": 109,
    "ɛ": 110,
    "ʁ": 111,
    "ʃ": 112,
    "̃": 113,
    "Б": 114,
    "К": 115,
    "а": 116,
    "б": 117,
    "е": 118,
    "и": 119,
    "н": 120,
    "р": 121,
    "т": 122,
    "у": 123,
    "Օ": 124,
    "ա": 125,
    "յ": 126,
    "ո": 127,
    "ր": 128,
    "ց": 129,
    "ւ": 130,
    "ا": 131,
    "ب": 132,
    "ة": 133,
    "ح": 134,
    "د": 135,
    "ر": 136,
    "ق": 137,
    "ل": 138,
    "ه": 139,
    "ي": 140,
    "Ḥ": 141,
    "ḥ": 142,
    " ": 143,
    "–": 144,
    "’": 145,
    "い": 146,
    "う": 147,
    "が": 148,
    "ち": 149,
    "な": 150,
    "に": 151,
    "め": 152,
    "コ": 153,
    "ヒ": 154,
    "ー": 155,
    "一": 156,
    "人": 157,
    "個": 158,
    "光": 159,
    "冷": 160,
    "包": 161,
    "咖": 162,
    "啡": 163,
    "喫": 164,
    "擦": 165,
    "時": 166,
    "民": 167,
    "珈": 168,
    "琲": 169,
    "看": 170,
    "磯": 171,
    "等": 172,
    "籠": 173,
    "純": 174,
    "茶": 175,
    "辺": 176,
    "느": 177,
    "르": 178,
    "와": 179,
    "카": 180,
    "페": 181,
    "db": 182,
    " db": 183,
    " dbr": 184,
    "Ca": 185,
    "in": 186,
    "ar": 187,
    "er": 188,
    " dbo": 189,
    "an": 190,
    "il": 191,
    "st": 192,
    "or": 193,
    "ilm": 194,
    "ing": 195,
    "film": 196,
    "_(": 197,
    "arr": 198,
    "re": 199,
    "arring": 200,
    "starring": 201,
    "it": 202,
    "on": 203,
    "en": 204,
    "Cal": 205,
    "di": 206,
    "ed": 207,
    "ct": 208,
    "he": 209,
    "ro": 210,
    "at": 211,
    "al": 212,
    "and": 213,
    "ic": 214,
    "as": 215,
    "19": 216,
    "dbo": 217,
    "et": 218,
    "es": 219,
    "dbr": 220,
    " t": 221,
    "is": 222,
    "el": 223,
    "am": 224,
    "ia": 225,
    "Cab": 226,
    "rect": 227,
    "ut": 228,
    "direct": 229,
    "20": 230,
    "om": 231,
    "ri": 232,
    "ra": 233,
    "rit": 234,
    "Caf": 235,
    "ol": 236,
    "for": 237,
    "us": 238,
    "uc": 239,
    "os": 240,
    "Cad": 241,
    " b": 242,
    " the": 243,
    "writ": 244,
    " and": 245,
    "Cali": 246,
    " a": 247,
    "director": 248,
    "ir": 249,
    "ge": 250,
    "pro": 251,
    "le": 252,
    "writer": 253,
    "prod": 254,
    "Califor": 255,
    "Californ": 256,
    "California": 257,
    "produc": 258,
    " film": 259,
    "producer": 260,
    " w": 261,
    "ac": 262,
    "ine": 263,
    "un": 264,
    " by": 265,
    " A": 266,
    "ur": 267,
    "og": 268,
    "ad": 269,
    "ion": 270,
    "._": 271,
    "omp": 272,
    "rib": 273,
    "of": 274,
    "ph": 275,
    "Café": 276,
    "201": 277,
    "'s": 278,
    "ribut": 279,
    "stribut": 280,
    " S": 281,
    "usic": 282,
    "distribut": 283,
    "music": 284,
    "ent": 285,
    "ang": 286,
    " T": 287,
    "distributor": 288,
    "res": 289,
    "ompos": 290,
    "ill": 291,
    " c": 292,
    "omposer": 293,
    " is": 294,
    " s": 295,
    "age": 296,
    "end": 297,
    "im": 298,
    "ke": 299,
    "inem": 300,
    "ne": 301,
    "Cag": 302,
    "musicC": 303,
    "musicComposer": 304,
    " F": 305,
    "ber": 306,
    "ogra": 307,
    "ograph": 308,
    "Mar": 309,
    "de": 310,
    "irl": 311,
    "cinem": 312,
    "atograph": 313,
    "Caged": 314,
    "Girl": 315,
    "cinematograph": 316,
    "Cain": 317,
    "endar": 318,
    "Calendar": 319,
    " in": 320,
    " B": 321,
    "ay": 322,
    "ul": 323,
    "ch": 324,
    "aret": 325,
    "ot": 326,
    "ow": 327,
    "Cabaret": 328,
    "angu": 329,
    "anguage": 330,
    " of": 331,
    "ard": 332,
    "Cafe": 333,
    "St": 334,
    "cinematography": 335,
    "Calam": 336,
    "Ma": 337,
    "Cabin": 338,
    "ev": 339,
    "200": 340,
    "language": 341,
    " I": 342,
    "iting": 343,
    "av": 344,
    "Ch": 345,
    "oc": 346,
    "Cai": 347,
    "An": 348,
    "ov": 349,
    " 19": 350,
    "ity": 351,
    "um": 352,
    "Par": 353,
    " The": 354,
    "ian": 355,
    "Ro": 356,
    "ta": 357,
    "est": 358,
    " M": 359,
    "Jo": 360,
    "man": 361,
    "ers": 362,
    "ly": 363,
    "editing": 364,
    " f": 365,
    "Cairo": 366,
    " D": 367,
    " direct": 368,
    "Calamity": 369,
    "Cake": 370,
    " directed": 371,
    "ter": 372,
    "Cadet": 373,
    " was": 374,
    "ce": 375,
    " L": 376,
    "id": 377,
    " re": 378,
    "ig": 379,
    " P": 380,
    "ack": 381,
    "th": 382,
    "194": 383,
    "co": 384,
    " p": 385,
    "li": 386,
    "act": 387,
    "ict": 388,
    "mer": 389,
    "ie": 390,
    " W": 391,
    "old": 392,
    " H": 393,
    "sh": 394,
    "iv": 395,
    "Calc": 396,
    "ation": 397,
    " R": 398,
    " h": 399,
    " m": 400,
    "ass": 401,
    " G": 402,
    " on": 403,
    "ich": 404,
    " C": 405,
    "II": 406,
    "Cage": 407,
    "Calcut": 408,
    "Calcutta": 409,
    " J": 410,
    "dy": 411,
    "ures": 412,
    "esar": 413,
    "ith": 414,
    " It": 415,
    "Caesar": 416,
    "la": 417,
    "ry": 418,
    "bel": 419,
    "Cala": 420,
    "imdb": 421,
    "imdbI": 422,
    "imdbId": 423,
    "adi": 424,
    "ou": 425,
    "unt": 426,
    "bert": 427,
    "ictures": 428,
    "oy": 429,
    "ever": 430,
    "te": 431,
    " d": 432,
    "all": 433,
    " E": 434,
    "Girls": 435,
    "op": 436,
    "actor": 437,
    "ton": 438,
    "iet": 439,
    "Anne": 440,
    "De": 441,
    " to": 442,
    "ican": 443,
    "leas": 444,
    " st": 445,
    "Cact": 446,
    "Cactus": 447,
    " (": 448,
    " n": 449,
    "ob": 450,
    "ll": 451,
    "Joh": 452,
    " N": 453,
    " Ca": 454,
    "ress": 455,
    "her": 456,
    "1947": 457,
    "io": 458,
    "John": 459,
    "Caddy": 460,
    "Caddysh": 461,
    "Caddyshack": 462,
    "199": 463,
    "Pictures": 464,
    "ick": 465,
    "198": 466,
    "ish": 467,
    "ore": 468,
    "qu": 469,
    "Fl": 470,
    "Un": 471,
    "son": 472,
    " as": 473,
    "merican": 474,
    "adis": 475,
    "au": 476,
    "ara": 477,
    "iety": 478,
    "Gold": 479,
    "ez": 480,
    "ran": 481,
    "Mart": 482,
    ":_": 483,
    "Fever": 484,
    "ociety": 485,
    "Cadill": 486,
    "Cadillac": 487,
    "Robert": 488,
    "ey": 489,
    "kan": 490,
    " for": 491,
    "Le": 492,
    "Paradis": 493,
    "ab": 494,
    "ern": 495,
    " 0": 496,
    "Cadets": 497,
    "to": 498,
    "mp": 499,
    "Society": 500,
    "27": 501,
    "ren": 502,
    "the": 503,
    "ong": 504,
    "ream": 505,
    "ub": 506,
    "ff": 507,
    ",_": 508,
    "ort": 509,
    "ane": 510,
    " K": 511,
    "ess": 512,
    " com": 513,
    "ier": 514,
    "ory": 515,
    "ury": 516,
    "Martin": 517,
    "Sh": 518,
    "ec": 519,
    " American": 520,
    "ade": 521,
    "pl": 522,
    "ell": 523,
    "ky": 524,
    " starring": 525,
    "ate": 526,
    "Col": 527,
    "1993": 528,
    " wh": 529,
    "ten": 530,
    "iel": 531,
    "count": 532,
    "eat": 533,
    " Film": 534,
    "od": 535,
    "country": 536,
    " 200": 537,
    "ari": 538,
    "cer": 539,
    "ak": 540,
    "ost": 541,
    "igh": 542,
    " releas": 543,
    "Dream": 544,
    " at": 545,
    "aul": 546,
    "Car": 547,
    "ung": 548,
    "ald": 549,
    " th": 550,
    " 201": 551,
    "Dav": 552,
    "ann": 553,
    "written": 554,
    "ont": 555,
    "ect": 556,
    "Joe": 557,
    "lin": 558,
    "197": 559,
    " de": 560,
    "rist": 561,
    "13": 562,
    "Ar": 563,
    "Film": 564,
    "Ot": 565,
    "Mail": 566,
    "da": 567,
    "art": 568,
    "ram": 569,
    "edy": 570,
    " it": 571,
    "Caden": 572,
    "1927": 573,
    "gu": 574,
    "Otto": 575,
    " written": 576,
    "por": 577,
    "em": 578,
    "ew": 579,
    "enn": 580,
    "63": 581,
    "out": 582,
    "50": 583,
    "No": 584,
    "ist": 585,
    "by": 586,
    "Cadav": 587,
    "Abel": 588,
    "ley": 589,
    "ero": 590,
    "red": 591,
    " with": 592,
    "Mur": 593,
    "unic": 594,
    "pp": 595,
    "Fury": 596,
    " St": 597,
    " released": 598,
    "und": 599,
    "ward": 600,
    "ast": 601,
    "Man": 602,
    " In": 603,
    "Dan": 604,
    "En": 605,
    "Fran": 606,
    "eg": 607,
    " O": 608,
    "Al": 609,
    "ars": 610,
    "2016": 611,
    "Union": 612,
    "ric": 613,
    "Pat": 614,
    "rom": 615,
    "atra": 616,
    "ott": 617,
    "eor": 618,
    "ary": 619,
    "low": 620,
    "rama": 621,
    "ina": 622,
    " comedy": 623,
    "cia": 624,
    "Paul": 625,
    "ud": 626,
    "ld": 627,
    "La": 628,
    "unicul": 629,
    "ove": 630,
    "ust": 631,
    "iller": 632,
    "ik": 633,
    "die": 634,
    "illi": 635,
    "ex": 636,
    "Calamari": 637,
    "arn": 638,
    "ord": 639,
    "Van": 640,
    "leop": 641,
    "leopatra": 642,
    "esh": 643,
    "ime": 644,
    "ders": 645,
    "2010": 646,
    "1963": 647,
    " an": 648,
    "Camp": 649,
    "Funicul": 650,
    "ael": 651,
    "ure": 652,
    "erf": 653,
    " An": 654,
    "Cach": 655,
    "ose": 656,
    "Mabel": 657,
    "ood": 658,
    "inn": 659,
    "Caboc": 660,
    "Cabocla": 661,
    "Calapor": 662,
    "Cabez": 663,
    "asc": 664,
    " Ch": 665,
    "arl": 666,
    " g": 667,
    "uk": 668,
    "Bal": 669,
    "2005": 670,
    "All": 671,
    "Cleopatra": 672,
    "Sky": 673,
    " from": 674,
    " l": 675,
    "rop": 676,
    "39": 677,
    "71": 678,
    " al": 679,
    "che": 680,
    "ss": 681,
    "ha": 682,
    " stars": 683,
    "wan": 684,
    "Caché": 685,
    "ated": 686,
    "Rus": 687,
    "one": 688,
    " 00": 689,
    " v": 690,
    "Balkan": 691,
    "ival": 692,
    "ug": 693,
    "ield": 694,
    "ies": 695,
    "Geor": 696,
    "In": 697,
    "ain": 698,
    "Jane": 699,
    "Sam": 700,
    "han": 701,
    "Sp": 702,
    "ean": 703,
    "Cac": 704,
    "Caccia": 705,
    "ire": 706,
    "kes": 707,
    "estival": 708,
    " 1": 709,
    "illiam": 710,
    "Can": 711,
    "gl": 712,
    "lay": 713,
    "El": 714,
    "ney": 715,
    "ight": 716,
    "ichael": 717,
    "ee": 718,
    "Makes": 719,
    "erfect": 720,
    "ilent": 721,
    "2014": 722,
    "mas": 723,
    "1972": 724,
    "ame": 725,
    "ía": 726,
    "Boy": 727,
    "Love": 728,
    "My": 729,
    "Perfect": 730,
    "Ad": 731,
    "Met": 732,
    "oman": 733,
    "Murders": 734,
    " 194": 735,
    " drama": 736,
    "ond": 737,
    "ited": 738,
    "ment": 739,
    "2020": 740,
    "ally": 741,
    "22": 742,
    "Con": 743,
    "ole": 744,
    " V": 745,
    " Festival": 746,
    "rand": 747,
    " sh": 748,
    "ris": 749,
    "lar": 750,
    "adly": 751,
    " ro": 752,
    "Ed": 753,
    "ei": 754,
    "Des": 755,
    "orld": 756,
    "Jon": 757,
    "Bass": 758,
    "Dog": 759,
    "1950": 760,
    "ice": 761,
    "umber": 762,
    "pt": 763,
    "XV": 764,
    "XVII": 765,
    "XVIII": 766,
    "umb": 767,
    "field": 768,
    "ding": 769,
    "ino": 770,
    "ming": 771,
    " Mar": 772,
    "ames": 773,
    "ouis": 774,
    "oth": 775,
    "arry": 776,
    "releas": 777,
    "2018": 778,
    "Parade": 779,
    "edding": 780,
    "Xmas": 781,
    "del": 782,
    "ction": 783,
    " who": 784,
    "ower": 785,
    "ert": 786,
    "se": 787,
    "bb": 788,
    " sc": 789,
    "eta": 790,
    "David": 791,
    "release": 792,
    "releaseD": 793,
    "releaseDate": 794,
    "Bro": 795,
    "Michael": 796,
    "Christ": 797,
    "hil": 798,
    "aw": 799,
    "Gi": 800,
    "Wedding": 801,
    "Story": 802,
    "Deadly": 803,
    " be": 804,
    "ased": 805,
    " Best": 806,
    "ray": 807,
    "ational": 808,
    "Caliber": 809,
    " Can": 810,
    "ox": 811,
    "erman": 812,
    "ces": 813,
    "It": 814,
    "Be": 815,
    "yan": 816,
    "William": 817,
    "Der": 818,
    "onald": 819,
    "ichard": 820,
    "bau": 821,
    "Cadence": 822,
    "elly": 823,
    "2019": 824,
    "ropole": 825,
    "Caleta": 826,
    "bo": 827,
    "Cabir": 828,
    "Cabiria": 829,
    "lan": 830,
    "ony": 831,
    "tain": 832,
    "Cadaver": 833,
    "iné": 834,
    "ki": 835,
    "berg": 836,
    "Jack": 837,
    "Har": 838,
    "Charl": 839,
    "tern": 840,
    "New": 841,
    "air": 842,
    "ah": 843,
    "ep": 844,
    "reen": 845,
    "ance": 846,
    "Sal": 847,
    "vs": 848,
    "Time": 849,
    "2006": 850,
    "Metropole": 851,
    "sol": 852,
    "Ex": 853,
    "ip": 854,
    "alian": 855,
    "rench": 856,
    "so": 857,
    "udi": 858,
    "umbia": 859,
    "produced": 860,
    "ker": 861,
    "Cageman": 862,
    "gh": 863,
    "lo": 864,
    "2002": 865,
    "utth": 866,
    "utthro": 867,
    "utthroat": 868,
    "utthroats": 869,
    "head": 870,
    "Caiç": 871,
    "Caiçara": 872,
    " his": 873,
    " \"": 874,
    "Caddie": 875,
    "ithout": 876,
    " music": 877,
    "ant": 878,
    " its": 879,
    "press": 880,
    "ient": 881,
    "Mass": 882,
    "Ben": 883,
    "Films": 884,
    "Number": 885,
    "Hol": 886,
    "Heat": 887,
    "Kelly": 888,
    "Cutthroats": 889,
    "Ste": 890,
    "1948": 891,
    "Dreamin": 892,
    "'_(": 893,
    "ty": 894,
    "ount": 895,
    "ma": 896,
    "ić": 897,
    "ial": 898,
    " Award": 899,
    " 198": 900,
    "Road": 901,
    "itter": 902,
    "ear": 903,
    "oro": 904,
    "arb": 905,
    " 199": 906,
    " which": 907,
    "Cacer": 908,
    "Cacería": 909,
    "ostess": 910,
    "ual": 911,
    "Mal": 912,
    "assage": 913,
    " story": 914,
    "Columbia": 915,
    " produced": 916,
    "ien": 917,
    "Zero": 918,
    "2011": 919,
    "chin": 920,
    "brand": 921,
    "quest": 922,
    "69": 923,
    "Hostess": 924,
    "Mc": 925,
    "Passage": 926,
    "actress": 927,
    "Mos": 928,
    "Flower": 929,
    "umar": 930,
    "Without": 931,
    "Key": 932,
    "George": 933,
    "cinematographer": 934,
    "Ka": 935,
    "Silent": 936,
    "United": 937,
    "Pet": 938,
    "Sol": 939,
    "James": 940,
    "Richard": 941,
    "Fred": 942,
    "Louis": 943,
    "ele": 944,
    "ette": 945,
    "ummer": 946,
    "Dave": 947,
    "Stra": 948,
    "ive": 949,
    "Flore": 950,
    "Patient": 951,
    "2015": 952,
    "1989": 953,
    "1939": 954,
    "Rush": 955,
    "Express": 956,
    "Press": 957,
    "oung": 958,
    "ign": 959,
    "our": 960,
    "ark": 961,
    "up": 962,
    "uck": 963,
    "Cabeza": 964,
    "aca": 965,
    "cow": 966,
    "tertain": 967,
    "aiting": 968,
    "Cadavres": 969,
    "Param": 970,
    "Paramount": 971,
    " based": 972,
    " Ar": 973,
    "ront": 974,
    "ternational": 975,
    " also": 976,
    "edit": 977,
    "ens": 978,
    "acre": 979,
    "sa": 980,
    " ex": 981,
    "1942": 982,
    "Marc": 983,
    "Jean": 984,
    "tertainment": 985,
    "oward": 986,
    "ester": 987,
    "Waiting": 988,
    "az": 989,
    "Paradiso": 990,
    "irebrand": 991,
    "adian": 992,
    "Callow": 993,
    "Calloway": 994,
    "elf": 995,
    "ovie": 996,
    "omo": 997,
    "aut": 998,
    "bre": 999,
    "lex": 1000,
    "itt": 1001,
    " 197": 1002,
    "if": 1003,
    "iday": 1004,
    "ely": 1005,
    "Bur": 1006,
    "ger": 1007,
    "glish": 1008,
    "Mont": 1009,
    "Dreaming": 1010,
    "1979": 1011,
    "Vaca": 1012,
    "Daniel": 1013,
    "Moscow": 1014,
    "10": 1015,
    "Di": 1016,
    "Entertainment": 1017,
    "Campfield": 1018,
    "Th": 1019,
    "ind": 1020,
    "aj": 1021,
    "su": 1022,
    "Ber": 1023,
    "chinos": 1024,
    "Conquest": 1025,
    "Firebrand": 1026,
    "Dancer": 1027,
    "Funiculi": 1028,
    "Funicula": 1029,
    "1982": 1030,
    " feat": 1031,
    "cade": 1032,
    "oo": 1033,
    " director": 1034,
    "own": 1035,
    "),": 1036,
    "Calibre": 1037,
    "18": 1038,
    "Donald": 1039,
    "iz": 1040,
    "lic": 1041,
    "umi": 1042,
    "arbara": 1043,
    "ws": 1044,
    "én": 1045,
    "66": 1046,
    " West": 1047,
    " John": 1048,
    "ett": 1049,
    " pre": 1050,
    "olf": 1051,
    "cheming": 1052,
    "Gra": 1053,
    "plit": 1054,
    "auty": 1055,
    "laration": 1056,
    "editor": 1057,
    "hel": 1058,
    "adh": 1059,
    "ork": 1060,
    "esoro": 1061,
    "Cadences": 1062,
    "obst": 1063,
    "obstiné": 1064,
    "obstinées": 1065,
    "Cabob": 1066,
    "Caboblan": 1067,
    "Caboblanco": 1068,
    "eroine": 1069,
    " ar": 1070,
    "ason": 1071,
    "adas": 1072,
    "English": 1073,
    "ini": 1074,
    "me": 1075,
    "Rod": 1076,
    "arner": 1077,
    "ritish": 1078,
    "29": 1079,
    "Caball": 1080,
    "aker": 1081,
    "ani": 1082,
    "30": 1083,
    "1984": 1084,
    "rig": 1085,
    "lays": 1086,
    "Miller": 1087,
    "Frank": 1088,
    "my": 1089,
    "And": 1090,
    "Ram": 1091,
    "sp": 1092,
    "Scheming": 1093,
    "Split": 1094,
    "Front": 1095,
    "mond": 1096,
    "att": 1097,
    " y": 1098,
    "irst": 1099,
    "ollow": 1100,
    "Harold": 1101,
    "Che": 1102,
    "Beauty": 1103,
    " con": 1104,
    "Mac": 1105,
    "Dec": 1106,
    "Declaration": 1107,
    "Desert": 1108,
    "Bern": 1109,
    " co": 1110,
    " Y": 1111,
    "World": 1112,
    "Summer": 1113,
    "Massacre": 1114,
    "Br": 1115,
    "ublic": 1116,
    "2009": 1117,
    "Eg": 1118,
    "Bh": 1119,
    "Straight": 1120,
    "Ahead": 1121,
    "tesoro": 1122,
    "Holiday": 1123,
    "Flesh": 1124,
    "Heroine": 1125,
    "Pressure": 1126,
    "ortadas": 1127,
    "ré": 1128,
    "esc": 1129,
    "ascot": 1130,
    "anda": 1131,
    "any": 1132,
    "ions": 1133,
    "ek": 1134,
    "rence": 1135,
    "ka": 1136,
    "eb": 1137,
    "ubi": 1138,
    "Cagli": 1139,
    "Cagliost": 1140,
    "Cagliostro": 1141,
    "Party": 1142,
    "itlin": 1143,
    "erself": 1144,
    "arren": 1145,
    " Western": 1146,
    "ana": 1147,
    " di": 1148,
    " Car": 1149,
    " follow": 1150,
    "tonio": 1151,
    "off": 1152,
    "ham": 1153,
    " Al": 1154,
    "rick": 1155,
    "epublic": 1156,
    "inema": 1157,
    "obe": 1158,
    "elen": 1159,
    "med": 1160,
    "ven": 1161,
    " musical": 1162,
    "wanberg": 1163,
    "Cabezas": 1164,
    "Bri": 1165,
    "uomo": 1166,
    "utt": 1167,
    "ai": 1168,
    "sc": 1169,
    "Cagef": 1170,
    "Cagefigh": 1171,
    "Cagefighter": 1172,
    "lide": 1173,
    "ovel": 1174,
    "umiè": 1175,
    "umière": 1176,
    "ors": 1177,
    "ery": 1178,
    "oyan": 1179,
    "ild": 1180,
    "Paris": 1181,
    "har": 1182,
    "erry": 1183,
    "ges": 1184,
    "1995": 1185,
    "itterb": 1186,
    "itterbug": 1187,
    "Caitlin": 1188,
    "bor": 1189,
    " k": 1190,
    " 2": 1191,
    "ap": 1192,
    "ans": 1193,
    " 193": 1194,
    "athan": 1195,
    "ates": 1196,
    " ab": 1197,
    "ardo": 1198,
    "Rob": 1199,
    "Sch": 1200,
    "Ray": 1201,
    "Barbara": 1202,
    "inal": 1203,
    "cortadas": 1204,
    "Ann": 1205,
    "liott": 1206,
    "Lu": 1207,
    "composer": 1208,
    "Stev": 1209,
    "Mascot": 1210,
    "Cur": 1211,
    "Carl": 1212,
    "Gab": 1213,
    "Allen": 1214,
    "Worlds": 1215,
    "Collide": 1216,
    "Christian": 1217,
    "Peter": 1218,
    "Derby": 1219,
    "rison": 1220,
    "2022": 1221,
    "Am": 1222,
    "rey": 1223,
    "Solo": 1224,
    "Lew": 1225,
    "Howard": 1226,
    "More": 1227,
    "Allan": 1228,
    "German": 1229,
    "plage": 1230,
    "We": 1231,
    "2013": 1232,
    "Lumière": 1233,
    "Charles": 1234,
    "Egoyan": 1235,
    "Frontier": 1236,
    "Lake": 1237,
    "Is": 1238,
    "Ori": 1239,
    "1986": 1240,
    "She": 1241,
    "1929": 1242,
    "Jitterbug": 1243,
    "Plays": 1244,
    "Herself": 1245,
    " tit": 1246,
    " that": 1247,
    " ent": 1248,
    " not": 1249,
    " first": 1250,
    " ser": 1251,
    " Ed": 1252,
    "ins": 1253,
    "idd": 1254,
    "ock": 1255,
    "yd": 1256,
    "qui": 1257,
    "ese": 1258,
    "ag": 1259,
    "herit": 1260,
    "heritance": 1261,
    " Sp": 1262,
    " French": 1263,
    "wo": 1264,
    " short": 1265,
    "alle": 1266,
    " le": 1267,
    "over": 1268,
    "oran": 1269,
    "ora": 1270,
    "entury": 1271,
    "mann": 1272,
    "ue": 1273,
    "ism": 1274,
    "elli": 1275,
    " or": 1276,
    " inc": 1277,
    " play": 1278,
    " nom": 1279,
    "Cafund": 1280,
    "Cafundó": 1281,
    "riller": 1282,
    "oss": 1283,
    " International": 1284,
    " Dav": 1285,
    "uction": 1286,
    " Th": 1287,
    "Calabo": 1288,
    "Calaboose": 1289,
    "00": 1290,
    "ace": 1291,
    "Vanity": 1292,
    "Cor": 1293,
    " screen": 1294,
    "ther": 1295,
    " Pictures": 1296,
    " about": 1297,
    "tom": 1298,
    "yn": 1299,
    "ach": 1300,
    " De": 1301,
    "rí": 1302,
    "Cado": 1303,
    "ental": 1304,
    "rad": 1305,
    "Cada": 1306,
    "quién": 1307,
    "ucha": 1308,
    "Mil": 1309,
    "val": 1310,
    "Murray": 1311,
    "les": 1312,
    "otte": 1313,
    "cott": 1314,
    "alt": 1315,
    "Russ": 1316,
    "ite": 1317,
    "ash": 1318,
    "rie": 1319,
    "ola": 1320,
    "anish": 1321,
    "errig": 1322,
    "eet": 1323,
    "inning": 1324,
    "anni": 1325,
    "Warren": 1326,
    "itz": 1327,
    "ck": 1328,
    "ler": 1329,
    "uring": 1330,
    "Sim": 1331,
    "Ne": 1332,
    " title": 1333,
    "under": 1334,
    " rece": 1335,
    " receiv": 1336,
    " received": 1337,
    " same": 1338,
    "ical": 1339,
    " thriller": 1340,
    "iano": 1341,
    "era": 1342,
    " movie": 1343,
    "Warner": 1344,
    "Bros": 1345,
    "Burton": 1346,
    "Noir": 1347,
    "Antonio": 1348,
    "Er": 1349,
    "Harry": 1350,
    "Wall": 1351,
    "Alex": 1352,
    "Eli": 1353,
    " prem": 1354,
    " premier": 1355,
    "Bernard": 1356,
    "Phil": 1357,
    "Edward": 1358,
    "Louise": 1359,
    "Lester": 1360,
    "ugu": 1361,
    "Fel": 1362,
    "Republic": 1363,
    "Dwan": 1364,
    "Cinema": 1365,
    "Lee": 1366,
    "Lau": 1367,
    "Cec": 1368,
    "Kent": 1369,
    "Os": 1370,
    "Inheritance": 1371,
    "Mut": 1372,
    "Mutual": 1373,
    "ater": 1374,
    "ifer": 1375,
    "Atom": 1376,
    "na": 1377,
    " her": 1378,
    "Ital": 1379,
    "Marco": 1380,
    "Isobe": 1381,
    "Jac": 1382,
    "Woman": 1383,
    " he": 1384,
    " Anne": 1385,
    "Steph": 1386,
    "dalle": 1387,
    "nubi": 1388,
    "News": 1389,
    "Oriental": 1390,
    "Adam": 1391,
    "lucha": 1392,
    "Swanberg": 1393,
    "ires": 1394,
    "upp": 1395,
    "per": 1396,
    "land": 1397,
    "oseph": 1398,
    "American": 1399,
    "enny": 1400,
    "ath": 1401,
    "use": 1402,
    "illa": 1403,
    "ail": 1404,
    "maker": 1405,
    "thur": 1406,
    "ena": 1407,
    "ante": 1408,
    "ulated": 1409,
    "wood": 1410,
    "mith": 1411,
    "eginning": 1412,
    "escu": 1413,
    " sp": 1414,
    " pro": 1415,
    " Paul": 1416,
    "omb": 1417,
    " series": 1418,
    " made": 1419,
    "tic": 1420,
    "ompany": 1421,
    " Robert": 1422,
    "ere": 1423,
    "inc": 1424,
    "dia": 1425,
    "encer": 1426,
    "ring": 1427,
    "ves": 1428,
    " two": 1429,
    "ada": 1430,
    " Di": 1431,
    " Canadian": 1432,
    "38": 1433,
    "ictor": 1434,
    "eton": 1435,
    "ović": 1436,
    "ross": 1437,
    "Cann": 1438,
    "ffair": 1439,
    "Mon": 1440,
    "ala": 1441,
    "ome": 1442,
    "Af": 1443,
    "udios": 1444,
    "guez": 1445,
    "Mo": 1446,
    "Calculated": 1447,
    "isk": 1448,
    "uss": 1449,
    "Tom": 1450,
    "urism": 1451,
    "urismä": 1452,
    "urismäki": 1453,
    "ute": 1454,
    "Pier": 1455,
    "rag": 1456,
    " ac": 1457,
    " 2002": 1458,
    "ando": 1459,
    " Italian": 1460,
    "oyle": 1461,
    "nown": 1462,
    " British": 1463,
    " release": 1464,
    "ks": 1465,
    "uan": 1466,
    " roman": 1467,
    " silent": 1468,
    "other": 1469,
    "ander": 1470,
    "alk": 1471,
    "asing": 1472,
    "here": 1473,
    "ston": 1474,
    "add": 1475,
    "een": 1476,
    " Ber": 1477,
    ").": 1478,
    "ennifer": 1479,
    " per": 1480,
    "cis": 1481,
    "omen": 1482,
    "llis": 1483,
    " ,": 1484,
    "erbert": 1485,
    "rone": 1486,
    "isa": 1487,
    "van": 1488,
    "riel": 1489,
    "Calais": 1490,
    "Will": 1491,
    "Victor": 1492,
    "Young": 1493,
    "Mir": 1494,
    "Gl": 1495,
    "Elliott": 1496,
    "gent": 1497,
    "mark": 1498,
    "Jan": 1499,
    "Mario": 1500,
    "Fern": 1501,
    "zo": 1502,
    "French": 1503,
    "fe": 1504,
    "Luc": 1505,
    "Charlotte": 1506,
    "Net": 1507,
    "Tony": 1508,
    "Walt": 1509,
    "Dem": 1510,
    "Joseph": 1511,
    "2008": 1512,
    "Mat": 1513,
    "Eric": 1514,
    "Century": 1515,
    "Affair": 1516,
    "Rog": 1517,
    "Qu": 1518,
    "Wil": 1519,
    "Est": 1520,
    "Din": 1521,
    "Band": 1522,
    "opadh": 1523,
    "opadhy": 1524,
    "opadhyay": 1525,
    "Lions": 1526,
    "Lewis": 1527,
    "alam": 1528,
    "Muk": 1529,
    "Wh": 1530,
    "Station": 1531,
    "Sara": 1532,
    "Must": 1533,
    "Die": 1534,
    "filmmaker": 1535,
    "Arthur": 1536,
    "Cra": 1537,
    "Jr": 1538,
    "uff": 1539,
    "Shane": 1540,
    "As": 1541,
    "Scott": 1542,
    "Lin": 1543,
    "Tim": 1544,
    "Risk": 1545,
    "Fre": 1546,
    "Del": 1547,
    "ale": 1548,
    "Aki": 1549,
    "Kaurismäki": 1550,
    "Golden": 1551,
    "Beginning": 1552,
    "nes": 1553,
    "elev": 1554,
    "elevis": 1555,
    "ner": 1556,
    " under": 1557,
    " being": 1558,
    "evin": 1559,
    " had": 1560,
    " incl": 1561,
    " Awards": 1562,
    "pted": 1563,
    "aro": 1564,
    "andro": 1565,
    " Ram": 1566,
    "ho": 1567,
    "eto": 1568,
    " Hol": 1569,
    " known": 1570,
    " set": 1571,
    " 9": 1572,
    "eleasing": 1573,
    " nomin": 1574,
    "orr": 1575,
    " won": 1576,
    " un": 1577,
    " were": 1578,
    "chi": 1579,
    "ations": 1580,
    " 2003": 1581,
    " comm": 1582,
    "errigan": 1583,
    " Ma": 1584,
    " Pro": 1585,
    "ide": 1586,
    "ja": 1587,
    " li": 1588,
    "ink": 1589,
    "irley": 1590,
    "jee": 1591,
    " col": 1592,
    " during": 1593,
    " doc": 1594,
    "ument": 1595,
    "umentary": 1596,
    " Fever": 1597,
    "04": 1598,
    "mi": 1599,
    "Italian": 1600,
    "bur": 1601,
    "ita": 1602,
    "ble": 1603,
    "orth": 1604,
    "gin": 1605,
    "ppe": 1606,
    "Roy": 1607,
    "oph": 1608,
    "oroth": 1609,
    "orothy": 1610,
    "jan": 1611,
    "ata": 1612,
    " orig": 1613,
    " name": 1614,
    "ered": 1615,
    " includ": 1616,
    " .": 1617,
    " Acade": 1618,
    " Academy": 1619,
    " hist": 1620,
    " Camp": 1621,
    " cri": 1622,
    " deb": 1623,
    " debut": 1624,
    " mill": 1625,
    " million": 1626,
    "ps": 1627,
    " se": 1628,
    "quel": 1629,
    "Dou": 1630,
    "fter": 1631,
    "erson": 1632,
    "sky": 1633,
    "Cabasc": 1634,
    "Cabascab": 1635,
    "Cabascabo": 1636,
    " romantic": 1637,
    "olph": 1638,
    "Caballer": 1639,
    "Caballerang": 1640,
    "Caballerango": 1641,
    " follows": 1642,
    "Cakew": 1643,
    "Cakewalk": 1644,
    " 2009": 1645,
    "issa": 1646,
    "ugust": 1647,
    "play": 1648,
    "rong": 1649,
    "erv": 1650,
    " novel": 1651,
    "iao": 1652,
    " Berlin": 1653,
    " Gold": 1654,
    "ugh": 1655,
    "Cadavere": 1656,
    "asso": 1657,
    "08": 1658,
    " Le": 1659,
    " their": 1660,
    " Fran": 1661,
    " ad": 1662,
    "tante": 1663,
    "Caff": 1664,
    "Caffè": 1665,
    "réal": 1666,
    "Herbert": 1667,
    " Bro": 1668,
    "Pierre": 1669,
    " 2016": 1670,
    "Arm": 1671,
    "Cah": 1672,
    "Cahier": 1673,
    "ricain": 1674,
    " documentary": 1675,
    " expl": 1676,
    "Dover": 1677,
    "venut": 1678,
    "venuti": 1679,
    "ask": 1680,
    "que": 1681,
    "Conn": 1682,
    "aux": 1683,
    "ords": 1684,
    "onz": 1685,
    "isney": 1686,
    "anders": 1687,
    "evez": 1688,
    "ght": 1689,
    "ib": 1690,
    "ayalam": 1691,
    "ington": 1692,
    "ée": 1693,
    "lau": 1694,
    "ull": 1695,
    "rell": 1696,
    "ques": 1697,
    "dian": 1698,
    "omas": 1699,
    "hood": 1700,
    "tha": 1701,
    "ristian": 1702,
    "thew": 1703,
    "ascal": 1704,
    "nick": 1705,
    "opher": 1706,
    "bbas": 1707,
    "392": 1708,
    "Farr": 1709,
    "Seton": 1710,
    "udio": 1711,
    "Ser": 1712,
    " but": 1713,
    "zio": 1714,
    "Ab": 1715,
    " histor": 1716,
    "ira": 1717,
    " Ad": 1718,
    " action": 1719,
    "West": 1720,
    "Raymond": 1721,
    "Fernando": 1722,
    "Ross": 1723,
    "ase": 1724,
    "upport": 1725,
    " roles": 1726,
    " $": 1727,
    "ult": 1728,
    " sequel": 1729,
    "Ted": 1730,
    "Brian": 1731,
    "Doyle": 1732,
    " U": 1733,
    "Carlos": 1734,
    "87": 1735,
    "Gar": 1736,
    "Juan": 1737,
    "Hans": 1738,
    "Jos": 1739,
    " El": 1740,
    "Clar": 1741,
    "production": 1742,
    "reat": 1743,
    "Johnson": 1744,
    "Roger": 1745,
    "Mor": 1746,
    "Jones": 1747,
    "Wallace": 1748,
    "Releasing": 1749,
    " where": 1750,
    "orror": 1751,
    "Bandopadhyay": 1752,
    "Roth": 1753,
    "Andre": 1754,
    " ada": 1755,
    "Viv": 1756,
    " Z": 1757,
    "ound": 1758,
    " work": 1759,
    "Shaw": 1760,
    "Kumar": 1761,
    "Mark": 1762,
    "Jennifer": 1763,
    " perfor": 1764,
    " bro": 1765,
    "Wood": 1766,
    "Woodson": 1767,
    "Jul": 1768,
    "Francis": 1769,
    " 196": 1770,
    "spasso": 1771,
    "Kerrigan": 1772,
    "Carlo": 1773,
    "Spencer": 1774,
    "Nun": 1775,
    "Gu": 1776,
    "Ter": 1777,
    "Cel": 1778,
    "Harr": 1779,
    "Helen": 1780,
    "Carter": 1781,
    "Maz": 1782,
    "Spring": 1783,
    "Je": 1784,
    "Cantante": 1785,
    "Lo": 1786,
    "Italia": 1787,
    "Montréal": 1788,
    "1969": 1789,
    "Re": 1790,
    "lywood": 1791,
    "Caro": 1792,
    " j": 1793,
    "Smith": 1794,
    "Gri": 1795,
    "Lor": 1796,
    "Dev": 1797,
    " Calamity": 1798,
    "Say": 1799,
    " All": 1800,
    "Shirley": 1801,
    "less": 1802,
    "Steve": 1803,
    "Bob": 1804,
    "Georges": 1805,
    " are": 1806,
    "Ryan": 1807,
    "Gabriel": 1808,
    "Rodrí": 1809,
    "Rodríguez": 1810,
    " pl": 1811,
    " young": 1812,
    "Colette": 1813,
    "Kevin": 1814,
    " e": 1815,
    "Africain": 1816,
    "elevision": 1817,
    "Giov": 1818,
    "Weber": 1819,
    " act": 1820,
    "Benvenuti": 1821,
    "Leo": 1822,
    " Cabin": 1823,
    "ano": 1824,
    "go": 1825,
    "oul": 1826,
    "glas": 1827,
    "Ger": 1828,
    "von": 1829,
    "Xia": 1830,
    "ucc": 1831,
    "amil": 1832,
    "arw": 1833,
    "ecords": 1834,
    "Ara": 1835,
    "ás": 1836,
    "ivers": 1837,
    "Spanish": 1838,
    "ril": 1839,
    "Joan": 1840,
    "May": 1841,
    "ishra": 1842,
    "eij": 1843,
    "ons": 1844,
    "berto": 1845,
    "Child": 1846,
    "emescu": 1847,
    "Parker": 1848,
    "án": 1849,
    "Caballo": 1850,
    "rieto": 1851,
    "ustr": 1852,
    "astrone": 1853,
    "essandro": 1854,
    " En": 1855,
    "ected": 1856,
    " Fore": 1857,
    " Foreign": 1858,
    "elo": 1859,
    " Har": 1860,
    "vio": 1861,
    " ne": 1862,
    " box": 1863,
    " 2018": 1864,
    " Jun": 1865,
    "wn": 1866,
    "gel": 1867,
    " been": 1868,
    " production": 1869,
    " other": 1870,
    " United": 1871,
    " feature": 1872,
    " world": 1873,
    " Louis": 1874,
    "vei": 1875,
    "anley": 1876,
    "aneke": 1877,
    " 195": 1878,
    "ft": 1879,
    "ayne": 1880,
    " bet": 1881,
    " Prod": 1882,
    " one": 1883,
    "ope": 1884,
    "ics": 1885,
    " Geor": 1886,
    "uary": 1887,
    " part": 1888,
    "ave": 1889,
    " lead": 1890,
    "innelli": 1891,
    " No": 1892,
    "ake": 1893,
    "ile": 1894,
    "oche": 1895,
    "askal": 1896,
    "askalj": 1897,
    "askaljev": 1898,
    "askaljević": 1899,
    "etti": 1900,
    "raz": 1901,
    "ryan": 1902,
    "iro": 1903,
    "umarou": 1904,
    "ui": 1905,
    "loy": 1906,
    "loyd": 1907,
    "ous": 1908,
    "arma": 1909,
    "anny": 1910,
    "Germany": 1911,
    "gate": 1912,
    "ittor": 1913,
    "ittorio": 1914,
    "gy": 1915,
    "ener": 1916,
    "90": 1917,
    "avian": 1918,
    "aviani": 1919,
    "Univers": 1920,
    "vie": 1921,
    "get": 1922,
    "allée": 1923,
    "asting": 1924,
    "cha": 1925,
    "roup": 1926,
    "eather": 1927,
    "hmed": 1928,
    "ooja": 1929,
    "oll": 1930,
    "Nor": 1931,
    "poration": 1932,
    "Rick": 1933,
    "renn": 1934,
    "rennink": 1935,
    "renninkm": 1936,
    "renninkmeij": 1937,
    "renninkmeijer": 1938,
    "lins": 1939,
    "adda": 1940,
    "Maur": 1941,
    "Maurice": 1942,
    "za": 1943,
    "herjee": 1944,
    "Robin": 1945,
    "abac": 1946,
    "abache": 1947,
    "asil": 1948,
    "itzger": 1949,
    "itzgerald": 1950,
    "14": 1951,
    " original": 1952,
    " off": 1953,
    " reg": 1954,
    " award": 1955,
    " sel": 1956,
    " historical": 1957,
    "11": 1958,
    "gi": 1959,
    " 13": 1960,
    " crime": 1961,
    "upporting": 1962,
    " has": 1963,
    " rep": 1964,
    " role": 1965,
    " Martin": 1966,
    "Russian": 1967,
    " des": 1968,
    " William": 1969,
    " vers": 1970,
    "onzá": 1971,
    "onzále": 1972,
    "onzález": 1973,
    " premiered": 1974,
    "mber": 1975,
    " 2015": 1976,
    " up": 1977,
    " 2012": 1978,
    " screenplay": 1979,
    " Sh": 1980,
    "incent": 1981,
    " 2014": 1982,
    " adapted": 1983,
    "icol": 1984,
    "ition": 1985,
    " features": 1986,
    " 010": 1987,
    " Dan": 1988,
    "adc": 1989,
    " Girls": 1990,
    " women": 1991,
    " James": 1992,
    " crit": 1993,
    " ev": 1994,
    "ompl": 1995,
    "omplet": 1996,
    " prison": 1997,
    " Hollywood": 1998,
    "ello": 1999,
    " Sch": 2000,
    "be": 2001,
    "ffith": 2002,
    "ree": 2003,
    "andark": 2004,
    "andarkar": 2005,
    "sha": 2006,
    " German": 2007,
    "esnick": 2008,
    " War": 2009,
    "drama": 2010,
    " Cannes": 2011,
    " sur": 2012,
    " She": 2013,
    "irvan": 2014,
    "ative": 2015,
    " char": 2016,
    " charact": 2017,
    " into": 2018,
    " res": 2019,
    "econd": 2020,
    "ories": 2021,
    "Farrow": 2022,
    "Goran": 2023,
    "Paskaljević": 2024,
    "Kar": 2025,
    "Em": 2026,
    "Ezio": 2027,
    "Massa": 2028,
    "oz": 2029,
    "Ev": 2030,
    "Paulo": 2031,
    "André": 2032,
    "Abu": 2033,
    "jam": 2034,
    "Leon": 2035,
    "Caval": 2036,
    "ão": 2037,
    "ook": 2038,
    "Alt": 2039,
    "73": 2040,
    "Ren": 2041,
    "Vera": 2042,
    "born": 2043,
    "are": 2044,
    "oor": 2045,
    "Ramis": 2046,
    "Douglas": 2047,
    "Ken": 2048,
    "Dutt": 2049,
    "Buck": 2050,
    "Ph": 2051,
    "Bryan": 2052,
    "Jung": 2053,
    "Yu": 2054,
    "Rit": 2055,
    "alter": 2056,
    "Ly": 2057,
    "Oumarou": 2058,
    "Ganda": 2059,
    "Argent": 2060,
    "Bu": 2061,
    "Lloyd": 2062,
    "He": 2063,
    "Clark": 2064,
    "Hey": 2065,
    "Patrick": 2066,
    "Else": 2067,
    "Deron": 2068,
    "Dick": 2069,
    "Grib": 2070,
    "Gribble": 2071,
    "Curt": 2072,
    "Philip": 2073,
    "Disney": 2074,
    "Sher": 2075,
    "MacDonald": 2076,
    "Bar": 2077,
    "Lou": 2078,
    "Barr": 2079,
    "right": 2080,
    "Estevez": 2081,
    "Ko": 2082,
    "Nia": 2083,
    "Dinata": 2084,
    "Sid": 2085,
    "Chris": 2086,
    "Records": 2087,
    "Sony": 2088,
    "Lionsgate": 2089,
    "Nathan": 2090,
    "Sung": 2091,
    "Bruc": 2092,
    "Bruce": 2093,
    "Mit": 2094,
    "Malayalam": 2095,
    "Bab": 2096,
    "Vittorio": 2097,
    "Cecchi": 2098,
    "Gor": 2099,
    "Gori": 2100,
    "Far": 2101,
    "Sarah": 2102,
    "Osbor": 2103,
    "Osborne": 2104,
    "Ash": 2105,
    "Taviani": 2106,
    "Roberto": 2107,
    "Giul": 2108,
    "Gray": 2109,
    "Bec": 2110,
    "wen": 2111,
    "Hou": 2112,
    "Patric": 2113,
    "Krist": 2114,
    "Vallée": 2115,
    "Desires": 2116,
    "Max": 2117,
    "Han": 2118,
    "Lang": 2119,
    "Franco": 2120,
    "Hin": 2121,
    "Studios": 2122,
    "Weather": 2123,
    "Mi": 2124,
    "Ellis": 2125,
    "ene": 2126,
    "Ahmed": 2127,
    "nie": 2128,
    "Roberts": 2129,
    "outh": 2130,
    "Ha": 2131,
    "Pooja": 2132,
    "Bhatt": 2133,
    "Jacob": 2134,
    "Flor": 2135,
    "Mary": 2136,
    "34": 2137,
    "65": 2138,
    "iew": 2139,
    "aid": 2140,
    "tz": 2141,
    "Maria": 2142,
    "Cecil": 2143,
    "Russell": 2144,
    "Den": 2145,
    "Fox": 2146,
    "Corporation": 2147,
    "Jacques": 2148,
    "Mishra": 2149,
    "Stephen": 2150,
    "Sayadian": 2151,
    "Kat": 2152,
    "Jerry": 2153,
    "Chec": 2154,
    "Checco": 2155,
    "Zal": 2156,
    "Zalone": 2157,
    "Stephan": 2158,
    "Brenninkmeijer": 2159,
    "San": 2160,
    "Dino": 2161,
    "Madh": 2162,
    "Sat": 2163,
    "Ritter": 2164,
    "12": 2165,
    "Min": 2166,
    "Monte": 2167,
    "Collins": 2168,
    "Sheen": 2169,
    "ok": 2170,
    "Distribut": 2171,
    "Laurence": 2172,
    "Phili": 2173,
    "andra": 2174,
    "Hu": 2175,
    "Francisco": 2176,
    "Gol": 2177,
    "Ing": 2178,
    "Childhood": 2179,
    "Martha": 2180,
    "Cannary": 2181,
    "Kam": 2182,
    "Cristian": 2183,
    "Nemescu": 2184,
    "Thomas": 2185,
    "Matthew": 2186,
    "Pascal": 2187,
    "Jonathan": 2188,
    "eng": 2189,
    "Stein": 2190,
    "Ass": 2191,
    "British": 2192,
    "Cox": 2193,
    "Mukherjee": 2194,
    "Dorothy": 2195,
    "Li": 2196,
    "Anand": 2197,
    "prieto": 2198,
    "azabache": 2199,
    "Denn": 2200,
    "Christopher": 2201,
    "Don": 2202,
    "ffer": 2203,
    "Abbas": 2204,
    "The": 2205,
    "Zh": 2206,
    "Giovanni": 2207,
    "Pastrone": 2208,
    "650": 2209,
    "Bet": 2210,
    "Alessandro": 2211,
    "boj": 2212,
    "ilip": 2213,
    " Cabaret": 2214,
    " selected": 2215,
    " entry": 2216,
    " Language": 2217,
    " Jo": 2218,
    "olfo": 2219,
    "vy": 2220,
    "night": 2221,
    "fli": 2222,
    " Oct": 2223,
    " Octo": 2224,
    " October": 2225,
    "ember": 2226,
    "lands": 2227,
    " Mc": 2228,
    "lyn": 2229,
    "lynn": 2230,
    "Connor": 2231,
    "nez": 2232,
    "vonne": 2233,
    "ici": 2234,
    " San": 2235,
    "ubin": 2236,
    " 1936": 2237,
    "fore": 2238,
    " company": 2239,
    " Wh": 2240,
    " Ste": 2241,
    " version": 2242,
    "rote": 2243,
    "immy": 2244,
    "hon": 2245,
    " Col": 2246,
    " 2020": 2247,
    "esse": 2248,
    " succ": 2249,
    " success": 2250,
    " States": 2251,
    " Van": 2252,
    "ax": 2253,
    "shall": 2254,
    " premiere": 2255,
    " Mac": 2256,
    "inke": 2257,
    " 15": 2258,
    " 2010": 2259,
    "ford": 2260,
    " ch": 2261,
    "inese": 2262,
    "iang": 2263,
    "screen": 2264,
    " app": 2265,
    " appear": 2266,
    "Hung": 2267,
    " pres": 2268,
    "ya": 2269,
    "icolás": 2270,
    "Arab": 2271,
    "Arabic": 2272,
    " cons": 2273,
    " later": 2274,
    " Golden": 2275,
    "Bin": 2276,
    " betw": 2277,
    " between": 2278,
    " tra": 2279,
    "iston": 2280,
    " Pat": 2281,
    "zina": 2282,
    " Jul": 2283,
    "hi": 2284,
    "ouc": 2285,
    "bie": 2286,
    " bec": 2287,
    "ama": 2288,
    "hl": 2289,
    "Goldw": 2290,
    "Goldwyn": 2291,
    "Mayer": 2292,
    "For": 2293,
    "rene": 2294,
    " Ro": 2295,
    "ordon": 2296,
    "ling": 2297,
    "ison": 2298,
    "yke": 2299,
    "lina": 2300,
    "essa": 2301,
    "vad": 2302,
    "vador": 2303,
    "ience": 2304,
    "eop": 2305,
    "eople": 2306,
    "rid": 2307,
    "etta": 2308,
    "hir": 2309,
    " Fl": 2310,
    " have": 2311,
    "uth": 2312,
    "lessy": 2313,
    " Indian": 2314,
    "eif": 2315,
    "rik": 2316,
    " horror": 2317,
    " no": 2318,
    " Russ": 2319,
    "ompson": 2320,
    "illou": 2321,
    " four": 2322,
    " March": 2323,
    "ün": 2324,
    "ilv": 2325,
    " Direct": 2326,
    "lake": 2327,
    " plot": 2328,
    " man": 2329,
    "oci": 2330,
    "reg": 2331,
    "exican": 2332,
    " rec": 2333,
    "ingd": 2334,
    "ingdom": 2335,
    "udd": 2336,
    " 2008": 2337,
    "du": 2338,
    " Caine": 2339,
    " colle": 2340,
    "irgin": 2341,
    " Cain": 2342,
    " woman": 2343,
    " 1993": 2344,
    "osh": 2345,
    " chil": 2346,
    " child": 2347,
    " National": 2348,
    "ilar": 2349,
    "ider": 2350,
    "ron": 2351,
    "ptian": 2352,
    "apan": 2353,
    "ix": 2354,
    "ise": 2355,
    "ibb": 2356,
    "work": 2357,
    "iss": 2358,
    "03": 2359,
    "erd": 2360,
    "ively": 2361,
    "vey": 2362,
    "aters": 2363,
    "cy": 2364,
    "min": 2365,
    "stor": 2366,
    " 01": 2367,
    "jl": 2368,
    "Filip": 2369,
    " Gl": 2370,
    " number": 2371,
    " including": 2372,
    "isha": 2373,
    " Be": 2374,
    "illo": 2375,
    "ñez": 2376,
    "nel": 2377,
    " 1948": 2378,
    "iges": 2379,
    " Ramis": 2380,
    " Che": 2381,
    " Michael": 2382,
    " come": 2383,
    "Gerald": 2384,
    "flix": 2385,
    " Cur": 2386,
    " Sc": 2387,
    "ergu": 2388,
    "elora": 2389,
    "enton": 2390,
    "02": 2391,
    "ver": 2392,
    "adav": 2393,
    "offici": 2394,
    "zz": 2395,
    "ulik": 2396,
    "hard": 2397,
    "Hal": 2398,
    " song": 2399,
    "Las": 2400,
    "ablo": 2401,
    " Mon": 2402,
    " Jon": 2403,
    "gain": 2404,
    "gainst": 2405,
    " tr": 2406,
    "esem": 2407,
    "esemael": 2408,
    "endrick": 2409,
    "ennet": 2410,
    "ura": 2411,
    "Ge": 2412,
    "arwick": 2413,
    "inna": 2414,
    " 30": 2415,
    "icki": 2416,
    " Caesar": 2417,
    " August": 2418,
    " 4": 2419,
    " Emp": 2420,
    " Empire": 2421,
    "oms": 2422,
    "ordan": 2423,
    "iddens": 2424,
    " 018": 2425,
    "84": 2426,
    "chell": 2427,
    "ová": 2428,
    " Mal": 2429,
    " cast": 2430,
    "igel": 2431,
    " gener": 2432,
    "ence": 2433,
    " sex": 2434,
    "olp": 2435,
    "ushan": 2436,
    "ardin": 2437,
    "siao": 2438,
    "hs": 2439,
    "hsien": 2440,
    " nominated": 2441,
    " 2004": 2442,
    "67": 2443,
    "Universal": 2444,
    "61": 2445,
    "roll": 2446,
    "amie": 2447,
    "Cour": 2448,
    " performan": 2449,
    " Act": 2450,
    " la": 2451,
    " 1946": 2452,
    "lauber": 2453,
    "dant": 2454,
    "ér": 2455,
    "par": 2456,
    "leming": 2457,
    "illerm": 2458,
    " Ap": 2459,
    " after": 2460,
    " Mir": 2461,
    " Wil": 2462,
    " became": 2463,
    " event": 2464,
    "otion": 2465,
    "rellana": 2466,
    "arnell": 2467,
    " George": 2468,
    " Richard": 2469,
    "ritz": 2470,
    "ène": 2471,
    "ardi": 2472,
    " 1942": 2473,
    "Cla": 2474,
    " Jean": 2475,
    "iane": 2476,
    "aya": 2477,
    " Production": 2478,
    "riend": 2479,
    " 1950": 2480,
    " Louise": 2481,
    " Lester": 2482,
    "udhir": 2483,
    " fict": 2484,
    " Dream": 2485,
    "ool": 2486,
    " Allan": 2487,
    "ennaro": 2488,
    "zian": 2489,
    "ziante": 2490,
    "Xue": 2491,
    "Xuech": 2492,
    "Xuechang": 2493,
    "än": 2494,
    " 7": 2495,
    " 03": 2496,
    "ernon": 2497,
    "ekely": 2498,
    "kar": 2499,
    "urn": 2500,
    "Bel": 2501,
    "Caillou": 2502,
    "itta": 2503,
    "oody": 2504,
    "wald": 2505,
    "gio": 2506,
    "avin": 2507,
    "rans": 2508,
    "aime": 2509,
    "way": 2510,
    "Cadena": 2511,
    "raga": 2512,
    " Lor": 2513,
    " 04": 2514,
    " 2007": 2515,
    "airst": 2516,
    "airstow": 2517,
    "esham": 2518,
    "ssaw": 2519,
    "ssawi": 2520,
    " all": 2521,
    "Roman": 2522,
    " Studios": 2523,
    "udolf": 2524,
    "illes": 2525,
    "well": 2526,
    " David": 2527,
    "Cafard": 2528,
    " Jan": 2529,
    "liff": 2530,
    "Armen": 2531,
    " 2019": 2532,
    " Mexican": 2533,
    "orse": 2534,
    "amed": 2535,
    "regory": 2536,
    " Girl": 2537,
    " art": 2538,
    " Paris": 2539,
    "uba": 2540,
    "esa": 2541,
    "iance": 2542,
    "therine": 2543,
    "uval": 2544,
    "oq": 2545,
    "ombe": 2546,
    " Nirvan": 2547,
    " sch": 2548,
    "fre": 2549,
    "fredi": 2550,
    "oî": 2551,
    "oît": 2552,
    "ffin": 2553,
    " ear": 2554,
    " more": 2555,
    "anna": 2556,
    " 010650": 2557,
    "inée": 2558,
    " Am": 2559,
    " And": 2560,
    " commun": 2561,
    " community": 2562,
    "yst": 2563,
    "ida": 2564,
    " second": 2565,
    " Austr": 2566,
    "ras": 2567,
    " back": 2568,
    "irginia": 2569,
    "Lion": 2570,
    " films": 2571,
    " Cor": 2572,
    "FC": 2573,
    "eeters": 2574,
    "owd": 2575,
    "stin": 2576,
    "eny": 2577,
    "vis": 2578,
    "mar": 2579,
    "los": 2580,
    "oviet": 2581,
    "BS": 2582,
    "mes": 2583,
    "wart": 2584,
    "ional": 2585,
    "akist": 2586,
    "egan": 2587,
    "yle": 2588,
    "orok": 2589,
    "orokvei": 2590,
    "atic": 2591,
    "etro": 2592,
    "pe": 2593,
    "uel": 2594,
    "odil": 2595,
    "uteu": 2596,
    "uteuil": 2597,
    "25": 2598,
    "osse": 2599,
    "err": 2600,
    "ogg": 2601,
    "arian": 2602,
    "anner": 2603,
    "utch": 2604,
    "edia": 2605,
    "ulf": 2606,
    "ts": 2607,
    "ral": 2608,
    "Willy": 2609,
    "Barry": 2610,
    "Fitzgerald": 2611,
    " Ray": 2612,
    " sing": 2613,
    "Martine": 2614,
    "mont": 2615,
    "Drag": 2616,
    "Nik": 2617,
    "Nikol": 2618,
    "Mik": 2619,
    "Tri": 2620,
    "ject": 2621,
    " Ven": 2622,
    "Emb": 2623,
    "Seg": 2624,
    "Chom": 2625,
    "Yann": 2626,
    "Goz": 2627,
    "Gozlan": 2628,
    "Betti": 2629,
    "Ramos": 2630,
    "Fir": 2631,
    " 2005": 2632,
    "ilian": 2633,
    " insp": 2634,
    " Sal": 2635,
    "Benjam": 2636,
    "Benjamin": 2637,
    "Kl": 2638,
    "Kline": 2639,
    "Grav": 2640,
    " Lu": 2641,
    "Ada": 2642,
    "Mariano": 2643,
    "Luis": 2644,
    "Ag": 2645,
    "Matt": 2646,
    "Ra": 2647,
    "Jeanne": 2648,
    "Carmi": 2649,
    "Hug": 2650,
    "pin": 2651,
    "Wong": 2652,
    "Neiges": 2653,
    "Noires": 2654,
    " 1980": 2655,
    " Harold": 2656,
    " Bri": 2657,
    " Brian": 2658,
    " Bill": 2659,
    " most": 2660,
    "rossing": 2661,
    " only": 2662,
    "ny": 2663,
    "Kenney": 2664,
    "Bill": 2665,
    "Chevy": 2666,
    "Chase": 2667,
    " After": 2668,
    " June": 2669,
    " Nov": 2670,
    " November": 2671,
    " Jack": 2672,
    "Netflix": 2673,
    "Buckley": 2674,
    "ón": 2675,
    "Dom": 2676,
    "Melora": 2677,
    "Walters": 2678,
    "Fenton": 2679,
    "Kane": 2680,
    "Brown": 2681,
    "ieb": 2682,
    "Edu": 2683,
    "ovsky": 2684,
    "Len": 2685,
    "Ale": 2686,
    "Aleks": 2687,
    "Aleksand": 2688,
    "Aleksandr": 2689,
    "enk": 2690,
    "Yvonne": 2691,
    "Fur": 2692,
    "Soffici": 2693,
    "Argentina": 2694,
    "Angel": 2695,
    "José": 2696,
    "Buzz": 2697,
    "Kulik": 2698,
    "Barn": 2699,
    "Bac": 2700,
    " design": 2701,
    " designed": 2702,
    " she": 2703,
    "able": 2704,
    " before": 2705,
    " this": 2706,
    " Love": 2707,
    " Is": 2708,
    " Com": 2709,
    "International": 2710,
    "1918": 2711,
    "Jimmy": 2712,
    "Alexander": 2713,
    "Pablo": 2714,
    "González": 2715,
    " 5": 2716,
    "Baker": 2717,
    "Rock": 2718,
    " World": 2719,
    " Qu": 2720,
    "ful": 2721,
    " TV": 2722,
    " May": 2723,
    "Ky": 2724,
    " Bel": 2725,
    " 11": 2726,
    "Lenny": 2727,
    "Wesemael": 2728,
    "irk": 2729,
    "Imp": 2730,
    "Donaldson": 2731,
    "3923": 2732,
    "Amala": 2733,
    "Pill": 2734,
    "worth": 2735,
    "Sherman": 2736,
    "Landers": 2737,
    "Warwick": 2738,
    "Freddie": 2739,
    "Green": 2740,
    "Cine": 2741,
    "Cinep": 2742,
    "Cineplex": 2743,
    " Sol": 2744,
    " Otto": 2745,
    " Campfield": 2746,
    " Est": 2747,
    " Stev": 2748,
    " then": 2749,
    " Tra": 2750,
    "Brinke": 2751,
    "Stevens": 2752,
    "Felissa": 2753,
    "Rose": 2754,
    "Jer": 2755,
    "Cass": 2756,
    " Howard": 2757,
    " Pri": 2758,
    " scri": 2759,
    " script": 2760,
    "Sidney": 2761,
    "Tay": 2762,
    "Hil": 2763,
    "Erne": 2764,
    "Ernest": 2765,
    "Stanley": 2766,
    "Altman": 2767,
    "Andrews": 2768,
    "Vincent": 2769,
    "Ladd": 2770,
    "Arie": 2771,
    " r": 2772,
    " Coff": 2773,
    "Giddens": 2774,
    "Lan": 2775,
    "Vivian": 2776,
    "Chow": 2777,
    "Mitchell": 2778,
    "Eddie": 2779,
    "cinema": 2780,
    "Zar": 2781,
    "Nair": 2782,
    "White": 2783,
    "Graham": 2784,
    "Haneke": 2785,
    "Nicolás": 2786,
    "Jay": 2787,
    " Egy": 2788,
    " entered": 2789,
    " 3": 2790,
    " inter": 2791,
    "Per": 2792,
    "Giuliano": 2793,
    "Bhushan": 2794,
    " 1927": 2795,
    " distribut": 2796,
    " distributed": 2797,
    "isch": 2798,
    "Adolph": 2799,
    "Zuk": 2800,
    "Zukor": 2801,
    "Jesse": 2802,
    "Gil": 2803,
    "Owen": 2804,
    "Hsiao": 2805,
    "och": 2806,
    "Craft": 2807,
    " ra": 2808,
    " car": 2809,
    "France": 2810,
    "74": 2811,
    "Sean": 2812,
    "Mad": 2813,
    "Carroll": 2814,
    "Jamie": 2815,
    "Aniston": 2816,
    "Canton": 2817,
    " Daniel": 2818,
    " Sam": 2819,
    " revie": 2820,
    " reviews": 2821,
    " bud": 2822,
    " budget": 2823,
    " performance": 2824,
    " pos": 2825,
    "Broadc": 2826,
    "Broadcasting": 2827,
    "Company": 2828,
    "Nether": 2829,
    "Netherlands": 2830,
    "Italy": 2831,
    "Mas": 2832,
    "Ronald": 2833,
    "Vanzina": 2834,
    "Rossi": 2835,
    " 1963": 2836,
    "09": 2837,
    "06": 2838,
    "Glauber": 2839,
    "Rocha": 2840,
    "Art": 2841,
    "Artist": 2842,
    "Artists": 2843,
    " 2013": 2844,
    "Fanny": 2845,
    "Ardant": 2846,
    "Ric": 2847,
    "Hindi": 2848,
    "21": 2849,
    "Fleming": 2850,
    "Terrence": 2851,
    "Flack": 2852,
    "Christy": 2853,
    "Brid": 2854,
    "Flav": 2855,
    " group": 2856,
    " April": 2857,
    " Mirren": 2858,
    " Harr": 2859,
    " Phil": 2860,
    " shown": 2861,
    "ually": 2862,
    "Cole": 2863,
    "Motion": 2864,
    "Julie": 2865,
    "Pen": 2866,
    "Linda": 2867,
    "Im": 2868,
    "Thor": 2869,
    "Mirren": 2870,
    "Orellana": 2871,
    "Darnell": 2872,
    "ikka": 2873,
    "yuk": 2874,
    " Walter": 2875,
    " rema": 2876,
    " remake": 2877,
    "Wolf": 2878,
    "Metro": 2879,
    "Law": 2880,
    "Lawrence": 2881,
    "Mazhar": 2882,
    "Po": 2883,
    "Ham": 2884,
    "Ladis": 2885,
    " 1951": 2886,
    "Momplet": 2887,
    "Cheung": 2888,
    "Hugh": 2889,
    "Irene": 2890,
    "Ji": 2891,
    "Tu": 2892,
    "Tana": 2893,
    "44": 2894,
    "Berger": 2895,
    "Stoll": 2896,
    "Lind": 2897,
    "Rand": 2898,
    " well": 2899,
    "María": 2900,
    "Sen": 2901,
    "Jeff": 2902,
    "Laz": 2903,
    "Gordon": 2904,
    "win": 2905,
    "Rich": 2906,
    "Kas": 2907,
    "Dyke": 2908,
    " This": 2909,
    " cont": 2910,
    "Marie": 2911,
    "Carolina": 2912,
    "Reg": 2913,
    "Vanessa": 2914,
    "Salvador": 2915,
    "August": 2916,
    "Augusto": 2917,
    " Ex": 2918,
    "ives": 2919,
    "amily": 2920,
    " Films": 2921,
    " Feb": 2922,
    " Febr": 2923,
    " February": 2924,
    " regard": 2925,
    " people": 2926,
    "Rain": 2927,
    "Griffith": 2928,
    "Butt": 2929,
    "Buttolph": 2930,
    "Cy": 2931,
    "Loretta": 2932,
    "Ty": 2933,
    "Men": 2934,
    "Delia": 2935,
    " Tom": 2936,
    " Charl": 2937,
    " Bur": 2938,
    "Av": 2939,
    "Sudhir": 2940,
    "\")": 2941,
    "Katz": 2942,
    "Fro": 2943,
    "16": 2944,
    "Sk": 2945,
    " 1913": 2946,
    " Dwan": 2947,
    "Gennaro": 2948,
    "Nunziante": 2949,
    "Mic": 2950,
    "879": 2951,
    "McC": 2952,
    "aldi": 2953,
    "Mort": 2954,
    "Glick": 2955,
    "Glickman": 2956,
    "Kari": 2957,
    "Blessy": 2958,
    " Bh": 2959,
    "Madhur": 2960,
    "Bhandarkar": 2961,
    "Aart": 2962,
    "Aarti": 2963,
    "Baj": 2964,
    "Bajaj": 2965,
    "Ama": 2966,
    "Py": 2967,
    "Minnelli": 2968,
    "Karl": 2969,
    "Lara": 2970,
    "fri": 2971,
    "fried": 2972,
    "Sast": 2973,
    "Sastha": 2974,
    "Lola": 2975,
    "Lord": 2976,
    "Vernon": 2977,
    "Larry": 2978,
    "Fine": 2979,
    "Sekely": 2980,
    "Kir": 2981,
    "Gail": 2982,
    "Salah": 2983,
    "Seif": 2984,
    "Tak": 2985,
    "States": 2986,
    "ashi": 2987,
    "Jun": 2988,
    "Ari": 2989,
    "Marshall": 2990,
    "Alan": 2991,
    " Ben": 2992,
    "Thompson": 2993,
    "Jason": 2994,
    " 1984": 2995,
    "Stone": 2996,
    "Movie": 2997,
    "Felitta": 2998,
    "Woody": 2999,
    "Sandra": 3000,
    "Adolfo": 3001,
    "Celi": 3002,
    "Oswald": 3003,
    "Alberto": 3004,
    "Cavalc": 3005,
    "Cavalcant": 3006,
    "Cavalcanti": 3007,
    "rv": 3008,
    "Jaime": 3009,
    "Sak": 3010,
    "Mike": 3011,
    " 1969": 3012,
    " mov": 3013,
    "itation": 3014,
    " Jane": 3015,
    " life": 3016,
    "abi": 3017,
    "braga": 3018,
    "Ingram": 3019,
    "Gas": 3020,
    "Tra": 3021,
    "Harrison": 3022,
    "Hoy": 3023,
    "Bre": 3024,
    "Hel": 3025,
    "Bairstow": 3026,
    "Resnick": 3027,
    "Alf": 3028,
    " telen": 3029,
    " telenovel": 3030,
    " telenovela": 3031,
    "Exit": 3032,
    "Hesham": 3033,
    "Issawi": 3034,
    "McCa": 3035,
    "Silv": 3036,
    "Bart": 3037,
    "Mason": 3038,
    " us": 3039,
    "Blake": 3040,
    "Stew": 3041,
    "Stewart": 3042,
    " Society": 3043,
    "Rudolf": 3044,
    "Gilles": 3045,
    "Ele": 3046,
    "India": 3047,
    "Associ": 3048,
    "Associated": 3049,
    "Josel": 3050,
    "Joselit": 3051,
    "Joselito": 3052,
    "Language": 3053,
    "Canada": 3054,
    "Anders": 3055,
    "Kamal": 3056,
    "imp": 3057,
    "Duff": 3058,
    "Simon": 3059,
    "Malle": 3060,
    " named": 3061,
    "Beach": 3062,
    "Gregory": 3063,
    " Caro": 3064,
    "Dennis": 3065,
    "712": 3066,
    " 1974": 3067,
    " Elliott": 3068,
    "Kingdom": 3069,
    "Ruba": 3070,
    "Nadda": 3071,
    "Teresa": 3072,
    "Alliance": 3073,
    "01": 3074,
    " Gi": 3075,
    "Milton": 3076,
    "Catherine": 3077,
    " Mos": 3078,
    " deal": 3079,
    "ffick": 3080,
    "fficking": 3081,
    " characters": 3082,
    "Asim": 3083,
    "Abbasi": 3084,
    "Sy": 3085,
    "Wang": 3086,
    "Zhong": 3087,
    "jun": 3088,
    "Television": 3089,
    "Duval": 3090,
    " Christ": 3091,
    "Nanni": 3092,
    "Loy": 3093,
    "Crom": 3094,
    "Nino": 3095,
    "Manfredi": 3096,
    "_%": 3097,
    "Benoît": 3098,
    "Graffin": 3099,
    " Des": 3100,
    "lei": 3101,
    "Com": 3102,
    "Comm": 3103,
    "Communic": 3104,
    "Communications": 3105,
    " explo": 3106,
    " Abel": 3107,
    " pol": 3108,
    "iau": 3109,
    "Basil": 3110,
    " Frank": 3111,
    " Davis": 3112,
    " Mil": 3113,
    " Dece": 3114,
    " December": 3115,
    "Annie": 3116,
    "Aj": 3117,
    "Ajit": 3118,
    "Ajitesh": 3119,
    " early": 3120,
    " surv": 3121,
    " him": 3122,
    "Distributors": 3123,
    " Bern": 3124,
    "Ars": 3125,
    "Arsinée": 3126,
    "Khan": 3127,
    "Khanj": 3128,
    "Khanjian": 3129,
    "Gate": 3130,
    "Sharma": 3131,
    "Hall": 3132,
    " shot": 3133,
    " myst": 3134,
    " California": 3135,
    "Aur": 3136,
    "Auric": 3137,
    " 1972": 3138,
    " stories": 3139,
    " Australian": 3140,
    "Pri": 3141,
    "Virginia": 3142,
    " Cent": 3143,
    "Kell": 3144,
    "Bouc": 3145,
    "Philippe": 3146,
    " three": 3147,
    " Rog": 3148,
    " hon": 3149,
    "Craig": 3150,
    "IFC": 3151,
    " 12": 3152,
    "Zsa": 3153,
    "Rie": 3154,
    "Riepl": 3155,
    " Roth": 3156,
    "Wild": 3157,
    "Demme": 3158,
    "Chile": 3159,
    " 1985": 3160,
    "Georg": 3161,
    "Peeters": 3162,
    "Val": 3163,
    "Valton": 3164,
    "Valtonen": 3165,
    " Heat": 3166,
    "anw": 3167,
    "anwy": 3168,
    "anwyck": 3169,
    "ady": 3170,
    "vor": 3171,
    "arts": 3172,
    "igi": 3173,
    "oli": 3174,
    "angerf": 3175,
    "angerfield": 3176,
    "zon": 3177,
    "Martí": 3178,
    "ird": 3179,
    "wer": 3180,
    "earst": 3181,
    "ones": 3182,
    "rest": 3183,
    "achel": 3184,
    "las": 3185,
    "oster": 3186,
    "useppe": 3187,
    "chev": 3188,
    "chevarr": 3189,
    "chevarría": 3190,
    "uj": 3191,
    "riv": 3192,
    "ewitt": 3193,
    "enzo": 3194,
    "ingh": 3195,
    "Port": 3196,
    "osa": 3197,
    "eal": 3198,
    "enf": 3199,
    "stone": 3200,
    "iette": 3201,
    "band": 3202,
    "key": 3203,
    "eill": 3204,
    "odor": 3205,
    "rinal": 3206,
    "ily": 3207,
    "øn": 3208,
    "ønberg": 3209,
    "Johann": 3210,
    "eli": 3211,
    "urst": 3212,
    "Mille": 3213,
    "aron": 3214,
    "awn": 3215,
    "iser": 3216,
    "ydney": 3217,
    "ush": 3218,
    "agle": 3219,
    "Hungarian": 3220,
    "estyle": 3221,
    "nold": 3222,
    "Mull": 3223,
    "ti": 3224,
    "ukh": 3225,
    "ukhari": 3226,
    "nan": 3227,
    "yr": 3228,
    "men": 3229,
    "aver": 3230,
    "olot": 3231,
    "rang": 3232,
    "ebast": 3233,
    "erl": 3234,
    "urop": 3235,
    "athe": 3236,
    "ustin": 3237,
    "ila": 3238,
    "ster": 3239,
    "arden": 3240,
    "uke": 3241,
    "ario": 3242,
    "obb": 3243,
    "kin": 3244,
    "bbins": 3245,
    "orne": 3246,
    "ares": 3247,
    " Barbara": 3248,
    " 1998": 3249,
    "bian": 3250,
    " Venice": 3251,
    " acce": 3252,
    " accepted": 3253,
    "razilian": 3254,
    "cle": 3255,
    " wor": 3256,
    " Sor": 3257,
    " Man": 3258,
    " sport": 3259,
    " sports": 3260,
    " supporting": 3261,
    " Caddyshack": 3262,
    " previo": 3263,
    " previous": 3264,
    " office": 3265,
    " year": 3266,
    " following": 3267,
    " desc": 3268,
    " ever": 3269,
    " followed": 3270,
    " 21": 3271,
    "ident": 3272,
    " 1937": 3273,
    " filmed": 3274,
    " call": 3275,
    " White": 3276,
    " Osc": 3277,
    " Sha": 3278,
    " int": 3279,
    " You": 3280,
    "ongs": 3281,
    "\",": 3282,
    " Warren": 3283,
    " wrote": 3284,
    " successful": 3285,
    " against": 3286,
    " prof": 3287,
    " upon": 3288,
    " true": 3289,
    " fat": 3290,
    " father": 3291,
    "dep": 3292,
    "depend": 3293,
    "dependent": 3294,
    " Lew": 3295,
    ".,": 3296,
    " theat": 3297,
    " theatric": 3298,
    "assacre": 3299,
    " Dave": 3300,
    " Fel": 3301,
    " Miller": 3302,
    " Joe": 3303,
    " Br": 3304,
    " creat": 3305,
    " Night": 3306,
    " nomination": 3307,
    " screened": 3308,
    "ouse": 3309,
    " DV": 3310,
    " DVD": 3311,
    " 2011": 3312,
    " Fox": 3313,
    " studio": 3314,
    "arned": 3315,
    " comp": 3316,
    "Chinese": 3317,
    " Coffee": 3318,
    " preserv": 3319,
    " Egyptian": 3320,
    " dep": 3321,
    " depict": 3322,
    "ude": 3323,
    "ban": 3324,
    " cl": 3325,
    "based": 3326,
    " sexual": 3327,
    " Paramount": 3328,
    " consid": 3329,
    " considered": 3330,
    " now": 3331,
    "apanese": 3332,
    " mem": 3333,
    " How": 3334,
    " posit": 3335,
    " positive": 3336,
    " Gu": 3337,
    " Tim": 3338,
    " Women": 3339,
    " Inst": 3340,
    " Instit": 3341,
    " Helen": 3342,
    " Lin": 3343,
    " France": 3344,
    " Hong": 3345,
    " critics": 3346,
    " Mont": 3347,
    "icture": 3348,
    " Eric": 3349,
    " As": 3350,
    " Jung": 3351,
    " Antonio": 3352,
    " score": 3353,
    "kw": 3354,
    " Em": 3355,
    "ms": 3356,
    " thro": 3357,
    " through": 3358,
    " Nat": 3359,
    " Paradis": 3360,
    " Lau": 3361,
    " regarded": 3362,
    " Supporting": 3363,
    " Re": 3364,
    " Burton": 3365,
    " 1982": 3366,
    " fiction": 3367,
    "redited": 3368,
    " Music": 3369,
    " compos": 3370,
    " composed": 3371,
    " 1997": 3372,
    " friend": 3373,
    " played": 3374,
    " real": 3375,
    " Cec": 3376,
    " Cecil": 3377,
    "ets": 3378,
    " Ka": 3379,
    " New": 3380,
    " 003923": 3381,
    " He": 3382,
    " trans": 3383,
    " Mat": 3384,
    " Broad": 3385,
    " Broadway": 3386,
    " Bar": 3387,
    " family": 3388,
    "oos": 3389,
    " January": 3390,
    " Spring": 3391,
    " Dorothy": 3392,
    "ocus": 3393,
    " horse": 3394,
    " Stanley": 3395,
    " 1976": 3396,
    " On": 3397,
    "inally": 3398,
    " adv": 3399,
    " altern": 3400,
    " trafficking": 3401,
    " Or": 3402,
    " girl": 3403,
    "minute": 3404,
    " arcade": 3405,
    " Monro": 3406,
    "ired": 3407,
    " make": 3408,
    " dec": 3409,
    " resp": 3410,
    " Sheen": 3411,
    " We": 3412,
    " 1989": 3413,
    " Pet": 3414,
    " Jac": 3415,
    "eek": 3416,
    " 0366": 3417,
    " exploitation": 3418,
    "form": 3419,
    "ears": 3420,
    "lav": 3421,
    " when": 3422,
    " hum": 3423,
    " human": 3424,
    " explor": 3425,
    " Bernard": 3426,
    " port": 3427,
    "ption": 3428,
    " Donald": 3429,
    " marr": 3430,
    " Roman": 3431,
    " Canada": 3432,
    " 1945": 3433,
    " Swanberg": 3434,
    " tak": 3435,
    " performed": 3436,
    " Republic": 3437,
    " Spencer": 3438,
    "lu": 3439,
    " Haneke": 3440,
    " gu": 3441,
    "ret": 3442,
    " mystery": 3443,
    " Lee": 3444,
    " tell": 3445,
    " tells": 3446,
    "led": 3447,
    " Ab": 3448,
    " Eli": 3449,
    " Press": 3450,
    "prison": 3451,
    " Af": 3452,
    "\".": 3453,
    " war": 3454,
    " 1943": 3455,
    " Minnelli": 3456,
    " vict": 3457,
    " Andre": 3458,
    " Andrews": 3459,
    " ed": 3460,
    " Caged": 3461,
    "enna": 3462,
    "illand": 3463,
    "utler": 3464,
    "ubb": 3465,
    "Milan": 3466,
    "jin": 3467,
    "jlović": 3468,
    "bojš": 3469,
    "bojša": 3470,
    "ogov": 3471,
    "ogovac": 3472,
    "vorak": 3473,
    "undo": 3474,
    "geny": 3475,
    "varts": 3476,
    "áz": 3477,
    "ázaro": 3478,
    "eno": 3479,
    "anatra": 3480,
    "entures": 3481,
    "ould": 3482,
    "orge": 3483,
    "edina": 3484,
    "és": 3485,
    "Rodney": 3486,
    "Kee": 3487,
    "Keefe": 3488,
    "owden": 3489,
    "lynnis": 3490,
    "thony": 3491,
    "sta": 3492,
    "aith": 3493,
    "ergue": 3494,
    "imé": 3495,
    "iménez": 3496,
    "thau": 3497,
    "76": 3498,
    "neaux": 3499,
    "rique": 3500,
    "uiñ": 3501,
    "uiño": 3502,
    "ías": 3503,
    "Xiaow": 3504,
    "Xiaowei": 3505,
    "aige": 3506,
    "iddell": 3507,
    "ershon": 3508,
    "hold": 3509,
    "rees": 3510,
    "reaming": 3511,
    "otst": 3512,
    "otstar": 3513,
    "hilash": 3514,
    "ritra": 3515,
    "rehan": 3516,
    "thol": 3517,
    "tholom": 3518,
    "tholomew": 3519,
    "ombel": 3520,
    "ombell": 3521,
    "ydon": 3522,
    "atton": 3523,
    "inie": 3524,
    "iniek": 3525,
    "lyle": 3526,
    "nette": 3527,
    "irala": 3528,
    "idy": 3529,
    "livei": 3530,
    "liveira": 3531,
    "reston": 3532,
    "umate": 3533,
    "arnett": 3534,
    "iggin": 3535,
    "vo": 3536,
    "auh": 3537,
    "erina": 3538,
    "gar": 3539,
    "vind": 3540,
    "yt": 3541,
    "ytil": 3542,
    "ytilová": 3543,
    "rith": 3544,
    "rithv": 3545,
    "rithvira": 3546,
    "rithviraj": 3547,
    "ukumar": 3548,
    "ukumaran": 3549,
    "avya": 3550,
    "ahab": 3551,
    "uf": 3552,
    "ousse": 3553,
    "oussef": 3554,
    "ahine": 3555,
    "com": 3556,
    "riana": 3557,
    "aza": 3558,
    "aol": 3559,
    "aolo": 3560,
    "Lasky": 3561,
    "ignola": 3562,
    "der": 3563,
    "iku": 3564,
    "28": 3565,
    "Tre": 3566,
    "Carr": 3567,
    "ega": 3568,
    "ennedy": 3569,
    "orthington": 3570,
    "icity": 3571,
    "uffman": 3572,
    "lif": 3573,
    "lifton": 3574,
    "emme": 3575,
    "honey": 3576,
    "cock": 3577,
    "Ál": 3578,
    "Álv": 3579,
    "Álvar": 3580,
    "úñez": 3581,
    "illermo": 3582,
    "idan": 3583,
    "oenf": 3584,
    "oenfel": 3585,
    "oenfeld": 3586,
    "owers": 3587,
    "uka": 3588,
    "ros": 3589,
    "rosbie": 3590,
    "elope": 3591,
    "aten": 3592,
    "eillon": 3593,
    "hlmann": 3594,
    "elita": 3595,
    "Rodri": 3596,
    "Rodriguez": 3597,
    "ucker": 3598,
    "Kore": 3599,
    "hee": 3600,
    "kyun": 3601,
    "erio": 3602,
    "annie": 3603,
    "él": 3604,
    "élène": 3605,
    "perfor": 3606,
    "ynch": 3607,
    "ço": 3608,
    "çois": 3609,
    "endola": 3610,
    "orey": 3611,
    "nea": 3612,
    "igley": 3613,
    "auf": 3614,
    "aufman": 3615,
    "untington": 3616,
    "Rodero": 3617,
    "othart": 3618,
    "rícia": 3619,
    "ác": 3620,
    "ácomo": 3621,
    "uro": 3622,
    "endon": 3623,
    "endonç": 3624,
    "endonça": 3625,
    "vino": 3626,
    "riber": 3627,
    "riberto": 3628,
    "dis": 3629,
    "ela": 3630,
    "psen": 3631,
    "ritzen": 3632,
    "ichhard": 3633,
    "ichhardt": 3634,
    "Johannes": 3635,
    "hol": 3636,
    "beaux": 3637,
    "went": 3638,
    "olphe": 3639,
    "jou": 3640,
    "isen": 3641,
    "isenberg": 3642,
    "etts": 3643,
    "orel": 3644,
    "owery": 3645,
    "steen": 3646,
    "igg": 3647,
    "iggs": 3648,
    "raj": 3649,
    "ae": 3650,
    "aeed": 3651,
    "kank": 3652,
    "kanksha": 3653,
    "uri": 3654,
    "jjan": 3655,
    "lik": 3656,
    "kerrit": 3657,
    "kerritt": 3658,
    "dones": 3659,
    "Moe": 3660,
    "shner": 3661,
    "karan": 3662,
    "rada": 3663,
    "lystone": 3664,
    "Por": 3665,
    "mura": 3666,
    "gang": 3667,
    "Lagl": 3668,
    "Laglen": 3669,
    "razee": 3670,
    "Auteuil": 3671,
    "bj": 3672,
    "bjø": 3673,
    "bjør": 3674,
    "bjørn": 3675,
    "dix": 3676,
    "Robard": 3677,
    "Robards": 3678,
    "inique": 3679,
    "irie": 3680,
    "eleine": 3681,
    "Mona": 3682,
    "alla": 3683,
    "allag": 3684,
    "allagher": 3685,
    "aley": 3686,
    "ynth": 3687,
    "ynthia": 3688,
    "43": 3689,
    "rich": 3690,
    "zi": 3691,
    "orehead": 3692,
    "gman": 3693,
    "amond": 3694,
    "oris": 3695,
    "imer": 3696,
    "enaine": 3697,
    "urad": 3698,
    "uradha": 3699,
    "Fosse": 3700,
    "eu": 3701,
    "iza": 3702,
    "Grey": 3703,
    "ga": 3704,
    "serv": 3705,
    "Lav": 3706,
    "Lavert": 3707,
    "Laverty": 3708,
    "kush": 3709,
    "yk": 3710,
    "ykro": 3711,
    "ykroyd": 3712,
    "Nam": 3713,
    "Namara": 3714,
    "errill": 3715,
    "con": 3716,
    "Xiaog": 3717,
    "Xiaogang": 3718,
    "ommer": 3719,
    "Grady": 3720,
    "osey": 3721,
    "eggy": 3722,
    "sey": 3723,
    "cardo": 3724,
    "onora": 3725,
    "uban": 3726,
    "dison": 3727,
    "utc": 3728,
    "utcliff": 3729,
    "utcliffe": 3730,
    "bojy": 3731,
    "bojyot": 3732,
    "bojyoti": 3733,
    "avi": 3734,
    "atter": 3735,
    "atterjee": 3736,
    "endall": 3737,
    "üw": 3738,
    "üwe": 3739,
    "Érik": 3740,
    "ánde": 3741,
    "ández": 3742,
    "guilar": 3743,
    "estre": 3744,
    "gom": 3745,
    "gomery": 3746,
    "pperd": 3747,
    "rud": 3748,
    "rudw": 3749,
    "rudwick": 3750,
    "Austr": 3751,
    "Austria": 3752,
    "arli": 3753,
    "arlie": 3754,
    "rel": 3755,
    "thel": 3756,
    "elson": 3757,
    "owho": 3758,
    "Romanian": 3759,
    "come": 3760,
    "ightly": 3761,
    "ottoms": 3762,
    "ches": 3763,
    "Zulf": 3764,
    "Zulfi": 3765,
    "amina": 3766,
    "ikh": 3767,
    "oqiang": 3768,
    "sabel": 3769,
    "sabelle": 3770,
    "uppert": 3771,
    "eym": 3772,
    "eymour": 3773,
    "anya": 3774,
    "Byr": 3775,
    "ünd": 3776,
    "ündler": 3777,
    "Cale": 3778,
    "evilla": 3779,
    "endy": 3780,
    "ange": 3781,
    "oad": 3782,
    "Red": 3783,
    "ibbee": 3784,
    "strong": 3785,
    "Ou": 3786,
    "estial": 3787,
    "rando": 3788,
    "aton": 3789,
    "astone": 3790,
    "Geraldine": 3791,
    "rady": 3792,
    "arwin": 3793,
    "radine": 3794,
    "gna": 3795,
    "rier": 3796,
    "ebastian": 3797,
    "Derm": 3798,
    "Dermott": 3799,
    "umming": 3800,
    "ummings": 3801,
    "insle": 3802,
    "inslee": 3803,
    "oerl": 3804,
    "burn": 3805,
    "Armenian": 3806,
    "thosh": 3807,
    "athegi": 3808,
    "fyan": 3809,
    "tley": 3810,
    "emp": 3811,
    "emple": 3812,
    "regu": 3813,
    "regui": 3814,
    "alie": 3815,
    "hor": 3816,
    "EE": 3817,
    "cox": 3818,
    "uster": 3819,
    "bbe": 3820,
    "hes": 3821,
    "quez": 3822,
    "alov": 3823,
    "Roche": 3824,
    "Rochester": 3825,
    "mons": 3826,
    "eis": 3827,
    "eisuke": 3828,
    "oshida": 3829,
    "Filipino": 3830,
    "usan": 3831,
    "ites": 3832,
    "itesell": 3833,
    "loom": 3834,
    "laude": 3835,
    "cka": 3836,
    "anor": 3837,
    "llen": 3838,
    "mund": 3839,
    "olff": 3840,
    "istilli": 3841,
    "het": 3842,
    "orf": 3843,
    "eroy": 3844,
    "Williams": 3845,
    "Robbins": 3846,
    "urm": 3847,
    "Binoche": 3848,
    "énich": 3849,
    "énichou": 3850,
    "erj": 3851,
    "erji": 3852,
    "opsa": 3853,
    "Fer": 3854,
    "Ferg": 3855,
    "Fergus": 3856,
    "Ferguson": 3857,
    "errign": 3858,
    "errigno": 3859,
    "addario": 3860,
    "Martínez": 3861,
    "acombe": 3862,
    "Ricky": 3863,
    "idnight": 3864,
    "yam": 3865,
    "illian": 3866,
    "Dutch": 3867,
    "alo": 3868,
    "illip": 3869,
    "haar": 3870,
    "estley": 3871,
    "erk": 3872,
    "erkhe": 3873,
    "erkheiser": 3874,
    "ande": 3875,
    "edro": 3876,
    "aga": 3877,
    "Robby": 3878,
    "agu": 3879,
    "aguib": 3880,
    "hf": 3881,
    "hfou": 3882,
    "hfouz": 3883,
    "alb": 3884,
    "albot": 3885,
    "berta": 3886,
    " 1947": 3887,
    " Farr": 3888,
    " Fitzgerald": 3889,
    " Ger": 3890,
    " Ser": 3891,
    " Serbian": 3892,
    " Ne": 3893,
    " Its": 3894,
    " language": 3895,
    "ries": 3896,
    " 71": 3897,
    " nomine": 3898,
    " nominee": 3899,
    " Brazilian": 3900,
    " bi": 3901,
    " worker": 3902,
    " João": 3903,
    " Camar": 3904,
    " Camargo": 3905,
    " book": 3906,
    " Carlos": 3907,
    " qu": 3908,
    " loc": 3909,
    " Argent": 3910,
    " Argentine": 3911,
    " Starring": 3912,
    "elod": 3913,
    " Mario": 3914,
    " Ken": 3915,
    " Chase": 3916,
    " Mur": 3917,
    " directorial": 3918,
    " bo": 3919,
    " sim": 3920,
    " similar": 3921,
    " comedi": 3922,
    " cult": 3923,
    " describ": 3924,
    " described": 3925,
    " II": 3926,
    "ough": 3927,
    " repris": 3928,
    " poor": 3929,
    " poorly": 3930,
    " Pal": 3931,
    " lim": 3932,
    " limited": 3933,
    " tri": 3934,
    " trip": 3935,
    " Scott": 3936,
    " called": 3937,
    " Great": 3938,
    " Stewart": 3939,
    " Alex": 3940,
    "tag": 3941,
    " Jonathan": 3942,
    "ship": 3943,
    " profess": 3944,
    " via": 3945,
    " serv": 3946,
    " Der": 3947,
    "gian": 3948,
    " Sep": 3949,
    " Septe": 3950,
    " September": 3951,
    " independent": 3952,
    " international": 3953,
    " Summer": 3954,
    " Massacre": 3955,
    " Estevez": 3956,
    " Comedy": 3957,
    " 1940": 3958,
    " did": 3959,
    " lit": 3960,
    " For": 3961,
    " Ko": 3962,
    " mark": 3963,
    " appearance": 3964,
    " Viv": 3965,
    " Lib": 3966,
    " Libr": 3967,
    " Library": 3968,
    " Cong": 3969,
    " Congress": 3970,
    " Malayalam": 3971,
    " ens": 3972,
    " Muk": 3973,
    "ince": 3974,
    " 1970": 3975,
    " new": 3976,
    " cinema": 3977,
    " class": 3978,
    " vi": 3979,
    " viol": 3980,
    " Gray": 3981,
    " own": 3982,
    " Japanese": 3983,
    " ref": 3984,
    " Story": 3985,
    " festival": 3986,
    " cent": 3987,
    "ecial": 3988,
    " Patrick": 3989,
    " Jennifer": 3990,
    " Pres": 3991,
    " mix": 3992,
    "office": 3993,
    " grossing": 3994,
    " However": 3995,
    " another": 3996,
    " 2017": 3997,
    " last": 3998,
    " death": 3999,
    " July": 4000,
    " Dom": 4001,
    "uguese": 4002,
    " Produc": 4003,
    "iddle": 4004,
    " cal": 4005,
    " mon": 4006,
    " money": 4007,
    "utes": 4008,
    " head": 4009,
    " Linda": 4010,
    " Philip": 4011,
    " playing": 4012,
    " Calendar": 4013,
    " Kong": 4014,
    " generally": 4015,
    "merc": 4016,
    " eventually": 4017,
    " add": 4018,
    " addition": 4019,
    " Wolf": 4020,
    " Rilla": 4021,
    " La": 4022,
    " Nor": 4023,
    " 6": 4024,
    " MG": 4025,
    " MGM": 4026,
    " att": 4027,
    " te": 4028,
    " team": 4029,
    " fo": 4030,
    "zokw": 4031,
    "zokwor": 4032,
    "ecut": 4033,
    "ecutive": 4034,
    " Steve": 4035,
    " Productions": 4036,
    " 25": 4037,
    " 2022": 4038,
    " Bodil": 4039,
    " Jr": 4040,
    " Actor": 4041,
    " lives": 4042,
    " common": 4043,
    "ittle": 4044,
    " 1914": 4045,
    " Charlotte": 4046,
    " Flesh": 4047,
    " science": 4048,
    " Say": 4049,
    "onym": 4050,
    "credited": 4051,
    " Key": 4052,
    " Two": 4053,
    " sequels": 4054,
    " pop": 4055,
    " popul": 4056,
    " Soviet": 4057,
    " ind": 4058,
    "orted": 4059,
    " Bhandarkar": 4060,
    " main": 4061,
    "cc": 4062,
    " sub": 4063,
    " Columbia": 4064,
    " South": 4065,
    " Je": 4066,
    "temp": 4067,
    "lation": 4068,
    " love": 4069,
    " works": 4070,
    "ature": 4071,
    " von": 4072,
    "ically": 4073,
    " acc": 4074,
    "imed": 4075,
    "open": 4076,
    " Thomas": 4077,
    " noir": 4078,
    " Russell": 4079,
    "ads": 4080,
    "imes": 4081,
    " Spanish": 4082,
    "lower": 4083,
    " Ing": 4084,
    " end": 4085,
    " turn": 4086,
    " Cann": 4087,
    " anim": 4088,
    " animated": 4089,
    " loos": 4090,
    " loosely": 4091,
    " 10": 4092,
    " fourth": 4093,
    " Wall": 4094,
    " 18": 4095,
    "reated": 4096,
    " Directed": 4097,
    "wrote": 4098,
    " Torokvei": 4099,
    " Mason": 4100,
    "ances": 4101,
    " writ": 4102,
    " writing": 4103,
    " writer": 4104,
    " time": 4105,
    "obo": 4106,
    " used": 4107,
    " 100": 4108,
    " Harvey": 4109,
    " Lisa": 4110,
    " Cass": 4111,
    " Fre": 4112,
    " Ass": 4113,
    " starr": 4114,
    " starred": 4115,
    " Duff": 4116,
    " focus": 4117,
    " pur": 4118,
    " Gen": 4119,
    " rev": 4120,
    " 1941": 4121,
    " Carole": 4122,
    " 20": 4123,
    " Century": 4124,
    " Cine": 4125,
    " sets": 4126,
    " took": 4127,
    " use": 4128,
    "tra": 4129,
    "track": 4130,
    " sound": 4131,
    " broadc": 4132,
    " broadcast": 4133,
    " Red": 4134,
    " Ric": 4135,
    " colla": 4136,
    " collabor": 4137,
    " originally": 4138,
    " Tony": 4139,
    " Reg": 4140,
    " leading": 4141,
    "Caine": 4142,
    " Art": 4143,
    " First": 4144,
    "sue": 4145,
    "phan": 4146,
    " show": 4147,
    " differ": 4148,
    " different": 4149,
    "ided": 4150,
    " character": 4151,
    " Christopher": 4152,
    " Arcade": 4153,
    " Los": 4154,
    " Angel": 4155,
    " inspired": 4156,
    " across": 4157,
    " while": 4158,
    " cust": 4159,
    " custom": 4160,
    " put": 4161,
    " soc": 4162,
    " social": 4163,
    " fl": 4164,
    " vir": 4165,
    "ished": 4166,
    " school": 4167,
    " around": 4168,
    "ades": 4169,
    " Marc": 4170,
    " 1990": 4171,
    " inm": 4172,
    " Germany": 4173,
    " 2001": 4174,
    " Gra": 4175,
    " Chinese": 4176,
    " Gab": 4177,
    " Gabriel": 4178,
    " Pascal": 4179,
    " disc": 4180,
    " imp": 4181,
    " ca": 4182,
    "rut": 4183,
    " perio": 4184,
    " period": 4185,
    "ately": 4186,
    " 2006": 4187,
    "formation": 4188,
    " Fred": 4189,
    " 1938": 4190,
    " Monroe": 4191,
    " Buck": 4192,
    "ized": 4193,
    " kill": 4194,
    " years": 4195,
    " beg": 4196,
    " Holiday": 4197,
    " Movie": 4198,
    " 14": 4199,
    "vers": 4200,
    " surviv": 4201,
    " survivors": 4202,
    " en": 4203,
    " hel": 4204,
    " jour": 4205,
    " Juan": 4206,
    " Fj": 4207,
    " Fjell": 4208,
    " Fjellman": 4209,
    " Kir": 4210,
    " Matthew": 4211,
    "ica": 4212,
    "ings": 4213,
    " directors": 4214,
    " Pr": 4215,
    " Orig": 4216,
    " led": 4217,
    " del": 4218,
    " González": 4219,
    " they": 4220,
    " editing": 4221,
    "ape": 4222,
    " scen": 4223,
    " scenes": 4224,
    " those": 4225,
    " includes": 4226,
    " oc": 4227,
    " occ": 4228,
    " Institute": 4229,
    " Ryan": 4230,
    " Mary": 4231,
    " Cra": 4232,
    " Sen": 4233,
    " Calcutta": 4234,
    " collection": 4235,
    "uption": 4236,
    " Set": 4237,
    " Dep": 4238,
    " portray": 4239,
    " inf": 4240,
    " Without": 4241,
    " television": 4242,
    "eating": 4243,
    " Disney": 4244,
    " view": 4245,
    " Cleopatra": 4246,
    "ech": 4247,
    " cred": 4248,
    " credit": 4249,
    " Stain": 4250,
    " Staink": 4251,
    " Stainken": 4252,
    "ially": 4253,
    " Con": 4254,
    " Roy": 4255,
    " Bo": 4256,
    " Board": 4257,
    " Georges": 4258,
    " tap": 4259,
    " tapes": 4260,
    " sent": 4261,
    " guil": 4262,
    " guilt": 4263,
    " left": 4264,
    "ied": 4265,
    " Resnick": 4266,
    "ife": 4267,
    " Russian": 4268,
    " Sw": 4269,
    "ced": 4270,
    " inst": 4271,
    " install": 4272,
    " installment": 4273,
    " featu": 4274,
    " featured": 4275,
    " 1966": 4276,
    " Leon": 4277,
    " respect": 4278,
    " respectively": 4279,
    " Ellis": 4280,
    " Central": 4281,
    "ptation": 4282,
    " 1939": 4283,
    " Gri": 4284,
    " Griffith": 4285,
    " ep": 4286,
    "thage": 4287,
    "cted": 4288,
    " er": 4289,
    " long": 4290,
    " mak": 4291,
    "leng": 4292,
    "length": 4293,
    "life": 4294,
    "tically": 4295,
    " than": 4296,
    " over": 4297,
    " Vincent": 4298,
    " Waters": 4299,
    " Luc": 4300,
    "ior": 4301,
    " min": 4302,
    "rican": 4303,
    " victim": 4304,
    " Pakist": 4305,
    " Pakistani": 4306,
    " Abbas": 4307,
    " conne": 4308,
    " cab": 4309,
    " Raymond": 4310,
    " record": 4311,
    " Chess": 4312,
    " honor": 4313,
    " honored": 4314,
    "got": 4315,
    "gotten": 4316,
    "helps": 4317,
    " Rogers": 4318,
    " educ": 4319,
    "lavery": 4320,
    "Ral": 4321,
    "Ralph": 4322,
    "Burn": 4323,
    "Burns": 4324,
    "Schm": 4325,
    "Schmid": 4326,
    "Schmidt": 4327,
    "Gent": 4328,
    "Gentner": 4329,
    "38392": 4330,
    "Renna": 4331,
    "Rennahan": 4332,
    "Eda": 4333,
    "Stanwyck": 4334,
    "Milland": 4335,
    "Butler": 4336,
    "6914": 4337,
    "69145": 4338,
    "Spas": 4339,
    "Spasić": 4340,
    "Studio": 4341,
    "StudioCan": 4342,
    "StudioCanal": 4343,
    "Zoran": 4344,
    "Simjan": 4345,
    "Simjanović": 4346,
    "Cler": 4347,
    "Clermont": 4348,
    "Ton": 4349,
    "Tonner": 4350,
    "Tonnerre": 4351,
    "Bata": 4352,
    "Živ": 4353,
    "Živo": 4354,
    "Živojin": 4355,
    "Živojinović": 4356,
    "Bog": 4357,
    "Bogd": 4358,
    "Bogdan": 4359,
    "Dik": 4360,
    "Dikli": 4361,
    "Diklić": 4362,
    "Mirj": 4363,
    "Mirjana": 4364,
    "Karan": 4365,
    "Karanović": 4366,
    "Dragan": 4367,
    "Nikolić": 4368,
    "Miki": 4369,
    "Mano": 4370,
    "Manojlović": 4371,
    "Nebojša": 4372,
    "Glogovac": 4373,
    "Serge": 4374,
    "Sergej": 4375,
    "Trif": 4376,
    "Trifun": 4377,
    "Trifunović": 4378,
    "Embra": 4379,
    "Embrafilm": 4380,
    "Embrafilme": 4381,
    "Dvorak": 4382,
    "Segundo": 4383,
    "Chomon": 4384,
    "Evgeny": 4385,
    "Shvarts": 4386,
    "Abujam": 4387,
    "Abujamra": 4388,
    "Leona": 4389,
    "Cavalli": 4390,
    "Lázaro": 4391,
    "Leandro": 4392,
    "Firm": 4393,
    "Firmino": 4394,
    "Hora": 4395,
    "Nisha": 4396,
    "Ganatra": 4397,
    "Gravit": 4398,
    "Gravitas": 4399,
    "Ventures": 4400,
    "Gould": 4401,
    "Fier": 4402,
    "Frontini": 4403,
    "Cú": 4404,
    "Cúne": 4405,
    "Cúneo": 4406,
    "Maleto": 4407,
    "Cés": 4408,
    "César": 4409,
    "Angi": 4410,
    "Angiol": 4411,
    "Angiolillo": 4412,
    "Nu": 4413,
    "Nuñez": 4414,
    "Marcelo": 4415,
    "Altmark": 4416,
    "393": 4417,
    "39373": 4418,
    "Stall": 4419,
    "Stallich": 4420,
    "Agnel": 4421,
    "Mattoli": 4422,
    "Raoul": 4423,
    "Rong": 4424,
    "Rongier": 4425,
    "Trop": 4426,
    "Trope": 4427,
    "Tropea": 4428,
    "Renzo": 4429,
    "Rossell": 4430,
    "Rossellini": 4431,
    "Hugon": 4432,
    "Xav": 4433,
    "Xavier": 4434,
    "Monté": 4435,
    "Montépin": 4436,
    "Stevan": 4437,
    "Larner": 4438,
    "Johnny": 4439,
    "Mand": 4440,
    "Mandel": 4441,
    "Dangerfield": 4442,
    "Knight": 4443,
    "Luciano": 4444,
    "Martino": 4445,
    "Lowden": 4446,
    "Curran": 4447,
    "McCann": 4448,
    "Glynnis": 4449,
    "Ut": 4450,
    "Utp": 4451,
    "Utpal": 4452,
    "Anthony": 4453,
    "Casta": 4454,
    "Castañ": 4455,
    "Castañón": 4456,
    "Glen": 4457,
    "MacPh": 4458,
    "MacPherson": 4459,
    "Faith": 4460,
    "Domergue": 4461,
    "Giménez": 4462,
    "Cacho": 4463,
    "Demian": 4464,
    "1983": 4465,
    "Riton": 4466,
    "Lieb": 4467,
    "Liebman": 4468,
    "Walter": 4469,
    "Matthau": 4470,
    "7687": 4471,
    "76875": 4472,
    "Eduard": 4473,
    "Roz": 4474,
    "Rozovsky": 4475,
    "Soviet": 4476,
    "Nad": 4477,
    "Nadez": 4478,
    "Nadezh": 4479,
    "Nadezhda": 4480,
    "Kos": 4481,
    "Koshe": 4482,
    "Koshever": 4483,
    "Kosheverov": 4484,
    "Kosheverova": 4485,
    "Mikha": 4486,
    "Mikhail": 4487,
    "Shap": 4488,
    "Shapiro": 4489,
    "Spadav": 4490,
    "Spadavec": 4491,
    "Spadaveccia": 4492,
    "Lenfilm": 4493,
    "Era": 4494,
    "Erast": 4495,
    "Garin": 4496,
    "Yuri": 4497,
    "Lyub": 4498,
    "Lyubim": 4499,
    "Lyubimov": 4500,
    "Demyan": 4501,
    "Demyanenk": 4502,
    "Demyanenko": 4503,
    "Nikolai": 4504,
    "Erd": 4505,
    "Erdman": 4506,
    "Furneaux": 4507,
    "200510": 4508,
    "Mer": 4509,
    "Meray": 4510,
    "Merayo": 4511,
    "Alton": 4512,
    "Son": 4513,
    "Sono": 4514,
    "Diern": 4515,
    "Diernham": 4516,
    "Diernhammer": 4517,
    "Ment": 4518,
    "Mentast": 4519,
    "Mentasti": 4520,
    "Enrique": 4521,
    "Muiño": 4522,
    "Sald": 4523,
    "Saldías": 4524,
    "PBS": 4525,
    "Barnes": 4526,
    "Bacon": 4527,
    "Holmes": 4528,
    "Bernhard": 4529,
    "Kaun": 4530,
    "Dubin": 4531,
    "Hein": 4532,
    "Heinz": 4533,
    "Roem": 4534,
    "Roemhe": 4535,
    "Roemheld": 4536,
    "Wallis": 4537,
    "Paige": 4538,
    "Gable": 4539,
    "Jenk": 4540,
    "Jenkins": 4541,
    "Marion": 4542,
    "Davies": 4543,
    "Laird": 4544,
    "Wit": 4545,
    "Witwer": 4546,
    "Zarma": 4547,
    "Heymann": 4548,
    "Rogers": 4549,
    "Lasz": 4550,
    "Laszlo": 4551,
    "505": 4552,
    "5059": 4553,
    "50599": 4554,
    "505992": 4555,
    "Mox": 4556,
    "Moxley": 4557,
    "Chuck": 4558,
    "Liddell": 4559,
    "Elij": 4560,
    "Elijah": 4561,
    "Gina": 4562,
    "Gershon": 4563,
    "Luke": 4564,
    "Rockhold": 4565,
    "Kyne": 4566,
    "Pakist": 4567,
    "Pakistan": 4568,
    "Lady": 4569,
    "Linn": 4570,
    "Dirk": 4571,
    "Impens": 4572,
    "Monic": 4573,
    "Hendrick": 4574,
    "Hendrickx": 4575,
    "Wim": 4576,
    "Op": 4577,
    "Opb": 4578,
    "Opbro": 4579,
    "Opbrouck": 4580,
    "Chlo": 4581,
    "Chloë": 4582,
    "Dax": 4583,
    "Daxhel": 4584,
    "Daxhelet": 4585,
    "Desmond": 4586,
    "Dickin": 4587,
    "Dickinson": 4588,
    "Rachel": 4589,
    "Morrison": 4590,
    "Kennet": 4591,
    "Kenneth": 4592,
    "Curtiz": 4593,
    "Tann": 4594,
    "Tannura": 4595,
    "+_": 4596,
    "Hotstar": 4597,
    "Tamil": 4598,
    "Abhilash": 4599,
    "Pillai": 4600,
    "Geoff": 4601,
    "Geoffrey": 4602,
    "Uns": 4603,
    "Unsworth": 4604,
    "Kath": 4605,
    "Kathle": 4606,
    "Kathleen": 4607,
    "Wilho": 4608,
    "Wilhoite": 4609,
    "Aritra": 4610,
    "Das": 4611,
    "Gran": 4612,
    "Grant": 4613,
    "Fant": 4614,
    "Fantl": 4615,
    "Crehan": 4616,
    "Bartholomew": 4617,
    "Minna": 4618,
    "Gombell": 4619,
    "Lydon": 4620,
    "Hatton": 4621,
    "Ode": 4622,
    "Odeon": 4623,
    "Ebb": 4624,
    "Niniek": 4625,
    "Karim": 4626,
    "Strand": 4627,
    "Mynette": 4628,
    "Louie": 4629,
    "Carlyle": 4630,
    "Martinez": 4631,
    "Danny": 4632,
    "Mast": 4633,
    "Masterson": 4634,
    "Barres": 4635,
    "Corman": 4636,
    "Manisha": 4637,
    "Koirala": 4638,
    "Jerome": 4639,
    "Thoms": 4640,
    "Cassidy": 4641,
    "Gif": 4642,
    "Gifford": 4643,
    "Oliveira": 4644,
    "Ramon": 4645,
    "Salk": 4646,
    "Salkow": 4647,
    "Preston": 4648,
    "Foster": 4649,
    "Higgin": 4650,
    "Shumate": 4651,
    "Garnett": 4652,
    "Hildy": 4653,
    "Hildyard": 4654,
    "Ivo": 4655,
    "Garr": 4656,
    "Garrani": 4657,
    "Manik": 4658,
    "Shout": 4659,
    "!_": 4660,
    "Factor": 4661,
    "Factory": 4662,
    "Rauh": 4663,
    "Rider": 4664,
    "Strong": 4665,
    "Giuseppe": 4666,
    "Cerina": 4667,
    "Jordan": 4668,
    "Verv": 4669,
    "Verveen": 4670,
    "Joey": 4671,
    "Kern": 4672,
    "Pauline": 4673,
    "Megan": 4674,
    "Lai": 4675,
    "Marcus": 4676,
    "Chang": 4677,
    "Luo": 4678,
    "8469": 4679,
    "Edgar": 4680,
    "Chiao": 4681,
    "Peters": 4682,
    "Laugh": 4683,
    "Laughton": 4684,
    "Allu": 4685,
    "Aravind": 4686,
    "Chytilová": 4687,
    "Mahe": 4688,
    "Mahesh": 4689,
    "Afz": 4690,
    "Afzal": 4691,
    "Yus": 4692,
    "Yusuf": 4693,
    "Prithviraj": 4694,
    "Sukumaran": 4695,
    "Mukesh": 4696,
    "Zarina": 4697,
    "Wahab": 4698,
    "Navya": 4699,
    "Babu": 4700,
    "Janard": 4701,
    "Janardhan": 4702,
    "Janardhanan": 4703,
    "York": 4704,
    "Heather": 4705,
    "Yor": 4706,
    "Yorick": 4707,
    "Saux": 4708,
    "Youssef": 4709,
    "Chahine": 4710,
    "Echevarría": 4711,
    "Newcom": 4712,
    "Weigel": 4713,
    "513": 4714,
    "51390": 4715,
    "Egy": 4716,
    "Egyptian": 4717,
    "Farid": 4718,
    "Shawq": 4719,
    "Shawqi": 4720,
    "Hind": 4721,
    "Rost": 4722,
    "Rostom": 4723,
    "Gad": 4724,
    "Gadon": 4725,
    "Gravro": 4726,
    "Gravrock": 4727,
    "Adriana": 4728,
    "Barraza": 4729,
    "Ashw": 4730,
    "Ashwini": 4731,
    "Paolo": 4732,
    "Perp": 4733,
    "Perpign": 4734,
    "Perpignani": 4735,
    "Graz": 4736,
    "Grazia": 4737,
    "Volp": 4738,
    "Volpi": 4739,
    "Az": 4740,
    "Aziz": 4741,
    "Nas": 4742,
    "Naser": 4743,
    "Fisch": 4744,
    "Fischb": 4745,
    "Fischbec": 4746,
    "Fischbeck": 4747,
    "Vignola": 4748,
    "Gilda": 4749,
    "Becky": 4750,
    "Gardin": 4751,
    "Gardiner": 4752,
    "Davis": 4753,
    "Ping": 4754,
    "Shoch": 4755,
    "Shochiku": 4756,
    "Liao": 4757,
    "Ching": 4758,
    "Song": 4759,
    "Yō": 4760,
    "Yōsu": 4761,
    "Yōsui": 4762,
    "Inou": 4763,
    "Inoue": 4764,
    "Chu": 4765,
    "Patricia": 4766,
    "Clarkson": 4767,
    "2867": 4768,
    "28677": 4769,
    "Neum": 4770,
    "Neumann": 4771,
    "Lubin": 4772,
    "Erma": 4773,
    "Hors": 4774,
    "Horsley": 4775,
    "Trem": 4776,
    "Wayne": 4777,
    "PJ": 4778,
    "Torokvei": 4779,
    "7461": 4780,
    "Covel": 4781,
    "Wy": 4782,
    "Wyatt": 4783,
    "Madel": 4784,
    "Madeline": 4785,
    "Alexa": 4786,
    "Vega": 4787,
    "Kennedy": 4788,
    "Hewitt": 4789,
    "Michaela": 4790,
    "McMan": 4791,
    "McManus": 4792,
    "Noah": 4793,
    "Beery": 4794,
    "Karlin": 4795,
    "Barnz": 4796,
    "Kristina": 4797,
    "Bod": 4798,
    "Boden": 4799,
    "Christop": 4800,
    "Christophe": 4801,
    "Beck": 4802,
    "Court": 4803,
    "Courtney": 4804,
    "Solom": 4805,
    "Solomon": 4806,
    "Kristin": 4807,
    "Hah": 4808,
    "Hahn": 4809,
    "Worthington": 4810,
    "Anna": 4811,
    "Kendrick": 4812,
    "Macy": 4813,
    "Felicity": 4814,
    "Huffman": 4815,
    "Lydia": 4816,
    "Hearst": 4817,
    "You": 4818,
    "Jules": 4819,
    "Berry": 4820,
    "Elmer": 4821,
    "Clifton": 4822,
    "Pl": 4823,
    "Plh": 4824,
    "Plhak": 4825,
    "94": 4826,
    "9408": 4827,
    "Masi": 4828,
    "Kinn": 4829,
    "Kinnoch": 4830,
    "6918": 4831,
    "69187": 4832,
    "6918790": 4833,
    "Bucc": 4834,
    "Bucci": 4835,
    "Bucciross": 4836,
    "Buccirosso": 4837,
    "Vinc": 4838,
    "Vincenzo": 4839,
    "Salemme": 4840,
    "Tort": 4841,
    "Tortora": 4842,
    "Serena": 4843,
    "LaSal": 4844,
    "LaSalle": 4845,
    "Jock": 4846,
    "Mahoney": 4847,
    "Daniels": 4848,
    "Kress": 4849,
    "Hancock": 4850,
    "Langworth": 4851,
    "Langworthy": 4852,
    "Ru": 4853,
    "Ruhi": 4854,
    "Singh": 4855,
    "Bran": 4856,
    "Branco": 4857,
    "Ricardo": 4858,
    "Perei": 4859,
    "Pereira": 4860,
    "Nero": 4861,
    "Nuno": 4862,
    "Lop": 4863,
    "Lopes": 4864,
    "Gér": 4865,
    "Gérard": 4866,
    "Depar": 4867,
    "Depardie": 4868,
    "Depardieu": 4869,
    "Asia": 4870,
    "Argento": 4871,
    "95": 4872,
    "958": 4873,
    "95821": 4874,
    "Kander": 4875,
    "Diego": 4876,
    "Sosa": 4877,
    "Gerardo": 4878,
    "Vill": 4879,
    "Villarr": 4880,
    "Villarreal": 4881,
    "Núñez": 4882,
    "Guillermo": 4883,
    "Sheridan": 4884,
    "Schoenfeld": 4885,
    "Maver": 4886,
    "Maverick": 4887,
    "Group": 4888,
    "Old": 4889,
    "Oldham": 4890,
    "Schwart": 4891,
    "Schwartz": 4892,
    "Bridget": 4893,
    "Powers": 4894,
    "Flavor": 4895,
    "Nigel": 4896,
    "Penelope": 4897,
    "Wilton": 4898,
    "Annette": 4899,
    "Crosbie": 4900,
    "Bassett": 4901,
    "Celia": 4902,
    "Imrie": 4903,
    "Harriet": 4904,
    "Thorpe": 4905,
    "Firth": 4906,
    "Weatherly": 4907,
    "Kikka": 4908,
    "Hanaz": 4909,
    "Hanazaw": 4910,
    "Hanazawa": 4911,
    "Hiro": 4912,
    "Hiroyuk": 4913,
    "Hiroyuki": 4914,
    "Miy": 4915,
    "Miyas": 4916,
    "Miyasak": 4917,
    "Miyasako": 4918,
    "Rilla": 4919,
    "Bach": 4920,
    "Bachmann": 4921,
    "Sanders": 4922,
    "Pohlmann": 4923,
    "Faten": 4924,
    "Hamama": 4925,
    "Meillon": 4926,
    "LaCour": 4927,
    "MacBur": 4928,
    "MacBurnie": 4929,
    "Adele": 4930,
    "Mara": 4931,
    "Estelita": 4932,
    "Forrest": 4933,
    "Tucker": 4934,
    "Ladislas": 4935,
    "Fodor": 4936,
    "South": 4937,
    "Korea": 4938,
    "Moon": 4939,
    "Jeong": 4940,
    "Shin": 4941,
    "Sven": 4942,
    "Gy": 4943,
    "Gyld": 4944,
    "Gyldmark": 4945,
    "Spain": 4946,
    "Imperio": 4947,
    "Brion": 4948,
    "Fritz": 4949,
    "Wepp": 4950,
    "Wepper": 4951,
    "Farring": 4952,
    "Farrington": 4953,
    "Morra": 4954,
    "Jeannie": 4955,
    "Berlin": 4956,
    "Hélène": 4957,
    "Florent": 4958,
    "Loos": 4959,
    "Cumb": 4960,
    "Cumbuka": 4961,
    "Kenny": 4962,
    "performer": 4963,
    "Kaare": 4964,
    "Chery": 4965,
    "Cheryl": 4966,
    "Hines": 4967,
    "Lynch": 4968,
    "444": 4969,
    "44466": 4970,
    "François": 4971,
    "Bergeron": 4972,
    "Amendola": 4973,
    "Nardi": 4974,
    "Orion": 4975,
    "Ét": 4976,
    "Étien": 4977,
    "Étienne": 4978,
    "Becker": 4979,
    "Corey": 4980,
    "Rein": 4981,
    "Reinier": 4982,
    "Linden": 4983,
    "Randaz": 4984,
    "Randazzo": 4985,
    "Linnea": 4986,
    "Quigley": 4987,
    "Kaufman": 4988,
    "Chomicki": 4989,
    "Huntington": 4990,
    "Mrinal": 4991,
    "Lazar": 4992,
    "Lazarus": 4993,
    "Chal": 4994,
    "Chalke": 4995,
    "Phy": 4996,
    "Phyllis": 4997,
    "Aime": 4998,
    "Aimee": 4999,
    "Garcia": 5000,
    "Bryanston": 5001,
    "UK": 5002,
    "Lucas": 5003,
    "Dily": 5004,
    "Dilys": 5005,
    "Wat": 5006,
    "Watling": 5007,
    "Edwin": 5008,
    "Richfield": 5009,
    "Maai": 5010,
    "Maaike": 5011,
    "Jans": 5012,
    "Jansen": 5013,
    "Noray": 5014,
    "Norayr": 5015,
    "Kasper": 5016,
    "345": 5017,
    "34565": 5018,
    "17": 5019,
    "Stothart": 5020,
    "Mank": 5021,
    "Mankiew": 5022,
    "Mankiewic": 5023,
    "Mankiewicz": 5024,
    "Jeanette": 5025,
    "Brass": 5026,
    "Brassard": 5027,
    "05": 5028,
    "Kasting": 5029,
    "Patrícia": 5030,
    "Pillar": 5031,
    "Regiane": 5032,
    "Alves": 5033,
    "Regin": 5034,
    "Reginald": 5035,
    "Reginaldo": 5036,
    "Faria": 5037,
    "Giácomo": 5038,
    "Holtz": 5039,
    "Mauro": 5040,
    "Mendonça": 5041,
    "Malvino": 5042,
    "Danton": 5043,
    "Mello": 5044,
    "Eriberto": 5045,
    "Leão": 5046,
    "Oth": 5047,
    "Othon": 5048,
    "Bast": 5049,
    "Bastos": 5050,
    "Otá": 5051,
    "Otávio": 5052,
    "Juss": 5053,
    "Jussara": 5054,
    "Freire": 5055,
    "Cecilia": 5056,
    "Carole": 5057,
    "Landis": 5058,
    "TL": 5059,
    "TLA": 5060,
    "Vé": 5061,
    "Véra": 5062,
    "Kor": 5063,
    "Korène": 5064,
    "Simp": 5065,
    "Simpson": 5066,
    "Jorge": 5067,
    "Are": 5068,
    "Areche": 5069,
    "Arecheta": 5070,
    "Bodil": 5071,
    "Ipsen": 5072,
    "Lauritzen": 5073,
    "Ejl": 5074,
    "Ejlers": 5075,
    "Ejlersen": 5076,
    "Denmark": 5077,
    "Poul": 5078,
    "Reichhardt": 5079,
    "Ib": 5080,
    "Schønberg": 5081,
    "Rainbeaux": 5082,
    "Lucien": 5083,
    "Andri": 5084,
    "Andriot": 5085,
    "Twent": 5086,
    "Twentiet": 5087,
    "Twentieth": 5088,
    "Cyril": 5089,
    "Mock": 5090,
    "Mockrid": 5091,
    "Mockridge": 5092,
    "Darry": 5093,
    "Darryl": 5094,
    "Zan": 5095,
    "Zanuck": 5096,
    "Nunn": 5097,
    "Nunnally": 5098,
    "Tyrone": 5099,
    "Power": 5100,
    "Adolphe": 5101,
    "Menjou": 5102,
    "Deval": 5103,
    "Amran": 5104,
    "Amrani": 5105,
    "Loew": 5106,
    "Loews": 5107,
    "Eisenberg": 5108,
    "Ricketts": 5109,
    "Avani": 5110,
    "Modi": 5111,
    "Lowery": 5112,
    "Dag": 5113,
    "Dagmar": 5114,
    "Bl": 5115,
    "Blá": 5116,
    "Bláh": 5117,
    "Bláhová": 5118,
    "Springsteen": 5119,
    "VC": 5120,
    "VCA": 5121,
    "Froom": 5122,
    "Stah": 5123,
    "Stahl": 5124,
    "Guth": 5125,
    "Guthrie": 5126,
    "Ig": 5127,
    "Igor": 5128,
    "Skre": 5129,
    "Skreb": 5130,
    "Skreblin": 5131,
    "Freed": 5132,
    "Hurst": 5133,
    "Giulia": 5134,
    "Miche": 5135,
    "Michelin": 5136,
    "Michelini": 5137,
    "Anjan": 5138,
    "Sriv": 5139,
    "Srivast": 5140,
    "Srivastav": 5141,
    "Denny": 5142,
    "66879": 5143,
    "McCoy": 5144,
    "Taye": 5145,
    "Diggs": 5146,
    "Grim": 5147,
    "Grimaldi": 5148,
    "Deb": 5149,
    "Debraj": 5150,
    "Sanam": 5151,
    "Saeed": 5152,
    "Salaz": 5153,
    "Salazar": 5154,
    "Vä": 5155,
    "Vään": 5156,
    "Väänän": 5157,
    "Väänänen": 5158,
    "Amaal": 5159,
    "Mallik": 5160,
    "Meet": 5161,
    "Anjjan": 5162,
    "Satar": 5163,
    "Satarup": 5164,
    "Satarupa": 5165,
    "Pyne": 5166,
    "Akanksha": 5167,
    "Puri": 5168,
    "Kyra": 5169,
    "Vincente": 5170,
    "Mazur": 5171,
    "Sie": 5172,
    "Sieg": 5173,
    "Siegfried": 5174,
    "Hold": 5175,
    "Skerritt": 5176,
    "1210": 5177,
    "12101": 5178,
    "Minta": 5179,
    "Mintap": 5180,
    "Mintaprad": 5181,
    "Mintapradja": 5182,
    "Indones": 5183,
    "Indonesia": 5184,
    "Kal": 5185,
    "Kalyan": 5186,
    "Kalyana": 5187,
    "Shira": 5188,
    "Sun": 5189,
    "Sunu": 5190,
    "Andi": 5191,
    "Rian": 5192,
    "Rianto": 5193,
    "Ferry": 5194,
    "Salim": 5195,
    "Amar": 5196,
    "Amaria": 5197,
    "Lyons": 5198,
    "McCol": 5199,
    "McColl": 5200,
    "McCollum": 5201,
    "Dent": 5202,
    "Curly": 5203,
    "Ernie": 5204,
    "Adams": 5205,
    "Elwood": 5206,
    "Ull": 5207,
    "Ullman": 5208,
    "Curtiss": 5209,
    "Mia": 5210,
    "Kirshner": 5211,
    "Richa": 5212,
    "Chadda": 5213,
    "Sankaran": 5214,
    "Denis": 5215,
    "Pod": 5216,
    "Podal": 5217,
    "Podalyd": 5218,
    "Podalydè": 5219,
    "Podalydès": 5220,
    "Line": 5221,
    "Erik": 5222,
    "Estrada": 5223,
    "2034": 5224,
    "20348": 5225,
    "DeMille": 5226,
    "Heyd": 5227,
    "Heydt": 5228,
    "Eld": 5229,
    "Eldred": 5230,
    "Eldredge": 5231,
    "Fuj": 5232,
    "Fujim": 5233,
    "Fujimot": 5234,
    "Fujimoto": 5235,
    "Blystone": 5236,
    "Elvio": 5237,
    "Porta": 5238,
    "Ayuk": 5239,
    "Ayuko": 5240,
    "Ts": 5241,
    "Tsuk": 5242,
    "Tsukah": 5243,
    "Tsukahara": 5244,
    "Masar": 5245,
    "Masaru": 5246,
    "Yok": 5247,
    "Yokoy": 5248,
    "Yokoyama": 5249,
    "Hir": 5250,
    "Hirano": 5251,
    "Takashi": 5252,
    "Junich": 5253,
    "Junichi": 5254,
    "Shind": 5255,
    "Shindo": 5256,
    "Ok": 5257,
    "Okada": 5258,
    "Arimas": 5259,
    "Arimasa": 5260,
    "Haru": 5261,
    "Kasumi": 5262,
    "Arimura": 5263,
    "Kento": 5264,
    "Hay": 5265,
    "Hayashi": 5266,
    "Kentar": 5267,
    "Kentarō": 5268,
    "Itō": 5269,
    "Soman": 5270,
    "Pant": 5271,
    "Pantol": 5272,
    "Pantoliano": 5273,
    "Chi": 5274,
    "Chih": 5275,
    "Leong": 5276,
    "Berke": 5277,
    "Richardson": 5278,
    "Var": 5279,
    "Variety": 5280,
    "Distribution": 5281,
    "McLaglen": 5282,
    "bandle": 5283,
    "bandlead": 5284,
    "bandleader": 5285,
    "Frazee": 5286,
    "Sale": 5287,
    "Loeb": 5288,
    "Tass": 5289,
    "Tassie": 5290,
    "Camer": 5291,
    "Cameron": 5292,
    "Thorbjørn": 5293,
    "Se": 5294,
    "Seitz": 5295,
    "Bendix": 5296,
    "Golds": 5297,
    "Goldsmith": 5298,
    "Rey": 5299,
    "Bron": 5300,
    "Bronson": 5301,
    "Dominique": 5302,
    "Sanda": 5303,
    "Morton": 5304,
    "Lap": 5305,
    "Lapo": 5306,
    "Lapoirie": 5307,
    "870": 5308,
    "87022": 5309,
    "Avn": 5310,
    "Avnet": 5311,
    "Fall": 5312,
    "Fallon": 5313,
    "Carol": 5314,
    "Schred": 5315,
    "Schreder": 5316,
    "Belt": 5317,
    "Beltran": 5318,
    "Cul": 5319,
    "Culp": 5320,
    "Claudi": 5321,
    "Claudia": 5322,
    "Bos": 5323,
    "Bosson": 5324,
    "Park": 5325,
    "Parkins": 5326,
    "Thic": 5327,
    "Thicke": 5328,
    "Sharon": 5329,
    "Sind": 5330,
    "Sindhi": 5331,
    "Enric": 5332,
    "Enrico": 5333,
    "Montes": 5334,
    "Montesano": 5335,
    "Wond": 5336,
    "Wonder": 5337,
    "Madeleine": 5338,
    "Deler": 5339,
    "Delerue": 5340,
    "Lisa": 5341,
    "Hardin": 5342,
    "Janis": 5343,
    "Colp": 5344,
    "Colpa": 5345,
    "Colpaert": 5346,
    "Gallagher": 5347,
    "Whaley": 5348,
    "Flynn": 5349,
    "Boyle": 5350,
    "Cynthia": 5351,
    "Gibb": 5352,
    "Ragh": 5353,
    "Raghub": 5354,
    "Raghubir": 5355,
    "Yadav": 5356,
    "Fish": 5357,
    "Fishbur": 5358,
    "Fishburne": 5359,
    "Maury": 5360,
    "Win": 5361,
    "Winetro": 5362,
    "Winetrobe": 5363,
    "Philipp": 5364,
    "Philippin": 5365,
    "Philippines": 5366,
    "Post": 5367,
    "Postel": 5368,
    "4322": 5369,
    "Payne": 5370,
    "Haf": 5371,
    "Hafen": 5372,
    "Hafenrich": 5373,
    "Hafenrichter": 5374,
    "Mign": 5375,
    "Mignone": 5376,
    "Vergu": 5377,
    "Verguei": 5378,
    "Vergueiro": 5379,
    "Eliane": 5380,
    "Lage": 5381,
    "Má": 5382,
    "Mári": 5383,
    "Mário": 5384,
    "Sér": 5385,
    "Sérgio": 5386,
    "Cornel": 5387,
    "Wilde": 5388,
    "Curzi": 5389,
    "Pate": 5390,
    "Mustaj": 5391,
    "Mustajä": 5392,
    "Mustajärv": 5393,
    "Mustajärvi": 5394,
    "Kn": 5395,
    "Knop": 5396,
    "Knopf": 5397,
    "Knopfler": 5398,
    "Ivan": 5399,
    "Franek": 5400,
    "Éric": 5401,
    "Savin": 5402,
    "Zo": 5403,
    "Zoe": 5404,
    "Felix": 5405,
    "Elm": 5406,
    "Elmale": 5407,
    "Elmaleh": 5408,
    "Guilla": 5409,
    "Guillaum": 5410,
    "Guillaume": 5411,
    "Leman": 5412,
    "Lemans": 5413,
    "Agnes": 5414,
    "Moorehead": 5415,
    "Deu": 5416,
    "Cas": 5417,
    "Casas": 5418,
    "Eduardo": 5419,
    "Esc": 5420,
    "Escorel": 5421,
    "Rab": 5422,
    "Rabal": 5423,
    "Cl": 5424,
    "Clé": 5425,
    "Clément": 5426,
    "Clémenti": 5427,
    "Gene": 5428,
    "Saks": 5429,
    "Quinc": 5430,
    "Quincy": 5431,
    "Frankov": 5432,
    "Frankovich": 5433,
    "Goldie": 5434,
    "Hawn": 5435,
    "Ingrid": 5436,
    "Bergman": 5437,
    "Diamond": 5438,
    "Tich": 5439,
    "Tichen": 5440,
    "Tichenor": 5441,
    "Alexis": 5442,
    "Tomass": 5443,
    "Tomassian": 5444,
    "Alexandra": 5445,
    "Lam": 5446,
    "Lamy": 5447,
    "Cot": 5448,
    "Cotter": 5449,
    "Cottere": 5450,
    "Cottereau": 5451,
    "Doris": 5452,
    "Amina": 5453,
    "Annabi": 5454,
    "653": 5455,
    "65325": 5456,
    "Shore": 5457,
    "2392": 5458,
    "23924": 5459,
    "Lorimer": 5460,
    "Johnston": 5461,
    "Rex": 5462,
    "Crist": 5463,
    "Cristaldi": 5464,
    "Alexand": 5465,
    "Alexandre": 5466,
    "Kamen": 5467,
    "Kamenka": 5468,
    "Gaspar": 5469,
    "Henaine": 5470,
    "Dj": 5471,
    "Djiv": 5472,
    "Djivan": 5473,
    "Gasp": 5474,
    "Gaspary": 5475,
    "Gasparyan": 5476,
    "Adair": 5477,
    "Jameson": 5478,
    "727": 5479,
    "7275": 5480,
    "72756": 5481,
    "Even": 5482,
    "639": 5483,
    "63934": 5484,
    "Geno": 5485,
    "Lenardo": 5486,
    "Daw": 5487,
    "Dawson": 5488,
    "Conro": 5489,
    "Conroy": 5490,
    "Kan": 5491,
    "Kanter": 5492,
    "Freid": 5493,
    "Jeffrey": 5494,
    "Travis": 5495,
    "Iain": 5496,
    "Weatherby": 5497,
    "Anuradha": 5498,
    "Brether": 5499,
    "Bretherton": 5500,
    "Feu": 5501,
    "Feuer": 5502,
    "Liza": 5503,
    "Helm": 5504,
    "Helmut": 5505,
    "Griem": 5506,
    "Joel": 5507,
    "Marisa": 5508,
    "Beren": 5509,
    "Berenson": 5510,
    "Presson": 5511,
    "Waller": 5512,
    "Mubi": 5513,
    "streaming": 5514,
    "service": 5515,
    "Sydney": 5516,
    "Newman": 5517,
    "Ritup": 5518,
    "Rituparn": 5519,
    "Rituparna": 5520,
    "Sengu": 5521,
    "Sengup": 5522,
    "Sengupta": 5523,
    "Alfon": 5524,
    "Alfonso": 5525,
    "Ming": 5526,
    "Minggang": 5527,
    "Stott": 5528,
    "Ng": 5529,
    "Chong": 5530,
    "Chau": 5531,
    "MacLaverty": 5532,
    "McCarey": 5533,
    "804": 5534,
    "8048": 5535,
    "80488": 5536,
    "Wald": 5537,
    "Strad": 5538,
    "Stradling": 5539,
    "Arkush": 5540,
    "Ira": 5541,
    "Newborn": 5542,
    "Guber": 5543,
    "Neil": 5544,
    "Stack": 5545,
    "Silverman": 5546,
    "Bartel": 5547,
    "Aykroyd": 5548,
    "Dyan": 5549,
    "Cannon": 5550,
    "McNamara": 5551,
    "Jackie": 5552,
    "Dina": 5553,
    "Merrill": 5554,
    "Marsha": 5555,
    "War": 5556,
    "Warfield": 5557,
    "Randy": 5558,
    "Quaid": 5559,
    "Penny": 5560,
    "Balcon": 5561,
    "742": 5562,
    "74263": 5563,
    "Feng": 5564,
    "Erich": 5565,
    "Pommer": 5566,
    "US": 5567,
    "USA": 5568,
    "Network": 5569,
    "Lani": 5570,
    "Carlson": 5571,
    "Romano": 5572,
    "Sakari": 5573,
    "Ku": 5574,
    "Kuos": 5575,
    "Kuosman": 5576,
    "Kuosmanen": 5577,
    "Sergio": 5578,
    "Montan": 5579,
    "Montanari": 5580,
    "Stor": 5581,
    "Storaro": 5582,
    "Amazon": 5583,
    "Alisa": 5584,
    "Leps": 5585,
    "Lepsel": 5586,
    "Lepselter": 5587,
    "Lively": 5588,
    "Carell": 5589,
    "Posey": 5590,
    "Kristen": 5591,
    "Peggy": 5592,
    "Connelly": 5593,
    "Yordan": 5594,
    "Ic": 5595,
    "Icsey": 5596,
    "Goldb": 5597,
    "Goldber": 5598,
    "Goldberger": 5599,
    "Ladisla": 5600,
    "Ladislao": 5601,
    "Vaj": 5602,
    "Vajda": 5603,
    "Ist": 5604,
    "Istv": 5605,
    "István": 5606,
    "Tam": 5607,
    "Tamás": 5608,
    "Douieb": 5609,
    "Gera": 5610,
    "Geragh": 5611,
    "Geraghty": 5612,
    "Riccardo": 5613,
    "Freda": 5614,
    "Marcello": 5615,
    "Giomb": 5616,
    "Giombini": 5617,
    "Eleonora": 5618,
    "Drago": 5619,
    "Path": 5620,
    "Pathé": 5621,
    "Aub": 5622,
    "Aubrey": 5623,
    "Baring": 5624,
    "Maxwell": 5625,
    "Set": 5626,
    "Setton": 5627,
    "Portman": 5628,
    "Mauban": 5629,
    "Harvey": 5630,
    "Wester": 5631,
    "Westerby": 5632,
    "Segal": 5633,
    "Loh": 5634,
    "Lohmann": 5635,
    "McCam": 5636,
    "McCamus": 5637,
    "Freestyle": 5638,
    "Devine": 5639,
    "Madison": 5640,
    "Garza": 5641,
    "Sor": 5642,
    "Sorbo": 5643,
    "Steele": 5644,
    "Kui": 5645,
    "Leï": 5646,
    "Leïla": 5647,
    "Belarb": 5648,
    "Belarbi": 5649,
    "Sutcliffe": 5650,
    "Armenia": 5651,
    "188": 5652,
    "1881": 5653,
    "Debojyoti": 5654,
    "Gün": 5655,
    "Günther": 5656,
    "Ravi": 5657,
    "Chand": 5658,
    "Chandran": 5659,
    "Dinesh": 5660,
    "Bhons": 5661,
    "Bhonsle": 5662,
    "Irv": 5663,
    "Irving": 5664,
    "Glass": 5665,
    "Glassberg": 5666,
    "Leonard": 5667,
    "Goldst": 5668,
    "Goldste": 5669,
    "Goldstein": 5670,
    "Bridges": 5671,
    "Willard": 5672,
    "Hart": 5673,
    "Kendall": 5674,
    "Stüwe": 5675,
    "Canuel": 5676,
    "655": 5677,
    "Bow": 5678,
    "Bowie": 5679,
    "Wu": 5680,
    "Chung": 5681,
    "Liu": 5682,
    "Kai": 5683,
    "Teddy": 5684,
    "Mex": 5685,
    "Mexic": 5686,
    "Mexico": 5687,
    "Eug": 5688,
    "Eugen": 5689,
    "Eugenio": 5690,
    "Bav": 5691,
    "Bava": 5692,
    "Brad": 5693,
    "Bradford": 5694,
    "Heman": 5695,
    "Hemant": 5696,
    "Gop": 5697,
    "Gopal": 5698,
    "Vin": 5699,
    "Vinod": 5700,
    "Fernández": 5701,
    "Aguilar": 5702,
    "Silvestre": 5703,
    "Dale": 5704,
    "Beh": 5705,
    "Behren": 5706,
    "Behrens": 5707,
    "Clarke": 5708,
    "Wur": 5709,
    "Wurtz": 5710,
    "Wurtzel": 5711,
    "Montgomery": 5712,
    "Tracy": 5713,
    "Shepperd": 5714,
    "Strudwick": 5715,
    "Kash": 5716,
    "168": 5717,
    "16850": 5718,
    "Arnold": 5719,
    "Pressbur": 5720,
    "Pressburger": 5721,
    "Alfred": 5722,
    "Schiro": 5723,
    "Schirok": 5724,
    "Schirokau": 5725,
    "Schirokauer": 5726,
    "Leit": 5727,
    "Leiterman": 5728,
    "Giust": 5729,
    "Giustra": 5730,
    "Charlie": 5731,
    "Shry": 5732,
    "Shryack": 5733,
    "71269": 5734,
    "Lomb": 5735,
    "Lombardo": 5736,
    "Montp": 5737,
    "Montpelli": 5738,
    "Montpellier": 5739,
    "Mong": 5740,
    "Mongrel": 5741,
    "Media": 5742,
    "Hann": 5743,
    "Hannig": 5744,
    "Hannigan": 5745,
    "Iron": 5746,
    "Elena": 5747,
    "Anaya": 5748,
    "Siddi": 5749,
    "Siddig": 5750,
    "Ethel": 5751,
    "Waters": 5752,
    "Claudio": 5753,
    "Cir": 5754,
    "Cirillo": 5755,
    "Curtis": 5756,
    "Judd": 5757,
    "Nelson": 5758,
    "Donowho": 5759,
    "Sw": 5760,
    "Switz": 5761,
    "Switzer": 5762,
    "Switzerland": 5763,
    "Stef": 5764,
    "Stefan": 5765,
    "Tol": 5766,
    "Tolz": 5767,
    "Armed": 5768,
    "Forces": 5769,
    "comedian": 5770,
    "Hong": 5771,
    "Janine": 5772,
    "Linde": 5773,
    "Lindem": 5774,
    "Lindemul": 5775,
    "Lindemulder": 5776,
    "Parks": 5777,
    "Cook": 5778,
    "Gage": 5779,
    "Golightly": 5780,
    "Rath": 5781,
    "screenwriter": 5782,
    "Hoc": 5783,
    "Hockey": 5784,
    "Hov": 5785,
    "Hovh": 5786,
    "Hovhann": 5787,
    "Hovhanness": 5788,
    "Tar": 5789,
    "Tarpin": 5790,
    "Tarpinian": 5791,
    "LeRoy": 5792,
    "Linst": 5793,
    "Linstr": 5794,
    "Linstrum": 5795,
    "Babette": 5796,
    "Holt": 5797,
    "Holtmann": 5798,
    "Stuck": 5799,
    "Stuckm": 5800,
    "Stuckmey": 5801,
    "Stuckmeyer": 5802,
    "Bottoms": 5803,
    "Elman": 5804,
    "Ur": 5805,
    "Urdu": 5806,
    "Sket": 5807,
    "Sketches": 5808,
    "Sayed": 5809,
    "Zulfiq": 5810,
    "Zulfiqar": 5811,
    "Bukhari": 5812,
    "Aamina": 5813,
    "Sheikh": 5814,
    "Adnan": 5815,
    "Malik": 5816,
    "Syed": 5817,
    "Moham": 5818,
    "Mohamm": 5819,
    "Mohammad": 5820,
    "Zhongjun": 5821,
    "Melo": 5822,
    "Putt": 5823,
    "Puttn": 5824,
    "Puttnam": 5825,
    "Tang": 5826,
    "Guoqiang": 5827,
    "907": 5828,
    "90784": 5829,
    "Isabelle": 5830,
    "Huppert": 5831,
    "Menz": 5832,
    "Menzies": 5833,
    "Anil": 5834,
    "Kap": 5835,
    "Kapoor": 5836,
    "Bobby": 5837,
    "Byrne": 5838,
    "Tanya": 5839,
    "Seymour": 5840,
    "Cassel": 5841,
    "Gó": 5842,
    "Góm": 5843,
    "Gómez": 5844,
    "Bola": 5845,
    "Bolañ": 5846,
    "Bolaños": 5847,
    "Zim": 5848,
    "Zimmer": 5849,
    "Schündler": 5850,
    "Carmen": 5851,
    "Sevilla": 5852,
    "Wendy": 5853,
    "Greene": 5854,
    "Bric": 5855,
    "Bricmont": 5856,
    "Hale": 5857,
    "Cromwell": 5858,
    "Sl": 5859,
    "Sloc": 5860,
    "Slocombe": 5861,
    "Gabriela": 5862,
    "Medina": 5863,
    "Derrick": 5864,
    "Marney": 5865,
    "Jacki": 5866,
    "Weaver": 5867,
    "Oh": 5868,
    "Tris": 5869,
    "Coff": 5870,
    "Coffin": 5871,
    "Vid": 5872,
    "Vidmark": 5873,
    "Mam": 5874,
    "Mamet": 5875,
    "Big": 5876,
    "Studd": 5877,
    "Cara": 5878,
    "Hadd": 5879,
    "Haddon": 5880,
    "Mus": 5881,
    "Muser": 5882,
    "Srees": 5883,
    "Sreesan": 5884,
    "Sreesanth": 5885,
    "Kibbee": 5886,
    "6173": 5887,
    "6173712": 5888,
    "Midd": 5889,
    "Middl": 5890,
    "Middleton": 5891,
    "Patrice": 5892,
    "Robit": 5893,
    "Robitail": 5894,
    "Robitaille": 5895,
    "Gul": 5896,
    "Gulsh": 5897,
    "Gulshan": 5898,
    "Deva": 5899,
    "Devaia": 5900,
    "Devaiah": 5901,
    "Armstrong": 5902,
    "Good": 5903,
    "Goodwin": 5904,
    "Parent": 5905,
    "Manli": 5906,
    "Manlio": 5907,
    "Mazza": 5908,
    "Terry": 5909,
    "Frost": 5910,
    "Neame": 5911,
    "Nolot": 5912,
    "Ouass": 5913,
    "Ouassini": 5914,
    "Embar": 5915,
    "Embarek": 5916,
    "Zhang": 5917,
    "Xig": 5918,
    "Xigui": 5919,
    "Celestial": 5920,
    "Kong": 5921,
    "Jing": 5922,
    "Jinglei": 5923,
    "Xiang": 5924,
    "Zhonglei": 5925,
    "Ding": 5926,
    "Jial": 5927,
    "Jiali": 5928,
    "Qin": 5929,
    "Qinq": 5930,
    "Qinqin": 5931,
    "Brando": 5932,
    "Eaton": 5933,
    "Gastone": 5934,
    "Moschin": 5935,
    "Tand": 5936,
    "Tandem": 5937,
    "Mintz": 5938,
    "Finn": 5939,
    "Finnk": 5940,
    "Finnkino": 5941,
    "Dinul": 5942,
    "Dinulescu": 5943,
    "Cliff": 5944,
    "Aire": 5945,
    "Airey": 5946,
    "Brady": 5947,
    "Dix": 5948,
    "Vald": 5949,
    "Valda": 5950,
    "Hansen": 5951,
    "Epp": 5952,
    "Epperson": 5953,
    "Darwin": 5954,
    "Joston": 5955,
    "Carradine": 5956,
    "Armand": 5957,
    "Assante": 5958,
    "Foy": 5959,
    "1827": 5960,
    "18279": 5961,
    "Eve": 5962,
    "Bres": 5963,
    "Bresnick": 5964,
    "Reis": 5965,
    "Reisner": 5966,
    "Baby": 5967,
    "Bell": 5968,
    "Gia": 5969,
    "Mante": 5970,
    "Mantegna": 5971,
    "Jackson": 5972,
    "Wing": 5973,
    "Wingard": 5974,
    "Giovanna": 5975,
    "Marini": 5976,
    "Michel": 5977,
    "Vu": 5978,
    "Vuillerm": 5979,
    "Vuillermoz": 5980,
    "Fr": 5981,
    "Fratic": 5982,
    "Fraticelli": 5983,
    "Campos": 5984,
    "Timo": 5985,
    "Salmin": 5986,
    "Salminen": 5987,
    "Simone": 5988,
    "Berr": 5989,
    "Berriau": 5990,
    "Astin": 5991,
    "Cly": 5992,
    "Clyde": 5993,
    "Vinna": 5994,
    "Wrang": 5995,
    "Wrangell": 5996,
    "Currier": 5997,
    "Sebastian": 5998,
    "McDermott": 5999,
    "Ruth": 6000,
    "Cummings": 6001,
    "Marian": 6002,
    "Ainslee": 6003,
    "Milburn": 6004,
    "Hoerl": 6005,
    "Bov": 6006,
    "Bovair": 6007,
    "Bovaird": 6008,
    "Maha": 6009,
    "Mahajan": 6010,
    "Beng": 6011,
    "Bengal": 6012,
    "Ananda": 6013,
    "Shan": 6014,
    "Shankar": 6015,
    "Satya": 6016,
    "Bandy": 6017,
    "Bandyopadhyay": 6018,
    "Madhabi": 6019,
    "Asit": 6020,
    "Samar": 6021,
    "Samaresh": 6022,
    "Bas": 6023,
    "Basu": 6024,
    "Tet": 6025,
    "Tetz": 6026,
    "Tetzla": 6027,
    "Tetzlaff": 6028,
    "Jerz": 6029,
    "Jerzy": 6030,
    "Ziel": 6031,
    "Zieli": 6032,
    "Zieliń": 6033,
    "Zielińs": 6034,
    "Zieliński": 6035,
    "Ciné": 6036,
    "Ciném": 6037,
    "Cinématograph": 6038,
    "Cinématographi": 6039,
    "Cinématographique": 6040,
    "Europ": 6041,
    "Europé": 6042,
    "Européen": 6043,
    "Européenne": 6044,
    "Isid": 6045,
    "Isidore": 6046,
    "Bethel": 6047,
    "Ze": 6048,
    "Zeit": 6049,
    "Zeitge": 6050,
    "Zeitgeist": 6051,
    "Lant": 6052,
    "Lantos": 6053,
    "Ashot": 6054,
    "Adamyan": 6055,
    "13879": 6056,
    "Andrew": 6057,
    "Lock": 6058,
    "Lockington": 6059,
    "Miranda": 6060,
    "Penc": 6061,
    "Pencier": 6062,
    "Ker": 6063,
    "Keram": 6064,
    "Malicki": 6065,
    "Sán": 6066,
    "Sánche": 6067,
    "Sánchez": 6068,
    "Santhosh": 6069,
    "Aak": 6070,
    "Aakash": 6071,
    "Pete": 6072,
    "Kirtley": 6073,
    "Temple": 6074,
    "Angela": 6075,
    "Sarafyan": 6076,
    "Edi": 6077,
    "Gathegi": 6078,
    "Arregui": 6079,
    "Daniela": 6080,
    "Lhor": 6081,
    "Lhorent": 6082,
    "Lhorente": 6083,
    "Ural": 6084,
    "Uralsky": 6085,
    "Mis": 6086,
    "Mischa": 6087,
    "Spol": 6088,
    "Spolian": 6089,
    "Spoliansky": 6090,
    "Foran": 6091,
    "ZEE": 6092,
    "Rah": 6093,
    "Rahul": 6094,
    "Mitt": 6095,
    "Mittra": 6096,
    "Meter": 6097,
    "Pine": 6098,
    "Denning": 6099,
    "Wilcox": 6100,
    "Buster": 6101,
    "Crabbe": 6102,
    "Beth": 6103,
    "Hughes": 6104,
    "Sheila": 6105,
    "Lorna": 6106,
    "Enrí": 6107,
    "Enríquez": 6108,
    "Bacalov": 6109,
    "Anderson": 6110,
    "Dearden": 6111,
    "Gener": 6112,
    "General": 6113,
    "Tanner": 6114,
    "Farrar": 6115,
    "Lom": 6116,
    "Simmons": 6117,
    "Whitt": 6118,
    "Whitting": 6119,
    "Whittingham": 6120,
    "Hoyts": 6121,
    "Ner": 6122,
    "Nerida": 6123,
    "Tyson": 6124,
    "Chew": 6125,
    "Jacobson": 6126,
    "Bennet": 6127,
    "Keisuke": 6128,
    "Yoshida": 6129,
    "Janne": 6130,
    "Furch": 6131,
    "Crombie": 6132,
    "Roadsh": 6133,
    "Roadshow": 6134,
    "Morse": 6135,
    "Long": 6136,
    "Arjun": 6137,
    "Arjuna": 6138,
    "Harj": 6139,
    "Harjai": 6140,
    "Dur": 6141,
    "Durga": 6142,
    "Pras": 6143,
    "Prasad": 6144,
    "Priyan": 6145,
    "Priyansh": 6146,
    "Priyanshu": 6147,
    "Chatterjee": 6148,
    "Binn": 6149,
    "Binny": 6150,
    "Harsh": 6151,
    "Chh": 6152,
    "Chhaya": 6153,
    "Mina": 6154,
    "Minax": 6155,
    "Minaxi": 6156,
    "Martins": 6157,
    "Subb": 6158,
    "Subbara": 6159,
    "Subbaraj": 6160,
    "Subbaraju": 6161,
    "Susan": 6162,
    "Dey": 6163,
    "Pam": 6164,
    "Pamela": 6165,
    "Reed": 6166,
    "Renau": 6167,
    "Renaud": 6168,
    "Whitesell": 6169,
    "Upp": 6170,
    "Bloom": 6171,
    "Kather": 6172,
    "Katherine": 6173,
    "Helmond": 6174,
    "Buena": 6175,
    "Vist": 6176,
    "Vista": 6177,
    "Gary": 6178,
    "Andrea": 6179,
    "Hilary": 6180,
    "Shawn": 6181,
    "Ashm": 6182,
    "Ashmore": 6183,
    "Cardi": 6184,
    "Cardiff": 6185,
    "Kras": 6186,
    "Krasker": 6187,
    "Eagle": 6188,
    "Freder": 6189,
    "Frederick": 6190,
    "Wilson": 6191,
    "Vivien": 6192,
    "Leigh": 6193,
    "Claude": 6194,
    "Rains": 6195,
    "Lino": 6196,
    "Brocka": 6197,
    "Japan": 6198,
    "Ri": 6199,
    "Riisa": 6200,
    "Nak": 6201,
    "Naka": 6202,
    "Mari": 6203,
    "Hamada": 6204,
    "Kum": 6205,
    "Kumik": 6206,
    "Kumiko": 6207,
    "Asō": 6208,
    "Gir": 6209,
    "Girard": 6210,
    "Girardot": 6211,
    "422": 6212,
    "4229": 6213,
    "42296": 6214,
    "Marks": 6215,
    "Steiner": 6216,
    "Betty": 6217,
    "Garde": 6218,
    "Hope": 6219,
    "Emerson": 6220,
    "Eleanor": 6221,
    "Ellen": 6222,
    "Corby": 6223,
    "Kellogg": 6224,
    "Salar": 6225,
    "Zarza": 6226,
    "Hedy": 6227,
    "Burress": 6228,
    "Wind": 6229,
    "Windt": 6230,
    "Ti": 6231,
    "Edmund": 6232,
    "Cobb": 6233,
    "Osanna": 6234,
    "Wolff": 6235,
    "Lionel": 6236,
    "Stander": 6237,
    "Luigi": 6238,
    "Pistilli": 6239,
    "Bouchet": 6240,
    "Adorf": 6241,
    "Leroy": 6242,
    "Ford": 6243,
    "Martinelli": 6244,
    "Albert": 6245,
    "Edens": 6246,
    "Jiř": 6247,
    "Jiří": 6248,
    "Brož": 6249,
    "Brožek": 6250,
    "Bole": 6251,
    "Bolek": 6252,
    "Pol": 6253,
    "Polí": 6254,
    "Polív": 6255,
    "Polívka": 6256,
    "Robinson": 6257,
    "Rov": 6258,
    "Roven": 6259,
    "Dres": 6260,
    "Dresch": 6261,
    "Drescher": 6262,
    "Piero": 6263,
    "Bernardi": 6264,
    "Les": 6265,
    "films": 6266,
    "losange": 6267,
    "Coq": 6268,
    "Juliette": 6269,
    "Nath": 6270,
    "Nathalie": 6271,
    "Bénichou": 6272,
    "Rocket": 6273,
    "Poll": 6274,
    "Barte": 6275,
    "Bartek": 6276,
    "Denise": 6277,
    "Nov": 6278,
    "Novi": 6279,
    "Ritch": 6280,
    "Brink": 6281,
    "Brinkley": 6282,
    "Gam": 6283,
    "Gamm": 6284,
    "Gammon": 6285,
    "China": 6286,
    "Katzman": 6287,
    "Wright": 6288,
    "Lena": 6289,
    "Horne": 6290,
    "Astor": 6291,
    "Amanda": 6292,
    "Llan": 6293,
    "Llano": 6294,
    "Rani": 6295,
    "Mukerji": 6296,
    "Hait": 6297,
    "Haitkin": 6298,
    "Farley": 6299,
    "Kopsa": 6300,
    "Raj": 6301,
    "Desf": 6302,
    "Desfass": 6303,
    "Desfassiau": 6304,
    "Desfassiaux": 6305,
    "Pyper": 6306,
    "Ferrigno": 6307,
    "Reb": 6308,
    "274": 6309,
    "27414": 6310,
    "McCord": 6311,
    "Noel": 6312,
    "Jud": 6313,
    "Judith": 6314,
    "Marlin": 6315,
    "Renaul": 6316,
    "Renault": 6317,
    "Trimark": 6318,
    "Daddario": 6319,
    "Gilberto": 6320,
    "Solares": 6321,
    "Huard": 6322,
    "Heyer": 6323,
    "Heyerda": 6324,
    "Heyerdahl": 6325,
    "Breton": 6326,
    "Syl": 6327,
    "Sylvie": 6328,
    "Boucher": 6329,
    "Lacombe": 6330,
    "Heis": 6331,
    "Heiskan": 6332,
    "Heiskanen": 6333,
    "6667": 6334,
    "627": 6335,
    "62773": 6336,
    "Eliason": 6337,
    "Gabor": 6338,
    "Universum": 6339,
    "AG": 6340,
    "Midnight": 6341,
    "Dustin": 6342,
    "Ră": 6343,
    "Răz": 6344,
    "Răzvan": 6345,
    "Vasil": 6346,
    "Vasilescu": 6347,
    "Cres": 6348,
    "Cresc": 6349,
    "Crescent": 6350,
    "Sheffer": 6351,
    "Alice": 6352,
    "Mayte": 6353,
    "Shyam": 6354,
    "Inter": 6355,
    "Intert": 6356,
    "Intertit": 6357,
    "Intertitles": 6358,
    "Jillian": 6359,
    "Roach": 6360,
    "Gonz": 6361,
    "Gonzalo": 6362,
    "Vivan": 6363,
    "Vivanco": 6364,
    "Phillip": 6365,
    "Televis": 6366,
    "Televisi": 6367,
    "Televisión": 6368,
    "Nac": 6369,
    "Nacional": 6370,
    "Oy": 6371,
    "Oyar": 6372,
    "Oyarz": 6373,
    "Oyarzú": 6374,
    "Oyarzún": 6375,
    "Patricio": 6376,
    "Strah": 6377,
    "Strahovsky": 6378,
    "Sathaar": 6379,
    "276": 6380,
    "Gun": 6381,
    "Gunas": 6382,
    "Gunasek": 6383,
    "Gunasekhar": 6384,
    "MacMurray": 6385,
    "Weatherw": 6386,
    "Weatherwax": 6387,
    "Shuk": 6388,
    "Shuken": 6389,
    "Priestley": 6390,
    "Hec": 6391,
    "Hecq": 6392,
    "Devon": 6393,
    "Werkheiser": 6394,
    "Lindhol": 6395,
    "Lindholm": 6396,
    "Gott": 6397,
    "Gottfried": 6398,
    "Georgie": 6399,
    "Il": 6400,
    "Ilde": 6401,
    "Ildebrand": 6402,
    "Ildebrando": 6403,
    "Piz": 6404,
    "Pizz": 6405,
    "Pizzetti": 6406,
    "Bartol": 6407,
    "Bartolome": 6408,
    "Bartolomeo": 6409,
    "Pag": 6410,
    "Pagano": 6411,
    "Gabri": 6412,
    "Gabriele": 6413,
    "Annun": 6414,
    "Annunzio": 6415,
    "Bus": 6416,
    "Busby": 6417,
    "Berk": 6418,
    "Berkel": 6419,
    "Berkeley": 6420,
    "Vla": 6421,
    "Vladi": 6422,
    "Vladim": 6423,
    "Vladimir": 6424,
    "Ven": 6425,
    "Venger": 6426,
    "Vengerov": 6427,
    "Klar": 6428,
    "Klaren": 6429,
    "Jutt": 6430,
    "Juttke": 6431,
    "Bassman": 6432,
    "Norm": 6433,
    "Yves": 6434,
    "Mirande": 6435,
    "Pedro": 6436,
    "Lazaga": 6437,
    "Algu": 6438,
    "Alguer": 6439,
    "Algueró": 6440,
    "Mato": 6441,
    "Matti": 6442,
    "Pell": 6443,
    "Pellon": 6444,
    "Pellonp": 6445,
    "Pellonpä": 6446,
    "Pellonpää": 6447,
    "Tuom": 6448,
    "Tuomari": 6449,
    "Nurm": 6450,
    "Nurmio": 6451,
    "Markk": 6452,
    "Markku": 6453,
    "To": 6454,
    "Toikka": 6455,
    "Pirk": 6456,
    "Pirkka": 6457,
    "Pek": 6458,
    "Pekka": 6459,
    "Peteli": 6460,
    "Petelius": 6461,
    "Punt": 6462,
    "Puntti": 6463,
    "Gans": 6464,
    "Evely": 6465,
    "Evelyne": 6466,
    "Broch": 6467,
    "Brochu": 6468,
    "Gert": 6469,
    "Wilden": 6470,
    "Wen": 6471,
    "Degu": 6472,
    "Deguang": 6473,
    "Benson": 6474,
    "Soad": 6475,
    "Hos": 6476,
    "Hosny": 6477,
    "Naguib": 6478,
    "Mahfouz": 6479,
    "Talbot": 6480,
    "Chant": 6481,
    "Chantal": 6482,
    "Demming": 6483,
    "Joep": 6484,
    "Serton": 6485,
    "Sertons": 6486,
    "Waltra": 6487,
    "Waltraut": 6488,
    "Wisch": 6489,
    "Wischnie": 6490,
    "Wischniews": 6491,
    "Wischniewsky": 6492,
    "Lucy": 6493,
    "Keller": 6494,
    "Image": 6495,
    "Roberta": 6496,
    "Erica": 6497,
    "Gavin": 6498,
    "Norman": 6499,
    "Wally": 6500,
    "Mitch": 6501,
    "Hough": 6502,
    " 0038392": 6503,
    " Farrow": 6504,
    " featuring": 6505,
    " Stanwyck": 6506,
    " Barry": 6507,
    " vo": 6508,
    " voice": 6509,
    " 0169145": 6510,
    " Bal": 6511,
    " Balkan": 6512,
    "uta": 6513,
    " Powd": 6514,
    " Powder": 6515,
    " Keg": 6516,
    " English": 6517,
    " chan": 6518,
    " Kevin": 6519,
    "ctions": 6520,
    " FI": 6521,
    " Cl": 6522,
    " Bu": 6523,
    " Ramos": 6524,
    " biop": 6525,
    " biopic": 6526,
    " Soroc": 6527,
    " Sorocab": 6528,
    " Sorocaba": 6529,
    "iment": 6530,
    " um": 6531,
    " uma": 6532,
    " Campos": 6533,
    " Adolfo": 6534,
    " comes": 6535,
    " former": 6536,
    "ritual": 6537,
    " inspir": 6538,
    " inspiration": 6539,
    " Hunt": 6540,
    " Luis": 6541,
    " 0039373": 6542,
    " Il": 6543,
    "iac": 6544,
    "iacre": 6545,
    "elodrama": 6546,
    " Matt": 6547,
    " Vera": 6548,
    " Carmi": 6549,
    " Doyle": 6550,
    " Dou": 6551,
    " Douglas": 6552,
    " Chevy": 6553,
    " Dangerfield": 6554,
    " Ted": 6555,
    " Murray": 6556,
    " Sara": 6557,
    " Mor": 6558,
    "gan": 6559,
    " previously": 6560,
    " near": 6561,
    " nearly": 6562,
    "40": 6563,
    "ighe": 6564,
    "ighest": 6565,
    "unn": 6566,
    ".\"": 6567,
    " alth": 6568,
    " although": 6569,
    " Edin": 6570,
    " Edinbur": 6571,
    " Edinburgh": 6572,
    " 29": 6573,
    " Net": 6574,
    " Cinem": 6575,
    " UK": 6576,
    " 16": 6577,
    "erns": 6578,
    "idents": 6579,
    " rem": 6580,
    "ote": 6581,
    " 0176875": 6582,
    " 0200510": 6583,
    " ve": 6584,
    " veh": 6585,
    " vehic": 6586,
    " vehicle": 6587,
    " 192": 6588,
    " Rand": 6589,
    " Hearst": 6590,
    " Way": 6591,
    " Oscar": 6592,
    " Shaw": 6593,
    " Harry": 6594,
    " Island": 6595,
    " songs": 6596,
    " 5505992": 6597,
    " Jesse": 6598,
    " Res": 6599,
    " Chuck": 6600,
    " cham": 6601,
    " champ": 6602,
    " champion": 6603,
    " def": 6604,
    " professional": 6605,
    " dig": 6606,
    " digit": 6607,
    " digitally": 6608,
    " Belgian": 6609,
    " Marshall": 6610,
    " Sund": 6611,
    " Sundance": 6612,
    " Releasing": 6613,
    " giv": 6614,
    " theatrical": 6615,
    "away": 6616,
    " Felissa": 6617,
    " Rose": 6618,
    " Deron": 6619,
    " Brinke": 6620,
    " Stevens": 6621,
    " creator": 6622,
    " Editing": 6623,
    " Tay": 6624,
    " filming": 6625,
    " uncle": 6626,
    " chang": 6627,
    " '": 6628,
    " Some": 6629,
    " Tai": 6630,
    " Taiwan": 6631,
    " Taiwanese": 6632,
    " marks": 6633,
    " Vivian": 6634,
    " Sung": 6635,
    " 0188469": 6636,
    " preserved": 6637,
    " ensem": 6638,
    " ensemble": 6639,
    " Nair": 6640,
    " Zar": 6641,
    "athy": 6642,
    " Raj": 6643,
    " ا": 6644,
    " ال": 6645,
    " compet": 6646,
    " 8": 6647,
    " Since": 6648,
    "wed": 6649,
    " interest": 6650,
    "overs": 6651,
    "ailed": 6652,
    " ur": 6653,
    " urban": 6654,
    " working": 6655,
    " 0051390": 6656,
    " Gil": 6657,
    " ri": 6658,
    " rival": 6659,
    "umed": 6660,
    " Ph": 6661,
    " Oz": 6662,
    " Ozu": 6663,
    " late": 6664,
    " To": 6665,
    " Toky": 6666,
    " Tokyo": 6667,
    "ating": 6668,
    "irth": 6669,
    " Lion": 6670,
    " 0028677": 6671,
    " truck": 6672,
    " Wayne": 6673,
    " Arthur": 6674,
    " cross": 6675,
    " special": 6676,
    " 0107461": 6677,
    " Aniston": 6678,
    " Anna": 6679,
    " debuted": 6680,
    "ection": 6681,
    " Tor": 6682,
    " Toron": 6683,
    " Toronto": 6684,
    " mixed": 6685,
    "ramatic": 6686,
    " brough": 6687,
    " brought": 6688,
    " Globe": 6689,
    " 1965": 6690,
    " 0189408": 6691,
    "lit": 6692,
    " Carlo": 6693,
    " Vanzina": 6694,
    " 6918790": 6695,
    "Portuguese": 6696,
    "ias": 6697,
    " romance": 6698,
    " 0095821": 6699,
    " Cole": 6700,
    " Juliette": 6701,
    " middle": 6702,
    " York": 6703,
    " raise": 6704,
    "earch": 6705,
    "ices": 6706,
    " hus": 6707,
    " husband": 6708,
    " member": 6709,
    " members": 6710,
    " headed": 6711,
    " Walt": 6712,
    " Walters": 6713,
    " Bass": 6714,
    " Cel": 6715,
    " Im": 6716,
    " Gerald": 6717,
    " Geraldine": 6718,
    " Thor": 6719,
    "ister": 6720,
    " key": 6721,
    " Loc": 6722,
    " Ham": 6723,
    " Din": 6724,
    " garner": 6725,
    " garnered": 6726,
    " At": 6727,
    " maj": 6728,
    " major": 6729,
    " commerc": 6730,
    " commercial": 6731,
    " picture": 6732,
    " Sat": 6733,
    " nominations": 6734,
    " Joan": 6735,
    " Metro": 6736,
    "horror": 6737,
    " came": 6738,
    " Norman": 6739,
    " Harrison": 6740,
    " Die": 6741,
    " dev": 6742,
    " 62": 6743,
    " Reb": 6744,
    " conv": 6745,
    " convict": 6746,
    " 0034565": 6747,
    " Lo": 6748,
    " Dyke": 6749,
    " repor": 6750,
    " reporter": 6751,
    " ship": 6752,
    " shipw": 6753,
    " shipwre": 6754,
    " shipwreck": 6755,
    "ped": 6756,
    " singer": 6757,
    " Naz": 6758,
    " Nazi": 6759,
    " spies": 6760,
    " Herbert": 6761,
    " MacDonald": 6762,
    "ract": 6763,
    "ollywood": 6764,
    "sper": 6765,
    " Co": 6766,
    " Natives": 6767,
    " Project": 6768,
    " theatrically": 6769,
    "Patience": 6770,
    "Ozokwor": 6771,
    " Paradise": 6772,
    " Cafe": 6773,
    " Danish": 6774,
    " Ib": 6775,
    " Schønberg": 6776,
    " what": 6777,
    "played": 6778,
    "uch": 6779,
    "eves": 6780,
    " little": 6781,
    " every": 6782,
    "ences": 6783,
    " Rick": 6784,
    " final": 6785,
    " post": 6786,
    "aly": 6787,
    " por": 6788,
    " Sayadian": 6789,
    " pse": 6790,
    " pseud": 6791,
    " pseudonym": 6792,
    " Jerry": 6793,
    " noted": 6794,
    " producer": 6795,
    " Mit": 6796,
    " Fro": 6797,
    " appeared": 6798,
    " Café": 6799,
    " Pass": 6800,
    " popular": 6801,
    " Kerrigan": 6802,
    " XVIII": 6803,
    " Union": 6804,
    " friends": 6805,
    " indust": 6806,
    " reported": 6807,
    "emale": 6808,
    " Meet": 6809,
    " Bros": 6810,
    " Ama": 6811,
    " Acc": 6812,
    " Accord": 6813,
    " According": 6814,
    " 0312101": 6815,
    " Del": 6816,
    " Larry": 6817,
    " 02": 6818,
    " 0220348": 6819,
    " Beginning": 6820,
    " DeMille": 6821,
    " Arch": 6822,
    " Funicul": 6823,
    " Gets": 6824,
    " Cold": 6825,
    " Mo": 6826,
    "ye": 6827,
    " Yu": 6828,
    "turn": 6829,
    "rows": 6830,
    " Young": 6831,
    " accla": 6832,
    "alent": 6833,
    " Grand": 6834,
    " 0039236": 6835,
    "weg": 6836,
    "wegian": 6837,
    " Herd": 6838,
    " 0039235": 6839,
    " Ladd": 6840,
    " Gail": 6841,
    " 0087022": 6842,
    " 0184322": 6843,
    " Heads": 6844,
    " som": 6845,
    " somet": 6846,
    " sometimes": 6847,
    "lated": 6848,
    " Port": 6849,
    " Flower": 6850,
    "rew": 6851,
    " Gene": 6852,
    "aks": 6853,
    " Gol": 6854,
    "olly": 6855,
    " movies": 6856,
    " Pier": 6857,
    " Pierre": 6858,
    " Gre": 6859,
    " Child": 6860,
    " Martha": 6861,
    " Cannary": 6862,
    " front": 6863,
    " 1065325": 6864,
    " 0423924": 6865,
    " 0072756": 6866,
    " Will": 6867,
    " Wallace": 6868,
    " hit": 6869,
    " cir": 6870,
    " circ": 6871,
    "uit": 6872,
    " 24": 6873,
    " Dall": 6874,
    " Dallas": 6875,
    " 0463934": 6876,
    " Max": 6877,
    " parts": 6878,
    " Das": 6879,
    " created": 6880,
    " Tel": 6881,
    " 1991": 6882,
    " 0080488": 6883,
    "who": 6884,
    " Silv": 6885,
    " Whil": 6886,
    " While": 6887,
    " uncredited": 6888,
    " Kenny": 6889,
    " theme": 6890,
    " 0074263": 6891,
    " Allen": 6892,
    " Blake": 6893,
    " Parker": 6894,
    " moves": 6895,
    " 1930": 6896,
    " fall": 6897,
    " agent": 6898,
    " Eagle": 6899,
    " Road": 6900,
    " Maria": 6901,
    " Lang": 6902,
    " More": 6903,
    " Arnold": 6904,
    " Loretta": 6905,
    " Dev": 6906,
    " Gar": 6907,
    " 22": 6908,
    " Cour": 6909,
    " Court": 6910,
    " 111": 6911,
    " 1111881": 6912,
    " banner": 6913,
    " 1949": 6914,
    " Sher": 6915,
    " Yvonne": 6916,
    " prieto": 6917,
    " Villa": 6918,
    " 1968": 6919,
    " Flor": 6920,
    " Fern": 6921,
    " focuses": 6922,
    " bre": 6923,
    " Genov": 6924,
    " Genovev": 6925,
    " Genoveva": 6926,
    " With": 6927,
    " revol": 6928,
    "ionary": 6929,
    " Pan": 6930,
    " surp": 6931,
    " surpris": 6932,
    " Nr": 6933,
    " Dutch": 6934,
    " Sn": 6935,
    "order": 6936,
    " Curt": 6937,
    " sho": 6938,
    " shoot": 6939,
    " shooting": 6940,
    " place": 6941,
    " 0016850": 6942,
    " 0071269": 6943,
    " Alt": 6944,
    "amb": 6945,
    " non": 6946,
    " eight": 6947,
    " Rede": 6948,
    " Globo": 6949,
    " repl": 6950,
    " replac": 6951,
    " Ricardo": 6952,
    " collaboration": 6953,
    " Barb": 6954,
    " Barbosa": 6955,
    " 1979": 6956,
    " Pill": 6957,
    " Carolina": 6958,
    " Salvador": 6959,
    "Arcade": 6960,
    "Nirvan": 6961,
    "Mullick": 6962,
    " 0066879": 6963,
    " Moscow": 6964,
    " direction": 6965,
    " alternative": 6966,
    " East": 6967,
    " Front": 6968,
    " Aust": 6969,
    " Austro": 6970,
    " intend": 6971,
    " intended": 6972,
    " anti": 6973,
    "war": 6974,
    " Blessy": 6975,
    " Dil": 6976,
    " Dilee": 6977,
    " Dileep": 6978,
    " Me": 6979,
    " Jas": 6980,
    " Jasm": 6981,
    " Jasmine": 6982,
    " Ind": 6983,
    " Mishra": 6984,
    " deals": 6985,
    " issue": 6986,
    " how": 6987,
    " showc": 6988,
    " 0090784": 6989,
    " Denn": 6990,
    " Han": 6991,
    " Mull": 6992,
    " cardbo": 6993,
    " cardboard": 6994,
    "year": 6995,
    " ob": 6996,
    " boy": 6997,
    " aut": 6998,
    " Angeles": 6999,
    " unex": 7000,
    " unexp": 7001,
    " unexpected": 7002,
    " hand": 7003,
    " customer": 7004,
    " purch": 7005,
    " decided": 7006,
    " thou": 7007,
    " thought": 7008,
    " media": 7009,
    " mob": 7010,
    " included": 7011,
    " YouT": 7012,
    " YouTub": 7013,
    " YouTube": 7014,
    " vide": 7015,
    " college": 7016,
    "lished": 7017,
    " schools": 7018,
    " start": 7019,
    " Found": 7020,
    " Foundation": 7021,
    "ivity": 7022,
    " adult": 7023,
    " Hewitt": 7024,
    " plays": 7025,
    " Army": 7026,
    " 1960": 7027,
    " alongs": 7028,
    " alongside": 7029,
    " brother": 7030,
    " Gordon": 7031,
    " Weaver": 7032,
    " Peter": 7033,
    " Mi": 7034,
    " Mike": 7035,
    "yder": 7036,
    " tt": 7037,
    " Jacques": 7038,
    " My": 7039,
    " Dog": 7040,
    " bl": 7041,
    " attemp": 7042,
    " attempts": 7043,
    " dog": 7044,
    "ours": 7045,
    " Cala": 7046,
    " Desp": 7047,
    " sal": 7048,
    " sales": 7049,
    " bill": 7050,
    " trad": 7051,
    " tradition": 7052,
    " traditional": 7053,
    " 0366655": 7054,
    " Mascot": 7055,
    " Law": 7056,
    " Wem": 7057,
    " Wemb": 7058,
    " Wembley": 7059,
    " Ir": 7060,
    " Irish": 7061,
    " inv": 7062,
    " brut": 7063,
    " brutal": 7064,
    "venge": 7065,
    " im": 7066,
    " Dix": 7067,
    " Ter": 7068,
    " Ada": 7069,
    " 0118279": 7070,
    " Joseph": 7071,
    " Water": 7072,
    "part": 7073,
    " water": 7074,
    " polit": 7075,
    " nature": 7076,
    " 0106503": 7077,
    " Ruth": 7078,
    " Carmen": 7079,
    " Ston": 7080,
    " Stone": 7081,
    " Jos": 7082,
    " José": 7083,
    " begins": 7084,
    "pped": 7085,
    " men": 7086,
    " VH": 7087,
    " VHS": 7088,
    " Vaca": 7089,
    " 155": 7090,
    " Nar": 7091,
    " exp": 7092,
    "aman": 7093,
    " began": 7094,
    " Spain": 7095,
    " journ": 7096,
    " journal": 7097,
    " Nicolás": 7098,
    " Echevarría": 7099,
    " Based": 7100,
    " Actress": 7101,
    " Time": 7102,
    " complet": 7103,
    " 0106504": 7104,
    " 0413879": 7105,
    " Aaron": 7106,
    " Christian": 7107,
    " screenings": 7108,
    " 1931": 7109,
    " Boy": 7110,
    " Arm": 7111,
    " refers": 7112,
    " incor": 7113,
    " incorpor": 7114,
    " incorporated": 7115,
    " Riv": 7116,
    "ting": 7117,
    " dance": 7118,
    "iy": 7119,
    " Kumar": 7120,
    " ph": 7121,
    " phot": 7122,
    " photograph": 7123,
    " sched": 7124,
    " schedul": 7125,
    " scheduled": 7126,
    " alle": 7127,
    " alleg": 7128,
    "rangler": 7129,
    " Nando": 7130,
    " shots": 7131,
    " land": 7132,
    " native": 7133,
    " region": 7134,
    " quest": 7135,
    " su": 7136,
    " sever": 7137,
    " several": 7138,
    " mater": 7139,
    " material": 7140,
    " Crit": 7141,
    " Critics": 7142,
    " qué": 7143,
    " (\"": 7144,
    " dis": 7145,
    " occur": 7146,
    " occurred": 7147,
    " support": 7148,
    " Ford": 7149,
    " Fury": 7150,
    " Bet": 7151,
    " Mrinal": 7152,
    "rilog": 7153,
    "rilogy": 7154,
    " Sev": 7155,
    " star": 7156,
    " corr": 7157,
    " corruption": 7158,
    " Crom": 7159,
    " Buckley": 7160,
    " repres": 7161,
    " represent": 7162,
    " Sydney": 7163,
    " portrays": 7164,
    " children": 7165,
    " marria": 7166,
    " marriage": 7167,
    "ious": 7168,
    "obi": 7169,
    "obiograph": 7170,
    " earned": 7171,
    " each": 7172,
    " backd": 7173,
    " backdrop": 7174,
    "odern": 7175,
    " there": 7176,
    " Song": 7177,
    " Singh": 7178,
    " 0044466": 7179,
    " Sim": 7180,
    " 1975": 7181,
    "television": 7182,
    " CBS": 7183,
    " Late": 7184,
    " Center": 7185,
    " actual": 7186,
    " inmates": 7187,
    " Chann": 7188,
    " Channel": 7189,
    " Original": 7190,
    " Rain": 7191,
    " Hurst": 7192,
    " Direction": 7193,
    " Isobe": 7194,
    "arrative": 7195,
    " 0042296": 7196,
    "izi": 7197,
    "iziott": 7198,
    "iziottes": 7199,
    " Leo": 7200,
    " Phili": 7201,
    " partially": 7202,
    " rock": 7203,
    " Os": 7204,
    " Boss": 7205,
    " Alice": 7206,
    " Cadet": 7207,
    " summer": 7208,
    " cam": 7209,
    " Roger": 7210,
    " Joey": 7211,
    " whose": 7212,
    " taken": 7213,
    " Party": 7214,
    " &": 7215,
    " reis": 7216,
    "lues": 7217,
    " Kingdom": 7218,
    " ps": 7219,
    " psy": 7220,
    " psych": 7221,
    " psychol": 7222,
    " psycholog": 7223,
    " psychological": 7224,
    " Auteuil": 7225,
    " Bin": 7226,
    " Binoche": 7227,
    " cou": 7228,
    "oin": 7229,
    "oint": 7230,
    " childhood": 7231,
    " memories": 7232,
    " Alger": 7233,
    " Algerian": 7234,
    " Maj": 7235,
    " Majid": 7236,
    "gro": 7237,
    " 1961": 7238,
    " Cach": 7239,
    " Caché": 7240,
    " open": 7241,
    " opened": 7242,
    " consider": 7243,
    " considerable": 7244,
    " interp": 7245,
    " interpret": 7246,
    " collect": 7247,
    " collective": 7248,
    " general": 7249,
    "ented": 7250,
    " do": 7251,
    " does": 7252,
    " explic": 7253,
    " explicit": 7254,
    "ends": 7255,
    " awards": 7256,
    " Director": 7257,
    " five": 7258,
    " Europ": 7259,
    " European": 7260,
    " great": 7261,
    " greatest": 7262,
    " 2000": 7263,
    "BC": 7264,
    " 1994": 7265,
    " Adam": 7266,
    " sit": 7267,
    " Landers": 7268,
    " Wright": 7269,
    " ter": 7270,
    " Sweet": 7271,
    "iring": 7272,
    " Brown": 7273,
    " 0027414": 7274,
    " Lake": 7275,
    " killing": 7276,
    " vill": 7277,
    " villain": 7278,
    " House": 7279,
    " Amala": 7280,
    "atography": 7281,
    " 0062773": 7282,
    " Met": 7283,
    " Charles": 7284,
    " Travis": 7285,
    " Ingram": 7286,
    " executive": 7287,
    " Pressure": 7288,
    "also": 7289,
    " Ele": 7290,
    " Ross": 7291,
    " Vir": 7292,
    " Marco": 7293,
    " María": 7294,
    " Bab": 7295,
    " Baby": 7296,
    " Caino": 7297,
    " Alessandro": 7298,
    " 1986": 7299,
    " broth": 7300,
    " brothers": 7301,
    " Lorenzo": 7302,
    " Seny": 7303,
    " Senyora": 7304,
    " Pina": 7305,
    " due": 7306,
    " Bec": 7307,
    " wife": 7308,
    " Inc": 7309,
    " restor": 7310,
    " restored": 7311,
    " Melo": 7312,
    "onist": 7313,
    " 0366276": 7314,
    " Mail": 7315,
    " Thompson": 7316,
    " Bron": 7317,
    " Bronson": 7318,
    " Jason": 7319,
    " often": 7320,
    " third": 7321,
    " adaptation": 7322,
    " deadly": 7323,
    " Edward": 7324,
    " Shirley": 7325,
    "real": 7326,
    " Prix": 7327,
    ".-": 7328,
    " Associ": 7329,
    " Association": 7330,
    " Rachel": 7331,
    " Seif": 7332,
    " epic": 7333,
    " Pastrone": 7334,
    " Carthage": 7335,
    " Second": 7336,
    " BC": 7337,
    " Cabiria": 7338,
    " Et": 7339,
    " North": 7340,
    " makes": 7341,
    " many": 7342,
    "iam": 7343,
    "aving": 7344,
    " President": 7345,
    " dau": 7346,
    " daugh": 7347,
    " daughter": 7348,
    " Belgi": 7349,
    " Belgium": 7350,
    " Ren": 7351,
    " depicts": 7352,
    " filmmaker": 7353,
    "ator": 7354,
    "term": 7355,
    " Sky": 7356,
    " Vincente": 7357,
    " Horne": 7358,
    " Lucifer": 7359,
    " Junior": 7360,
    " preservation": 7361,
    " Regist": 7362,
    " Registry": 7363,
    "cult": 7364,
    "cultur": 7365,
    "culturally": 7366,
    " historically": 7367,
    " aest": 7368,
    " aesthe": 7369,
    " aesthetically": 7370,
    " sign": 7371,
    " signif": 7372,
    " significan": 7373,
    " significant": 7374,
    " Spec": 7375,
    " Specog": 7376,
    " Specogna": 7377,
    " African": 7378,
    " full": 7379,
    "onies": 7380,
    " victims": 7381,
    " armed": 7382,
    "010": 7383,
    " Cairo": 7384,
    " Men": 7385,
    " Asim": 7386,
    " Abbasi": 7387,
    " Bukhari": 7388,
    " Adnan": 7389,
    " erot": 7390,
    " erotic": 7391,
    " strong": 7392,
    " Pruss": 7393,
    " Prussian": 7394,
    " hold": 7395,
    " connected": 7396,
    " prom": 7397,
    " 1962": 7398,
    " cabaret": 7399,
    " Payne": 7400,
    " Sain": 7401,
    " Saint": 7402,
    " cur": 7403,
    " curren": 7404,
    " current": 7405,
    " Records": 7406,
    "luent": 7407,
    "luential": 7408,
    " Leonard": 7409,
    " musician": 7410,
    " musicians": 7411,
    " Wal": 7412,
    " Walker": 7413,
    "owles": 7414,
    " Amer": 7415,
    " America": 7416,
    " soundtrack": 7417,
    " 0106505": 7418,
    " Jimmy": 7419,
    " 025": 7420,
    " 0256667": 7421,
    " Noah": 7422,
    " Rider": 7423,
    " Strong": 7424,
    " Giuseppe": 7425,
    " flesh": 7426,
    " Dick": 7427,
    " Fosse": 7428,
    " Grey": 7429,
    "row": 7430,
    " Kander": 7431,
    " Ebb": 7432,
    " Ish": 7433,
    " Isher": 7434,
    " Isherwood": 7435,
    "ultip": 7436,
    "ultiple": 7437,
    " numbers": 7438,
    " stage": 7439,
    " entire": 7440,
    " Sally": 7441,
    " Oscars": 7442,
    " Picture": 7443,
    " 50": 7444,
    " Rev": 7445,
    " Review": 7446,
    " 1995": 7447,
    " Smith": 7448,
    " exper": 7449,
    " Kell": 7450,
    " Kellogg": 7451,
    " content": 7452,
    " Dreamin": 7453,
    "endless": 7454,
    "fâ": 7455,
    "fâr": 7456,
    "fârș": 7457,
    "fârșit": 7458,
    " Romanian": 7459,
    " Nemescu": 7460,
    "ertain": 7461,
    " minutes": 7462,
    " Don": 7463,
    " Finn": 7464,
    " Finnish": 7465,
    " Graham": 7466,
    " Dang": 7467,
    "zech": 7468,
    "Forgotten": 7469,
    "Children": 7470,
    "Carissa": 7471,
    "Phelps": 7472,
    " Maril": 7473,
    " Marilyn": 7474,
    " Astor": 7475,
    " Roach": 7476,
    " Beery": 7477,
    " People": 7478,
    " Foran": 7479,
    " Cobb": 7480,
    "orney": 7481,
    " Against": 7482,
    " Slavery": 7483,
    " Youth": 7484,
    " Pol": 7485,
    " Police": 7486,
    " Depart": 7487,
    " Department": 7488,
    "ize": 7489,
    " educate": 7490,
    "018": 7491,
    "010650": 7492,
    "1945": 7493,
    " Milland": 7494,
    " singing": 7495,
    " dubb": 7496,
    " dubbed": 7497,
    " Kay": 7498,
    " Germa": 7499,
    " Germaine": 7500,
    " Goran": 7501,
    " Paskaljević": 7502,
    " Mik": 7503,
    " Miki": 7504,
    " Mano": 7505,
    " Manojlović": 7506,
    " Nebojša": 7507,
    " Glogovac": 7508,
    " Б": 7509,
    " Бу": 7510,
    " Бур": 7511,
    " Буре": 7512,
    " б": 7513,
    " ба": 7514,
    " бар": 7515,
    " бару": 7516,
    " барут": 7517,
    " барута": 7518,
    "Bure": 7519,
    " bar": 7520,
    " baruta": 7521,
    " mean": 7522,
    " means": 7523,
    " spe": 7524,
    " speak": 7525,
    " speaking": 7526,
    " count": 7527,
    " countries": 7528,
    " offic": 7529,
    " official": 7530,
    " reason": 7531,
    " change": 7532,
    " Cost": 7533,
    " Costner": 7534,
    " alre": 7535,
    " already": 7536,
    " regist": 7537,
    " registered": 7538,
    " project": 7539,
    " distin": 7540,
    " distinctions": 7541,
    " FIP": 7542,
    " FIPR": 7543,
    " FIPRE": 7544,
    " FIPRES": 7545,
    " FIPRESC": 7546,
    " FIPRESCI": 7547,
    " Paulo": 7548,
    " Betti": 7549,
    " Cló": 7550,
    " Clóvis": 7551,
    " Bueno": 7552,
    " Lázaro": 7553,
    " mira": 7554,
    " miracle": 7555,
    " preto": 7556,
    " vel": 7557,
    " velho": 7558,
    " Nasc": 7559,
    " Nasciment": 7560,
    " Nascimento": 7561,
    " Rel": 7562,
    " Religi": 7563,
    " Religião": 7564,
    " Fri": 7565,
    " Frioli": 7566,
    " quil": 7567,
    " quilom": 7568,
    " quilombo": 7569,
    " sour": 7570,
    " source": 7571,
    " spi": 7572,
    " spiritual": 7573,
    " located": 7574,
    " tod": 7575,
    " today": 7576,
    " Salto": 7577,
    " Pira": 7578,
    " Pirapor": 7579,
    " Pirapora": 7580,
    " Jorge": 7581,
    " Bech": 7582,
    " Bechara": 7583,
    " Luque": 7584,
    " Clari": 7585,
    " Claribel": 7586,
    " Medina": 7587,
    " Ley": 7588,
    " Leyes": 7589,
    " Number": 7590,
    " fiacre": 7591,
    "melodrama": 7592,
    " Mattoli": 7593,
    " Kenney": 7594,
    " Rodney": 7595,
    " Knight": 7596,
    " Sarah": 7597,
    " Holc": 7598,
    " Holcomb": 7599,
    " Cin": 7600,
    " Cindy": 7601,
    " Morgan": 7602,
    " boost": 7603,
    " boosted": 7604,
    " care": 7605,
    " career": 7606,
    " mostly": 7607,
    " stand": 7608,
    " Grossing": 7609,
    " dom": 7610,
    " domest": 7611,
    " domestic": 7612,
    " 17": 7613,
    "highest": 7614,
    " comedies": 7615,
    " ES": 7616,
    " ESP": 7617,
    " ESPN": 7618,
    "perha": 7619,
    "perhaps": 7620,
    " funn": 7621,
    " funni": 7622,
    " funniest": 7623,
    "1988": 7624,
    " reprised": 7625,
    " Palmer": 7626,
    " Netflix": 7627,
    " select": 7628,
    " Curzon": 7629,
    " Cinemas": 7630,
    " Scot": 7631,
    " Scotland": 7632,
    " conc": 7633,
    " concerns": 7634,
    " incidents": 7635,
    " hunt": 7636,
    " hunting": 7637,
    " remote": 7638,
    " Scottish": 7639,
    " High": 7640,
    " Highlands": 7641,
    " Lowden": 7642,
    " McCann": 7643,
    "Cadetes": 7644,
    " Martí": 7645,
    " Martín": 7646,
    " Soffici": 7647,
    " Enrique": 7648,
    " Muiño": 7649,
    " Elías": 7650,
    " Ali": 7651,
    " Alipp": 7652,
    " Alippi": 7653,
    " Mabel": 7654,
    " Marion": 7655,
    " Davies": 7656,
    "stars": 7657,
    " Clar": 7658,
    " Clark": 7659,
    " Gable": 7660,
    " 1924": 7661,
    " Randolph": 7662,
    " Cos": 7663,
    " Cosm": 7664,
    " Cosmop": 7665,
    " Cosmopol": 7666,
    " Cosmopolit": 7667,
    " Cosmopolitan": 7668,
    " Anita": 7669,
    " Paige": 7670,
    " intro": 7671,
    " introd": 7672,
    " introduc": 7673,
    " introduced": 7674,
    "'ll": 7675,
    " Sing": 7676,
    " Thous": 7677,
    " Thousand": 7678,
    " Songs": 7679,
    " words": 7680,
    " Dubin": 7681,
    "Coney": 7682,
    "Here": 7683,
    " Comes": 7684,
    " Chi": 7685,
    " Chiqu": 7686,
    " Chiquita": 7687,
    " Worlds": 7688,
    " Collide": 7689,
    " Quin": 7690,
    " Quinones": 7691,
    " Montag": 7692,
    " Montagn": 7693,
    " Montagnani": 7694,
    " Good": 7695,
    " Gina": 7696,
    " Gershon": 7697,
    " Jay": 7698,
    " Reso": 7699,
    " Liddell": 7700,
    " MM": 7701,
    " MMA": 7702,
    " ag": 7703,
    " agrees": 7704,
    " defend": 7705,
    " championship": 7706,
    " wrest": 7707,
    " wrestler": 7708,
    " streaming": 7709,
    " service": 7710,
    " FIT": 7711,
    " FITE": 7712,
    " Derby": 7713,
    " Ost": 7714,
    " Ostend": 7715,
    " Wesemael": 7716,
    "003923": 7717,
    " Solo": 7718,
    " Lewy": 7719,
    " Carlyle": 7720,
    " acqui": 7721,
    " acquired": 7722,
    " Strand": 7723,
    " given": 7724,
    " slas": 7725,
    " slasher": 7726,
    " spo": 7727,
    " spoof": 7728,
    " Sle": 7729,
    " Sleep": 7730,
    " Sleepaway": 7731,
    " Chom": 7732,
    " Chomicki": 7733,
    " Macf": 7734,
    " Macfarl": 7735,
    " Macfarlane": 7736,
    " Fright": 7737,
    " Fest": 7738,
    " Louisv": 7739,
    " Louisvil": 7740,
    " Louisville": 7741,
    " Kent": 7742,
    " Kentuc": 7743,
    " Kentucky": 7744,
    " Horror": 7745,
    " went": 7746,
    " Long": 7747,
    " Ligh": 7748,
    " Lighth": 7749,
    " Lighthouse": 7750,
    " Trai": 7751,
    " By": 7752,
    " Byers": 7753,
    " rose": 7754,
    " fame": 7755,
    " Hostess": 7756,
    " Sid": 7757,
    " Sidney": 7758,
    " Salk": 7759,
    " Salkow": 7760,
    " Preston": 7761,
    " Foster": 7762,
    " Ann": 7763,
    " Dvorak": 7764,
    " Shumate": 7765,
    " Garnett": 7766,
    " Higgin": 7767,
    " Prior": 7768,
    " warned": 7769,
    " MP": 7770,
    " MPA": 7771,
    " MPAA": 7772,
    " comply": 7773,
    " code": 7774,
    " unclear": 7775,
    " whe": 7776,
    " whether": 7777,
    " changes": 7778,
    " Waiting": 7779,
    " 等": 7780,
    " 等一": 7781,
    " 等一個": 7782,
    " 等一個人": 7783,
    " 等一個人咖": 7784,
    " 等一個人咖啡": 7785,
    " pin": 7786,
    " piny": 7787,
    " pinyin": 7788,
    " Dě": 7789,
    " Děn": 7790,
    " Děng": 7791,
    " yī": 7792,
    " yīg": 7793,
    " yīgè": 7794,
    " rén": 7795,
    " kā": 7796,
    " kāf": 7797,
    " kāfē": 7798,
    " kāfēi": 7799,
    " Someone": 7800,
    " Chiang": 7801,
    " Chin": 7802,
    " Giddens": 7803,
    " 38": 7804,
    " 1919": 7805,
    " exist": 7806,
    " existing": 7807,
    " Edgar": 7808,
    " Lewis": 7809,
    " contain": 7810,
    " contains": 7811,
    " Prithviraj": 7812,
    " Sukumaran": 7813,
    " Navya": 7814,
    " Zarina": 7815,
    " Wahab": 7816,
    " Mukesh": 7817,
    " Jag": 7818,
    " Jagathy": 7819,
    " Sre": 7820,
    " Sreek": 7821,
    " Sreekumar": 7822,
    " Mani": 7823,
    " Maniyan": 7824,
    " Maniyanp": 7825,
    " Maniyanpilla": 7826,
    " Raju": 7827,
    " Station": 7828,
    " Iron": 7829,
    " Gate": 7830,
    " ب": 7831,
    " با": 7832,
    " باب": 7833,
    " الح": 7834,
    " الحد": 7835,
    " الحدي": 7836,
    " الحديد": 7837,
    " Bā": 7838,
    " Bāb": 7839,
    "Ḥad": 7840,
    "Ḥadī": 7841,
    "Ḥadīd": 7842,
    " 1958": 7843,
    " Youssef": 7844,
    " Chahine": 7845,
    " competition": 7846,
    " 31": 7847,
    " found": 7848,
    " rene": 7849,
    " renewed": 7850,
    " generations": 7851,
    " lovers": 7852,
    " hailed": 7853,
    " mast": 7854,
    " master": 7855,
    " masterp": 7856,
    " masterpie": 7857,
    " masterpiece": 7858,
    " style": 7859,
    " neore": 7860,
    " neoreal": 7861,
    " neorealist": 7862,
    " Themes": 7863,
    " depicted": 7864,
    " include": 7865,
    " gend": 7866,
    " gender": 7867,
    " violence": 7868,
    " repress": 7869,
    " repression": 7870,
    " Fam": 7871,
    " Famous": 7872,
    " Play": 7873,
    " Players": 7874,
    " Vignola": 7875,
    " Gilda": 7876,
    " Un": 7877,
    " Under": 7878,
    " Underw": 7879,
    " Underworld": 7880,
    " presumed": 7881,
    " lost": 7882,
    " winn": 7883,
    " winner": 7884,
    " Phot": 7885,
    " Photop": 7886,
    " Photoplay": 7887,
    " Lumière": 7888,
    "珈琲": 7889,
    "珈琲時": 7890,
    "珈琲時光": 7891,
    " Kō": 7892,
    " Kōh": 7893,
    " Kōhī": 7894,
    " Jik": 7895,
    " Jikō": 7896,
    " Hou": 7897,
    " Hsiao": 7898,
    " Sho": 7899,
    " Shoch": 7900,
    " Shochiku": 7901,
    " hom": 7902,
    " homage": 7903,
    " Yas": 7904,
    " Yasuj": 7905,
    " Yasujir": 7906,
    " Yasujirō": 7907,
    " refer": 7908,
    " reference": 7909,
    "195": 7910,
    "1953": 7911,
    " commem": 7912,
    " commemor": 7913,
    " commemorating": 7914,
    " centen": 7915,
    " centenary": 7916,
    " birth": 7917,
    " Stra": 7918,
    " Straight": 7919,
    " Ahead": 7920,
    " driv": 7921,
    " drivers": 7922,
    " Lubin": 7923,
    " Universal": 7924,
    " memor": 7925,
    " memorable": 7926,
    " race": 7927,
    " carav": 7928,
    " caravan": 7929,
    " trucks": 7930,
    " train": 7931,
    " Barn": 7932,
    " Barnz": 7933,
    " Tob": 7934,
    " Tobin": 7935,
    " Adriana": 7936,
    " Barr": 7937,
    " Barraza": 7938,
    " Felicity": 7939,
    " Huffman": 7940,
    " Macy": 7941,
    " Kendrick": 7942,
    " Worthington": 7943,
    " Special": 7944,
    " Present": 7945,
    " Presentations": 7946,
    " section": 7947,
    " Cake": 7948,
    " bomb": 7949,
    " dramatic": 7950,
    " Screen": 7951,
    " Actors": 7952,
    " Guild": 7953,
    " spasso": 7954,
    " tesoro": 7955,
    "Treas": 7956,
    "Treasure": 7957,
    "')": 7958,
    " Hamil": 7959,
    " Petro": 7960,
    " Petroff": 7961,
    " Jock": 7962,
    " Mahoney": 7963,
    " Faith": 7964,
    " Domergue": 7965,
    " obstinées": 7966,
    " Cad": 7967,
    " Cadê": 7968,
    " Cadên": 7969,
    " Cadênc": 7970,
    " Cadências": 7971,
    " Ob": 7972,
    " Obstin": 7973,
    " Obstinadas": 7974,
    " Fanny": 7975,
    " Ardant": 7976,
    " Nigel": 7977,
    " Produced": 7978,
    " Touc": 7979,
    " Touch": 7980,
    " Touchstone": 7981,
    " Firth": 7982,
    " Tow": 7983,
    " Towhi": 7984,
    " Towhidi": 7985,
    "aged": 7986,
    " Yorksh": 7987,
    " Yorkshire": 7988,
    " nude": 7989,
    " calendar": 7990,
    " Leuka": 7991,
    " Leukaem": 7992,
    " Leukaemia": 7993,
    " Research": 7994,
    " aus": 7995,
    " ausp": 7996,
    " auspices": 7997,
    " Institutes": 7998,
    " 1999": 7999,
    " dies": 8000,
    " can": 8001,
    " cancer": 8002,
    " Julie": 8003,
    " Bassett": 8004,
    " Annette": 8005,
    " Crosbie": 8006,
    " Celia": 8007,
    " Imrie": 8008,
    " Pen": 8009,
    " Penelope": 8010,
    " Wilton": 8011,
    " Harriet": 8012,
    " Thorpe": 8013,
    " Glen": 8014,
    " Glenister": 8015,
    " Locarn": 8016,
    " Locarno": 8017,
    " Filmf": 8018,
    " Filmfest": 8019,
    " Hambur": 8020,
    " Hamburg": 8021,
    " Dinard": 8022,
    " Cinema": 8023,
    " Wars": 8024,
    " Warsaw": 8025,
    " react": 8026,
    " reactions": 8027,
    " compar": 8028,
    " compared": 8029,
    " Full": 8030,
    " Monty": 8031,
    "1997": 8032,
    "93": 8033,
    " worldw": 8034,
    " worldwide": 8035,
    " awarded": 8036,
    " AL": 8037,
    " ALF": 8038,
    " ALFS": 8039,
    " Satell": 8040,
    " Satellite": 8041,
    " LaCour": 8042,
    " Sanders": 8043,
    " Johnson": 8044,
    " Faten": 8045,
    " Hamama": 8046,
    " Meillon": 8047,
    " Ahmed": 8048,
    " Maz": 8049,
    " Mazhar": 8050,
    " Po": 8051,
    " Pohlmann": 8052,
    " scene": 8053,
    "scene": 8054,
    " Hust": 8055,
    " Huston": 8056,
    " Asph": 8057,
    " Asphalt": 8058,
    " Jungle": 8059,
    " Cantante": 8060,
    " Momplet": 8061,
    " Deadly": 8062,
    " Xmas": 8063,
    " Lloyd": 8064,
    " Kaufman": 8065,
    " Linnea": 8066,
    " Quigley": 8067,
    " Debb": 8068,
    " Debbie": 8069,
    " Roch": 8070,
    " Rochon": 8071,
    " cameo": 8072,
    "Dar": 8073,
    " Risk": 8074,
    " Must": 8075,
    " Cesar": 8076,
    " Cesare": 8077,
    " deve": 8078,
    " mor": 8079,
    " morire": 8080,
    " Paolo": 8081,
    " Vittorio": 8082,
    " Taviani": 8083,
    " competed": 8084,
    "nd": 8085,
    " Bear": 8086,
    " Rebibb": 8087,
    " Rebibbia": 8088,
    " Prison": 8089,
    "sub": 8090,
    "subur": 8091,
    "suburb": 8092,
    " Rome": 8093,
    " convicts": 8094,
    " rehe": 8095,
    " rehears": 8096,
    " rehearsal": 8097,
    " rehearsals": 8098,
    " ahead": 8099,
    " Juli": 8100,
    " Julius": 8101,
    " Loew": 8102,
    " McCla": 8103,
    " McClain": 8104,
    " ide": 8105,
    " idea": 8106,
    " Ladis": 8107,
    " Ladislas": 8108,
    " Fodor": 8109,
    " news": 8110,
    " shipwrecked": 8111,
    " tor": 8112,
    " torped": 8113,
    " torpedo": 8114,
    " attack": 8115,
    " teams": 8116,
    " maid": 8117,
    " foil": 8118,
    " Stothart": 8119,
    " Jeanette": 8120,
    " contract": 8121,
    " init": 8122,
    " initial": 8123,
    " Nollywood": 8124,
    " Prosper": 8125,
    " Edes": 8126,
    " Edesi": 8127,
    " Edesiri": 8128,
    " Tong": 8129,
    " Tongry": 8130,
    " Tongryang": 8131,
    " Pant": 8132,
    " Pantu": 8133,
    " Sask": 8134,
    " Saskay": 8135,
    " Patience": 8136,
    " Ozokwor": 8137,
    " Emman": 8138,
    " Emmanuel": 8139,
    " Jib": 8140,
    " Jibun": 8141,
    " Jibunor": 8142,
    " Asaya": 8143,
    " Tope": 8144,
    " Tedela": 8145,
    " Soph": 8146,
    " Sophie": 8147,
    " Ala": 8148,
    " Alaki": 8149,
    " Alakija": 8150,
    " Fol": 8151,
    " Folu": 8152,
    " Stor": 8153,
    " Storms": 8154,
    " Dot": 8155,
    " Dotun": 8156,
    " Ola": 8157,
    " Olak": 8158,
    " Olakun": 8159,
    " Olakunri": 8160,
    " Executive": 8161,
    " Producer": 8162,
    " Guk": 8163,
    " Gukas": 8164,
    " Filmwork": 8165,
    " Filmworks": 8166,
    " Mic": 8167,
    " Michel": 8168,
    " Michelang": 8169,
    " Michelangelo": 8170,
    " Family": 8171,
    " Friend": 8172,
    " Friendly": 8173,
    " Company": 8174,
    " FilmO": 8175,
    " FilmOne": 8176,
    " Tit": 8177,
    " Title": 8178,
    " Ipsen": 8179,
    " Lauritzen": 8180,
    " fine": 8181,
    " finest": 8182,
    " ill": 8183,
    " illum": 8184,
    " illumin": 8185,
    " illuminates": 8186,
    " proble": 8187,
    " problems": 8188,
    " alco": 8189,
    " alcohol": 8190,
    " alcoholism": 8191,
    " workman": 8192,
    " Poul": 8193,
    " Reichhardt": 8194,
    " dr": 8195,
    " drin": 8196,
    " drinks": 8197,
    " too": 8198,
    " much": 8199,
    " beer": 8200,
    " beli": 8201,
    " believes": 8202,
    " just": 8203,
    " need": 8204,
    " needs": 8205,
    " They": 8206,
    " both": 8207,
    " face": 8208,
    " conse": 8209,
    " consequ": 8210,
    " consequences": 8211,
    " addi": 8212,
    " addictions": 8213,
    " Affair": 8214,
    " Ricketts": 8215,
    " Also": 8216,
    " Field": 8217,
    " Edith": 8218,
    " Borel": 8219,
    " Borella": 8220,
    " Reeves": 8221,
    " Eason": 8222,
    "apoc": 8223,
    "apocaly": 8224,
    "apocalypt": 8225,
    "apocalyptic": 8226,
    " porn": 8227,
    " pornograph": 8228,
    " pornographic": 8229,
    " Steph": 8230,
    " Stephen": 8231,
    "Rin": 8232,
    "Rinse": 8233,
    " Sta": 8234,
    " Stahl": 8235,
    " Day": 8236,
    "\").": 8237,
    " Mitchell": 8238,
    " Froom": 8239,
    " alb": 8240,
    " album": 8241,
    " Cool": 8242,
    " without": 8243,
    " partic": 8244,
    " particip": 8245,
    " participation": 8246,
    " creators": 8247,
    " Passol": 8248,
    " Passolini": 8249,
    " deg": 8250,
    " degree": 8251,
    " popularity": 8252,
    " appe": 8253,
    " appeal": 8254,
    " Vanity": 8255,
    " К": 8256,
    " Ка": 8257,
    " Каи": 8258,
    " Каин": 8259,
    " Ev": 8260,
    " Evgeny": 8261,
    " Shvarts": 8262,
    " industry": 8263,
    " spect": 8264,
    " spectat": 8265,
    " spectators": 8266,
    " saw": 8267,
    " dalle": 8268,
    " nubi": 8269,
    " Gennaro": 8270,
    " Nun": 8271,
    " Nunziante": 8272,
    " Madh": 8273,
    " Madhur": 8274,
    " Sange": 8275,
    " Sangeeta": 8276,
    " Ahir": 8277,
    " Entertainment": 8278,
    " Akanksha": 8279,
    " Puri": 8280,
    " female": 8281,
    " Anjjan": 8282,
    " Amaal": 8283,
    " Mallik": 8284,
    " 75": 8285,
    " reality": 8286,
    " Makes": 8287,
    " Perfect": 8288,
    " subject": 8289,
    " Lord": 8290,
    " sla": 8291,
    " slap": 8292,
    " slapst": 8293,
    " slapstick": 8294,
    " Three": 8295,
    " Sto": 8296,
    " Stoog": 8297,
    " Stooges": 8298,
    " Fine": 8299,
    " Curly": 8300,
    " 61": 8301,
    " comedians": 8302,
    " 190": 8303,
    " shorts": 8304,
    " 1934": 8305,
    " 1959": 8306,
    " Archive": 8307,
    " Funiculi": 8308,
    " Funicula": 8309,
    "コー": 8310,
    "コーヒ": 8311,
    "コーヒー": 8312,
    "コーヒーが": 8313,
    "コーヒーが冷": 8314,
    "コーヒーが冷め": 8315,
    "コーヒーが冷めな": 8316,
    "コーヒーが冷めない": 8317,
    "コーヒーが冷めないう": 8318,
    "コーヒーが冷めないうち": 8319,
    "コーヒーが冷めないうちに": 8320,
    " Kohi": 8321,
    " ga": 8322,
    " Samen": 8323,
    " Samenai": 8324,
    " Uchi": 8325,
    " ni": 8326,
    "Before": 8327,
    " Kas": 8328,
    " Kasumi": 8329,
    " Ari": 8330,
    " Arimura": 8331,
    " Before": 8332,
    " Noir": 8333,
    "Korean": 8334,
    " 카": 8335,
    " 카페": 8336,
    " 느": 8337,
    " 느와": 8338,
    " 느와르": 8339,
    " RR": 8340,
    "neu": 8341,
    "wa": 8342,
    "reu": 8343,
    " Kore": 8344,
    " Korean": 8345,
    " melodrama": 8346,
    " Shin": 8347,
    " Ha": 8348,
    " Moon": 8349,
    " Jeong": 8350,
    " Kim": 8351,
    " Hye": 8352,
    " Writ": 8353,
    " Written": 8354,
    "time": 8355,
    " critic": 8356,
    "turned": 8357,
    " contemp": 8358,
    " contemplation": 8359,
    " heart": 8360,
    " heartbre": 8361,
    " heartbreak": 8362,
    " lar": 8363,
    " larg": 8364,
    " largely": 8365,
    " liter": 8366,
    " literature": 8367,
    " -": 8368,
    " Johann": 8369,
    " Wolfgang": 8370,
    " Go": 8371,
    " Goet": 8372,
    " Goethe": 8373,
    " Sorrows": 8374,
    " Wer": 8375,
    " Werther": 8376,
    " Fy": 8377,
    " Fyodor": 8378,
    " Dost": 8379,
    " Dostoy": 8380,
    " Dostoyev": 8381,
    " Dostoyevsky": 8382,
    " Nights": 8383,
    " critically": 8384,
    " acclaimed": 8385,
    " 66": 8386,
    " Talent": 8387,
    " Pix": 8388,
    " Copen": 8389,
    " Copenha": 8390,
    " Copenhag": 8391,
    " Copenhagen": 8392,
    "Norwegian": 8393,
    " Kadav": 8394,
    " Kadaver": 8395,
    " Norwegian": 8396,
    " Jar": 8397,
    " Jarand": 8398,
    " Herdal": 8399,
    " Git": 8400,
    " Gitte": 8401,
    " Witt": 8402,
    " Gul": 8403,
    " Gulle": 8404,
    " Gullest": 8405,
    " Gullestad": 8406,
    " Thorbjørn": 8407,
    " Seton": 8408,
    " Alan": 8409,
    " Bendix": 8410,
    " cortadas": 8411,
    " Sever": 8412,
    " Severed": 8413,
    " translated": 8414,
    " Cutt": 8415,
    " Cutting": 8416,
    " Portuguese": 8417,
    " Cab": 8418,
    " Cabe": 8419,
    " Cabeç": 8420,
    " Cabeças": 8421,
    " Cortadas": 8422,
    "Brazilian": 8423,
    " Glauber": 8424,
    " Rocha": 8425,
    " screw": 8426,
    " screwb": 8427,
    " screwball": 8428,
    " Saks": 8429,
    " Matthau": 8430,
    " Ingrid": 8431,
    " Bergman": 8432,
    " Goldie": 8433,
    " Hawn": 8434,
    " Along": 8435,
    " Hello": 8436,
    " Dolly": 8437,
    "!,": 8438,
    " Age": 8439,
    ".[": 8440,
    "citation": 8441,
    "?]": 8442,
    " Diamond": 8443,
    " Abe": 8444,
    " Burrows": 8445,
    " Fle": 8446,
    " Fleur": 8447,
    " cact": 8448,
    " cactus": 8449,
    " Barill": 8450,
    " Barillet": 8451,
    " Gredy": 8452,
    " Cactus": 8453,
    " nin": 8454,
    " ninth": 8455,
    " highest": 8456,
    "grossing": 8457,
    " Childhood": 8458,
    " une": 8459,
    " enf": 8460,
    " enfance": 8461,
    "Danish": 8462,
    " Ré": 8463,
    " Rémi": 8464,
    " Chay": 8465,
    " Chayé": 8466,
    " fronti": 8467,
    " frontiers": 8468,
    " frontiersw": 8469,
    " frontierswoman": 8470,
    " Heroine": 8471,
    " Lorimer": 8472,
    " Johnston": 8473,
    " Wedding": 8474,
    " circuit": 8475,
    " Other": 8476,
    " bow": 8477,
    " AF": 8478,
    " AFI": 8479,
    " Kain": 8480,
    " 1918": 8481,
    " Mas": 8482,
    " Masch": 8483,
    " Maschke": 8484,
    " Erich": 8485,
    " Kaiser": 8486,
    "Titz": 8487,
    " Ol": 8488,
    " Olga": 8489,
    " Engl": 8490,
    " Rein": 8491,
    " Reinhold": 8492,
    " Schün": 8493,
    " Schünz": 8494,
    " Schünzel": 8495,
    " sep": 8496,
    " separ": 8497,
    " separate": 8498,
    " Ver": 8499,
    " Verh": 8500,
    " Verhän": 8501,
    " Verhäng": 8502,
    " Verhängn": 8503,
    " Verhängnis": 8504,
    " auf": 8505,
    " Schlo": 8506,
    " Schloß": 8507,
    " Sant": 8508,
    " Santar": 8509,
    " Santarem": 8510,
    " Goldra": 8511,
    " Goldraus": 8512,
    " Goldrausch": 8513,
    " braga": 8514,
    " Telem": 8515,
    " Telemundo": 8516,
    " 1988": 8517,
    " Arkush": 8518,
    " PJ": 8519,
    " Jackie": 8520,
    " Stack": 8521,
    " Dyan": 8522,
    " Cannon": 8523,
    " Dina": 8524,
    " Merrill": 8525,
    " Silverman": 8526,
    " McNamara": 8527,
    " Marsha": 8528,
    " Warfield": 8529,
    " Bart": 8530,
    " Bartel": 8531,
    " Randy": 8532,
    " Quaid": 8533,
    " appearances": 8534,
    " Aykroyd": 8535,
    " offici": 8536,
    " officially": 8537,
    " credited": 8538,
    "dra": 8539,
    "draft": 8540,
    " rewritten": 8541,
    " writers": 8542,
    " pann": 8543,
    " panned": 8544,
    " worst": 8545,
    " Logg": 8546,
    " Loggins": 8547,
    "Nobo": 8548,
    "Nobody": 8549,
    " Fool": 8550,
    " chart": 8551,
    " #": 8552,
    " Billbo": 8553,
    " Billboard": 8554,
    " Hot": 8555,
    " Woody": 8556,
    " Eisenberg": 8557,
    " Krist": 8558,
    " Kristen": 8559,
    " Carell": 8560,
    " Jeannie": 8561,
    " Lively": 8562,
    " Posey": 8563,
    " Corey": 8564,
    " Stoll": 8565,
    " Stott": 8566,
    " falls": 8567,
    " ass": 8568,
    " assist": 8569,
    " assistant": 8570,
    " pow": 8571,
    " powerf": 8572,
    " powerful": 8573,
    " talent": 8574,
    " Amazon": 8575,
    " Lions": 8576,
    " Lionsgate": 8577,
    " gross": 8578,
    " grossed": 8579,
    " Portman": 8580,
    " Laurence": 8581,
    " Mauban": 8582,
    " Greg": 8583,
    " Gregson": 8584,
    " Molly": 8585,
    " Venz": 8586,
    " Venzke": 8587,
    " Sorbo": 8588,
    " Devine": 8589,
    " Cynthia": 8590,
    " Gibb": 8591,
    " Madison": 8592,
    " Garza": 8593,
    " Cassidy": 8594,
    " Gif": 8595,
    " Gifford": 8596,
    " Lov": 8597,
    " Lovat": 8598,
    " Lovato": 8599,
    " Freestyle": 8600,
    " 擦": 8601,
    " 擦包": 8602,
    " 擦包看": 8603,
    " Courtes": 8604,
    " Courtesan": 8605,
    " Indones": 8606,
    " Indonesian": 8607,
    " Nia": 8608,
    " Dinata": 8609,
    " Niniek": 8610,
    " Kar": 8611,
    " Karim": 8612,
    " Jak": 8613,
    " Jakar": 8614,
    " Jakarta": 8615,
    " Palm": 8616,
    " Springs": 8617,
    " Hin": 8618,
    " Hindi": 8619,
    " Kam": 8620,
    " Kamal": 8621,
    " Mukherjee": 8622,
    " Aritra": 8623,
    " Assorted": 8624,
    " Motion": 8625,
    " Esha": 8626,
    " Deol": 8627,
    " Anind": 8628,
    " Anindita": 8629,
    " Bose": 8630,
    " Sidd": 8631,
    " Siddhar": 8632,
    " Siddhartha": 8633,
    " Chatterjee": 8634,
    " Dimp": 8635,
    " Dimple": 8636,
    " Ach": 8637,
    " Achary": 8638,
    " Acharya": 8639,
    " Acharyaa": 8640,
    " Sherman": 8641,
    " Hart": 8642,
    "0366": 8643,
    " az": 8644,
    " azabache": 8645,
    " tumb": 8646,
    " tumba": 8647,
    " Aguilar": 8648,
    " Silvestre": 8649,
    " Jaime": 8650,
    " Fernández": 8651,
    " breed": 8652,
    " breeder": 8653,
    " Jes": 8654,
    " Jesú": 8655,
    " Jesús": 8656,
    " bu": 8657,
    " buy": 8658,
    " buying": 8659,
    "dark": 8660,
    " pursu": 8661,
    " pursuing": 8662,
    " relation": 8663,
    " relationship": 8664,
    " Alari": 8665,
    " Alarios": 8666,
    " recr": 8667,
    " recru": 8668,
    " recruited": 8669,
    " revolut": 8670,
    " revolutionary": 8671,
    " leader": 8672,
    " Panch": 8673,
    " Pancho": 8674,
    " stay": 8675,
    " stayed": 8676,
    " theaters": 8677,
    " surprising": 8678,
    " nine": 8679,
    " wee": 8680,
    " weeks": 8681,
    " McCa": 8682,
    " McCarey": 8683,
    " Rauh": 8684,
    " Hane": 8685,
    " Hanemann": 8686,
    " Lan": 8687,
    " Landis": 8688,
    " Montgomery": 8689,
    " Shepperd": 8690,
    " Strudwick": 8691,
    " Tracy": 8692,
    " Janis": 8693,
    " Carter": 8694,
    " Lowery": 8695,
    " 28": 8696,
    " Cinecon": 8697,
    " 46": 8698,
    " Fia": 8699,
    " Fiaker": 8700,
    " Ein": 8701,
    " Einsp": 8702,
    " Einspanner": 8703,
    ");": 8704,
    " Snorder": 8705,
    " Fiacre": 8706,
    " 1926": 8707,
    " Curtiz": 8708,
    " Lil": 8709,
    " Lili": 8710,
    " Dam": 8711,
    " Damita": 8712,
    " Tre": 8713,
    " Trevor": 8714,
    " Len": 8715,
    " Leni": 8716,
    " Location": 8717,
    " Split": 8718,
    " Altman": 8719,
    " Gould": 8720,
    " Seg": 8721,
    " Segal": 8722,
    " pair": 8723,
    " gamb": 8724,
    " gambl": 8725,
    " gamblers": 8726,
    "Cin": 8727,
    "Ciner": 8728,
    "Cinerama": 8729,
    " stere": 8730,
    " stereo": 8731,
    " replacing": 8732,
    " Choc": 8733,
    " Chocol": 8734,
    " Chocolate": 8735,
    " Piment": 8736,
    " Pimenta": 8737,
    " ended": 8738,
    " replaced": 8739,
    " Como": 8740,
    " Onda": 8741,
    " Wad": 8742,
    " Wadding": 8743,
    " Waddington": 8744,
    " Edm": 8745,
    " Edmara": 8746,
    " Edil": 8747,
    " Edilene": 8748,
    " Vanessa": 8749,
    " Giácomo": 8750,
    " Oliveira": 8751,
    " Patrícia": 8752,
    " Pillar": 8753,
    " Mauro": 8754,
    " Mendonça": 8755,
    " Kasting": 8756,
    " Regiane": 8757,
    " Alves": 8758,
    " Danton": 8759,
    " Mello": 8760,
    " Eriberto": 8761,
    " Leão": 8762,
    " Malvino": 8763,
    " Mosz": 8764,
    " Moszk": 8765,
    " Moszkv": 8766,
    " Moszkva": 8767,
    " Hung": 8768,
    " Hungarian": 8769,
    " advent": 8770,
    " adventure": 8771,
    " Sekely": 8772,
    " Tõ": 8773,
    " Tõk": 8774,
    " Tõkés": 8775,
    " Gy": 8776,
    " Gyul": 8777,
    " Gyula": 8778,
    " Cs": 8779,
    " Csort": 8780,
    " Csortos": 8781,
    " Fer": 8782,
    " Feren": 8783,
    " Ferenc": 8784,
    " Kiss": 8785,
    " Only": 8786,
    " One": 8787,
    " Eastern": 8788,
    " Russia": 8789,
    " convey": 8790,
    " mess": 8791,
    " message": 8792,
    " News": 8793,
    " Meera": 8794,
    " Indraj": 8795,
    " Indrajith": 8796,
    " Vim": 8797,
    " Vimala": 8798,
    " Raman": 8799,
    " Debojyoti": 8800,
    " Orphan": 8801,
    " Ker": 8802,
    " Kerala": 8803,
    " gets": 8804,
    " cau": 8805,
    " caught": 8806,
    " showcased": 8807,
    " yet": 8808,
    " gen": 8809,
    " genre": 8810,
    " successfully": 8811,
    " prov": 8812,
    " provided": 8813,
    " unli": 8814,
    " unlike": 8815,
    " usual": 8816,
    " comic": 8817,
    " Dreaming": 8818,
    " Glynnis": 8819,
    " Dennis": 8820,
    " Seymour": 8821,
    " Cassel": 8822,
    " Tanya": 8823,
    " Roberts": 8824,
    " Hancock": 8825,
    " Mullick": 8826,
    " Monroy": 8827,
    " out": 8828,
    " boxes": 8829,
    " everyd": 8830,
    " everyday": 8831,
    " object": 8832,
    " objects": 8833,
    " ran": 8834,
    " auto": 8835,
    " store": 8836,
    " mid": 8837,
    " unexpectedly": 8838,
    " coming": 8839,
    " gett": 8840,
    " getting": 8841,
    " door": 8842,
    " handle": 8843,
    " purchasing": 8844,
    " Fun": 8845,
    " wit": 8846,
    " witn": 8847,
    " witness": 8848,
    " witnessing": 8849,
    " lev": 8850,
    " level": 8851,
    " commit": 8852,
    " commitment": 8853,
    " learn": 8854,
    " learning": 8855,
    " arr": 8856,
    " arrange": 8857,
    " surprise": 8858,
    " flash": 8859,
    " customers": 8860,
    " u": 8861,
    " upl": 8862,
    " upload": 8863,
    " uploaded": 8864,
    " so": 8865,
    " soon": 8866,
    " viral": 8867,
    " video": 8868,
    " num": 8869,
    " numero": 8870,
    " numerous": 8871,
    " don": 8872,
    " donated": 8873,
    " toward": 8874,
    " towards": 8875,
    " fund": 8876,
    " est": 8877,
    " estab": 8878,
    " established": 8879,
    " recreated": 8880,
    " arc": 8881,
    " arcades": 8882,
    " respon": 8883,
    " response": 8884,
    " Ima": 8885,
    " Imagin": 8886,
    " Imagination": 8887,
    "prof": 8888,
    "profit": 8889,
    " aimed": 8890,
    " foster": 8891,
    " fostering": 8892,
    " creativity": 8893,
    " entre": 8894,
    " entrep": 8895,
    " entreprene": 8896,
    " entrepreneur": 8897,
    " entrepreneurship": 8898,
    " adults": 8899,
    " Er": 8900,
    " Erl": 8901,
    " Erlb": 8902,
    " Erlba": 8903,
    " Erlbaum": 8904,
    " Alexa": 8905,
    " Vega": 8906,
    " Jamie": 8907,
    " Kennedy": 8908,
    " boyf": 8909,
    " boyfriend": 8910,
    " Charlie": 8911,
    " inmate": 8912,
    " mil": 8913,
    " milit": 8914,
    " military": 8915,
    " Ramon": 8916,
    " Paradiso": 8917,
    "altern": 8918,
    "alternate": 8919,
    " Maxim": 8920,
    " Maximum": 8921,
    " Sec": 8922,
    " Secu": 8923,
    " Securit": 8924,
    " Security": 8925,
    " Irene": 8926,
    " Cara": 8927,
    " Kow": 8928,
    " Kowan": 8929,
    " Kowank": 8930,
    " Kowanko": 8931,
    " Paula": 8932,
    " Bond": 8933,
    " Snyder": 8934,
    " Virgin": 8935,
    " Islands": 8936,
    " plage": 8937,
    " Benoît": 8938,
    " Graffin": 8939,
    " Nolot": 8940,
    " Xuechang": 8941,
    " week": 8942,
    " earli": 8943,
    " earlier": 8944,
    " blue": 8945,
    "col": 8946,
    "collar": 8947,
    " Beij": 8948,
    " Beijing": 8949,
    " acqu": 8950,
    " acquire": 8951,
    " lic": 8952,
    " licen": 8953,
    " license": 8954,
    " hours": 8955,
    " bel": 8956,
    " belov": 8957,
    " beloved": 8958,
    " unlic": 8959,
    " unlicens": 8960,
    " unlicensed": 8961,
    " Feng": 8962,
    " Xiaogang": 8963,
    " Though": 8964,
    " subdu": 8965,
    " subdued": 8966,
    " pace": 8967,
    " Despite": 8968,
    " agents": 8969,
    " Celestial": 8970,
    " billed": 8971,
    " z": 8972,
    " zany": 8973,
    " Lawrence": 8974,
    " Huntington": 8975,
    " discovers": 8976,
    " £": 8977,
    "000": 8978,
    " tax": 8979,
    " taxi": 8980,
    " kind": 8981,
    " kindly": 8982,
    " gives": 8983,
    " impover": 8984,
    " impoverished": 8985,
    " invest": 8986,
    " investing": 8987,
    " cafe": 8988,
    " Cutthroats": 8989,
    " 1971": 8990,
    " west": 8991,
    " western": 8992,
    "themed": 8993,
    " brutality": 8994,
    " betray": 8995,
    " betrayal": 8996,
    " revenge": 8997,
    " imme": 8998,
    " immedi": 8999,
    " immediately": 9000,
    " Civ": 9001,
    " Civil": 9002,
    " alternate": 9003,
    " titles": 9004,
    " Bl": 9005,
    " Blood": 9006,
    " Seek": 9007,
    " Seekers": 9008,
    " Just": 9009,
    " Justice": 9010,
    " Carradine": 9011,
    " Brady": 9012,
    " Darwin": 9013,
    " Joston": 9014,
    " Terez": 9015,
    " Tereza": 9016,
    " Tha": 9017,
    " Thaw": 9018,
    " Adair": 9019,
    " Jameson": 9020,
    " Passage": 9021,
    " Kane": 9022,
    " Forrest": 9023,
    " Tucker": 9024,
    " Adel": 9025,
    " Adele": 9026,
    " Mara": 9027,
    " Estelita": 9028,
    " Rodriguez": 9029,
    " Desert": 9030,
    " Trans": 9031,
    " Transformation": 9032,
    " Nature": 9033,
    " politics": 9034,
    " transformation": 9035,
    " Else": 9036,
    " Harrar": 9037,
    " Express": 9038,
    " Nanni": 9039,
    " Loy": 9040,
    " Nino": 9041,
    " Manfredi": 9042,
    " Marian": 9043,
    " Ainslee": 9044,
    " Cummings": 9045,
    " McC": 9046,
    " McCoy": 9047,
    " Sebastian": 9048,
    " McDermott": 9049,
    " Currier": 9050,
    " Frontier": 9051,
    " Elmer": 9052,
    " Clifton": 9053,
    " Shaff": 9054,
    " Hoerl": 9055,
    " Jones": 9056,
    " Bail": 9057,
    " Bailey": 9058,
    " Milburn": 9059,
    " Pé": 9060,
    " Pére": 9061,
    " Pérez": 9062,
    " Soled": 9063,
    " Soledad": 9064,
    " Jiménez": 9065,
    " Blystone": 9066,
    " Capt": 9067,
    " Captif": 9068,
    " Captifs": 9069,
    " traum": 9070,
    " traumat": 9071,
    " traumatized": 9072,
    " see": 9073,
    " seeing": 9074,
    " Laura": 9075,
    " killed": 9076,
    " twent": 9077,
    " twenty": 9078,
    " ago": 9079,
    " aid": 9080,
    " Yug": 9081,
    " Yugos": 9082,
    " Yugoslav": 9083,
    " Yugoslavia": 9084,
    " leave": 9085,
    " Kos": 9086,
    " Kosov": 9087,
    " Kosovo": 9088,
    "workers": 9089,
    " kid": 9090,
    " kidna": 9091,
    " kidnapped": 9092,
    " Alban": 9093,
    " Albanian": 9094,
    " gang": 9095,
    " mask": 9096,
    " masked": 9097,
    " organ": 9098,
    " Christmas": 9099,
    " Caillou": 9100,
    " Hélène": 9101,
    " Despute": 9102,
    " Desputeaux": 9103,
    "vide": 9104,
    "video": 9105,
    " adventures": 9106,
    " Álvar": 9107,
    " Núñez": 9108,
    " Cabeza": 9109,
    " 1490": 9110,
    " –": 9111,
    " 1557": 9112,
    " explorer": 9113,
    " travers": 9114,
    " traversed": 9115,
    " Narv": 9116,
    " Narvá": 9117,
    " Narváez": 9118,
    " expedit": 9119,
    " expedition": 9120,
    " shaman": 9121,
    " am": 9122,
    " among": 9123,
    " Native": 9124,
    " trib": 9125,
    " tribes": 9126,
    " enco": 9127,
    " encoun": 9128,
    " encounter": 9129,
    " encountered": 9130,
    " helped": 9131,
    " survive": 9132,
    " His": 9133,
    " journey": 9134,
    " 1528": 9135,
    " return": 9136,
    " pub": 9137,
    " published": 9138,
    " 154": 9139,
    " 1542": 9140,
    " Guillermo": 9141,
    " Sheridan": 9142,
    " Diego": 9143,
    " 41": 9144,
    " 63": 9145,
    "rd": 9146,
    " Lynch": 9147,
    " novella": 9148,
    " Cal": 9149,
    " MacLaverty": 9150,
    " Ruba": 9151,
    " Nadda": 9152,
    " brie": 9153,
    " brief": 9154,
    " cat": 9155,
    " catches": 9156,
    " completely": 9157,
    "guard": 9158,
    " Օ": 9159,
    " Օր": 9160,
    " Օրա": 9161,
    " Օրաց": 9162,
    " Օրացո": 9163,
    " Օրացու": 9164,
    " Օրացույ": 9165,
    " Օրացույց": 9166,
    " Atom": 9167,
    " Eg": 9168,
    " Egoyan": 9169,
    " Edi": 9170,
    " Gathegi": 9171,
    " Melora": 9172,
    " Hardin": 9173,
    " Angela": 9174,
    " Sarafyan": 9175,
    " Amendola": 9176,
    "Doc": 9177,
    " Pete": 9178,
    " Kirtley": 9179,
    " Temple": 9180,
    " Jessa": 9181,
    " Zarub": 9182,
    " Zarubica": 9183,
    " Fin": 9184,
    " Finley": 9185,
    "1920": 9186,
    " founder": 9187,
    " editor": 9188,
    " Fash": 9189,
    " Fashion": 9190,
    " Bru": 9191,
    " Bruun": 9192,
    " Natalie": 9193,
    " Nud": 9194,
    " Nudell": 9195,
    " DO": 9196,
    " DOC": 9197,
    " NY": 9198,
    " NYC": 9199,
    " virt": 9200,
    " virtual": 9201,
    " Calais": 9202,
    "Douv": 9203,
    "Douvres": 9204,
    " Boyer": 9205,
    " Anat": 9206,
    " Anatole": 9207,
    " Lit": 9208,
    " Litv": 9209,
    " Litvak": 9210,
    " Lilian": 9211,
    " André": 9212,
    " Roan": 9213,
    " Roanne": 9214,
    " Armand": 9215,
    " reprising": 9216,
    " Dover": 9217,
    " ferry": 9218,
    " location": 9219,
    " Rivier": 9220,
    " Riviera": 9221,
    " interi": 9222,
    " interiors": 9223,
    " Ba": 9224,
    " Babel": 9225,
    " Babels": 9226,
    " Babelsberg": 9227,
    " Herl": 9228,
    " Herlth": 9229,
    " Rö": 9230,
    " Röh": 9231,
    " Röhrig": 9232,
    " Wern": 9233,
    " Werner": 9234,
    " Schl": 9235,
    " Schlich": 9236,
    " Schlichting": 9237,
    " Kau": 9238,
    " Kaust": 9239,
    " Kaustav": 9240,
    " Naray": 9241,
    " Narayan": 9242,
    " Niy": 9243,
    " Niyog": 9244,
    " Niyogi": 9245,
    " Pooja": 9246,
    " Bhatt": 9247,
    " Bhushan": 9248,
    " Fis": 9249,
    " Fishe": 9250,
    " Fisheye": 9251,
    " Network": 9252,
    " priv": 9253,
    " private": 9254,
    " Princ": 9255,
    " Princip": 9256,
    " Principal": 9257,
    " photography": 9258,
    " Originally": 9259,
    " alleged": 9260,
    " cop": 9261,
    " copy": 9262,
    " copyright": 9263,
    " violations": 9264,
    " delay": 9265,
    " delays": 9266,
    " eventual": 9267,
    " ZEE": 9268,
    "Horse": 9269,
    " Wrangler": 9270,
    " Pablo": 9271,
    " portra": 9272,
    " portrait": 9273,
    " residents": 9274,
    " Milp": 9275,
    " Milpill": 9276,
    " Milpillas": 9277,
    " Altos": 9278,
    " Jal": 9279,
    " Jalis": 9280,
    " Jalisco": 9281,
    " gra": 9282,
    " grapp": 9283,
    " grapple": 9284,
    " sudd": 9285,
    " sudden": 9286,
    " wrangler": 9287,
    " alternates": 9288,
    " wide": 9289,
    " landsc": 9290,
    " landscape": 9291,
    " intim": 9292,
    " intimate": 9293,
    " hims": 9294,
    " himself": 9295,
    " asks": 9296,
    " questions": 9297,
    " onscreen": 9298,
    " Grad": 9299,
    " Gradually": 9300,
    " starts": 9301,
    " look": 9302,
    " like": 9303,
    " might": 9304,
    " suic": 9305,
    " suicide": 9306,
    " becom": 9307,
    " becomes": 9308,
    " cle": 9309,
    " clear": 9310,
    " still": 9311,
    " reel": 9312,
    " reeling": 9313,
    " loss": 9314,
    " mysterio": 9315,
    " mysterious": 9316,
    " circum": 9317,
    " circumst": 9318,
    " circumstances": 9319,
    " dem": 9320,
    " demise": 9321,
    " dov": 9322,
    " doveta": 9323,
    " dovetail": 9324,
    " gl": 9325,
    " glob": 9326,
    " global": 9327,
    " globaliz": 9328,
    " globalization": 9329,
    " eff": 9330,
    " effect": 9331,
    " effects": 9332,
    " drop": 9333,
    " far": 9334,
    " farming": 9335,
    " job": 9336,
    " jobs": 9337,
    " population": 9338,
    " exod": 9339,
    " exodus": 9340,
    " expand": 9341,
    " expands": 9342,
    " Week": 9343,
    " \"¿": 9344,
    " el": 9345,
    " recu": 9346,
    " recuerd": 9347,
    " recuerdo": 9348,
    "?\"": 9349,
    " Solit": 9350,
    " Solitude": 9351,
    " Mem": 9352,
    " Memory": 9353,
    "\"),": 9354,
    " broach": 9355,
    " broached": 9356,
    " display": 9357,
    " displays": 9358,
    " dim": 9359,
    " dimens": 9360,
    " dimensions": 9361,
    " slow": 9362,
    " 37": 9363,
    " dur": 9364,
    " duration": 9365,
    " Austin": 9366,
    " Arts": 9367,
    " professor": 9368,
    " Berke": 9369,
    " Denning": 9370,
    " Sheila": 9371,
    " Beth": 9372,
    " Hug": 9373,
    " Hughes": 9374,
    " Buster": 9375,
    " Crabbe": 9376,
    " Wilcox": 9377,
    " Beng": 9378,
    " Bengal": 9379,
    " Bengali": 9380,
    " trilogy": 9381,
    " oth": 9382,
    " others": 9383,
    " Inter": 9384,
    " Intervie": 9385,
    " Interview": 9386,
    " Pad": 9387,
    " Padat": 9388,
    " Padatik": 9389,
    " depicting": 9390,
    " Sevent": 9391,
    " Seventies": 9392,
    " Nax": 9393,
    " Naxal": 9394,
    " Naxalite": 9395,
    " activity": 9396,
    " starv": 9397,
    " starvation": 9398,
    " political": 9399,
    " There": 9400,
    " Crombie": 9401,
    " Anthony": 9402,
    " Rele": 9403,
    " Released": 9404,
    " representative": 9405,
    " rena": 9406,
    " renaiss": 9407,
    " renaissance": 9408,
    " decade": 9409,
    " mainly": 9410,
    " 1920": 9411,
    " Depress": 9412,
    " Depression": 9413,
    " str": 9414,
    " strug": 9415,
    " struggl": 9416,
    " struggling": 9417,
    " breaks": 9418,
    " Caddie": 9419,
    " Barma": 9420,
    " Barmaid": 9421,
    " partly": 9422,
    " fictit": 9423,
    " fictitious": 9424,
    " autobiograph": 9425,
    " autobiography": 9426,
    " Catherine": 9427,
    " Beat": 9428,
    " Beatric": 9429,
    " Beatrice": 9430,
    " Edmond": 9431,
    " Edmonds": 9432,
    " Morse": 9433,
    " local": 9434,
    " Jacki": 9435,
    " Mel": 9436,
    " Melissa": 9437,
    " Ja": 9438,
    " Jaffer": 9439,
    " Bollywood": 9440,
    " taut": 9441,
    " jail": 9442,
    " modern": 9443,
    " reformation": 9444,
    " provo": 9445,
    " provokes": 9446,
    " thoughts": 9447,
    " infus": 9448,
    " infusing": 9449,
    " hope": 9450,
    " good": 9451,
    " slated": 9452,
    "Binda": 9453,
    "Bindaas": 9454,
    " chore": 9455,
    " choreograph": 9456,
    " choreographed": 9457,
    " Jeet": 9458,
    " Basil": 9459,
    " Dearden": 9460,
    " Simmons": 9461,
    " Farrar": 9462,
    " Buzz": 9463,
    " Kulik": 9464,
    " Susan": 9465,
    " Dey": 9466,
    " Bottoms": 9467,
    " Jonel": 9468,
    " Jonelle": 9469,
    " Lani": 9470,
    " net": 9471,
    " network": 9472,
    " even": 9473,
    " evening": 9474,
    " repeating": 9475,
    " vario": 9476,
    " various": 9477,
    " times": 9478,
    " Imp": 9479,
    " Imprison": 9480,
    " Imprisoned": 9481,
    " Cage": 9482,
    " Las": 9483,
    " Palmas": 9484,
    " School": 9485,
    " Commer": 9486,
    " Commerce": 9487,
    " Kirby": 9488,
    " ju": 9489,
    " juven": 9490,
    " juvenile": 9491,
    " det": 9492,
    " detent": 9493,
    " detention": 9494,
    " center": 9495,
    " Many": 9496,
    " ext": 9497,
    " extras": 9498,
    " Kelly": 9499,
    " Hil": 9500,
    " Hilary": 9501,
    " Christy": 9502,
    " Carl": 9503,
    " Carlson": 9504,
    " Romano": 9505,
    " viewers": 9506,
    " Casper": 9507,
    " Meets": 9508,
    " Wendy": 9509,
    " Tech": 9510,
    " Techn": 9511,
    " Technicol": 9512,
    " Technicolor": 9513,
    " Vivien": 9514,
    " Leigh": 9515,
    " Claude": 9516,
    " Rains": 9517,
    " Desmond": 9518,
    " form": 9519,
    " formal": 9520,
    "1901": 9521,
    " Independent": 9522,
    " Producers": 9523,
    " Distribut": 9524,
    " Distributors": 9525,
    " Up": 9526,
    " Upon": 9527,
    " failed": 9528,
    " earn": 9529,
    " coloss": 9530,
    " colossal": 9531,
    " Bryan": 9532,
    "純喫": 9533,
    "純喫茶": 9534,
    "純喫茶磯": 9535,
    "純喫茶磯辺": 9536,
    " Junk": 9537,
    " Junkissa": 9538,
    " Keisuke": 9539,
    " Yoshida": 9540,
    " Narrative": 9541,
    " Feat": 9542,
    " Feature": 9543,
    " Comp": 9544,
    " Compet": 9545,
    " Competition": 9546,
    " Haw": 9547,
    " Hawai": 9548,
    " Hawaii": 9549,
    " Plays": 9550,
    " Herself": 9551,
    " Caitlin": 9552,
    " artist": 9553,
    " Neo": 9554,
    "Fut": 9555,
    "Futu": 9556,
    "Futurist": 9557,
    "Futurists": 9558,
    " fictional": 9559,
    " fictionalized": 9560,
    " versions": 9561,
    " thems": 9562,
    " themsel": 9563,
    " themselves": 9564,
    " Milano": 9565,
    " calib": 9566,
    " calibro": 9567,
    " cali": 9568,
    " caliber": 9569,
    "';": 9570,
    " Cont": 9571,
    " Contract": 9572,
    "pol": 9573,
    "poliziottes": 9574,
    "poliziottesco": 9575,
    " Fernando": 9576,
    " Gastone": 9577,
    " Moschin": 9578,
    " Adorf": 9579,
    " Bouc": 9580,
    " Bouchet": 9581,
    " Philippe": 9582,
    " Leroy": 9583,
    " Wolff": 9584,
    " Luigi": 9585,
    " Pistilli": 9586,
    " Lionel": 9587,
    " Stander": 9588,
    " takes": 9589,
    " Gior": 9590,
    " Giorgio": 9591,
    " Scer": 9592,
    " Scerban": 9593,
    " Scerbanen": 9594,
    " Scerbanenco": 9595,
    " Enri": 9596,
    " Enriquez": 9597,
    " Bac": 9598,
    " Bacalov": 9599,
    " prog": 9600,
    " progress": 9601,
    " progressive": 9602,
    " band": 9603,
    " Osanna": 9604,
    " Caliber": 9605,
    " Milie": 9606,
    " Milieu": 9607,
    " Trilogy": 9608,
    " poliziottes": 9609,
    " poliziotteschi": 9610,
    " mala": 9611,
    " ord": 9612,
    " ordina": 9613,
    " Conne": 9614,
    " Connection": 9615,
    " 1973": 9616,
    " Firebrand": 9617,
    " Benton": 9618,
    " Chen": 9619,
    " Cheney": 9620,
    " Butler": 9621,
    " Royal": 9622,
    " Monte": 9623,
    " Hale": 9624,
    " Lorna": 9625,
    " Tyr": 9626,
    " Tyrrell": 9627,
    " Trist": 9628,
    " Tristram": 9629,
    " Coffin": 9630,
    " LeRoy": 9631,
    "NF": 9632,
    "NFB": 9633,
    " postwar": 9634,
    " Carries": 9635,
    " Bairstow": 9636,
    " Humb": 9637,
    " Humble": 9638,
    " Wilkin": 9639,
    " Wilkinson": 9640,
    " Newman": 9641,
    " account": 9642,
    " camp": 9643,
    " Cadets": 9644,
    " vac": 9645,
    " vacances": 9646,
    " black": 9647,
    " Donaldson": 9648,
    " Robin": 9649,
    " Williams": 9650,
    " Robbins": 9651,
    " centers": 9652,
    " salesman": 9653,
    "Brien": 9654,
    " consumed": 9655,
    " turm": 9656,
    " turmo": 9657,
    " turmoil": 9658,
    " dealers": 9659,
    " dealersh": 9660,
    " dealership": 9661,
    " host": 9662,
    " hostage": 9663,
    " craz": 9664,
    " crazed": 9665,
    " mot": 9666,
    " motor": 9667,
    " motorcy": 9668,
    " motorcyc": 9669,
    " motorcycli": 9670,
    " motorcyclist": 9671,
    " above": 9672,
    "15": 9673,
    " Calloway": 9674,
    " Jitterbug": 9675,
    " 1935": 9676,
    "later": 9677,
    " sold": 9678,
    " Corporation": 9679,
    " reissu": 9680,
    " reissued": 9681,
    " Kino": 9682,
    " Rh": 9683,
    " Rhy": 9684,
    " Rhyth": 9685,
    " Rhythm": 9686,
    " Vol": 9687,
    " Of": 9688,
    " Jaz": 9689,
    " Jazz": 9690,
    " Blues": 9691,
    " [": 9692,
    "kaʃ": 9693,
    "kaʃe": 9694,
    "]),": 9695,
    " Hidd": 9696,
    " Hidden": 9697,
    " upp": 9698,
    " upper": 9699,
    "middle": 9700,
    "cl": 9701,
    "class": 9702,
    " coup": 9703,
    " couple": 9704,
    " terr": 9705,
    " terroris": 9706,
    " terrorised": 9707,
    " anonym": 9708,
    " anonymous": 9709,
    " porch": 9710,
    " seem": 9711,
    " surveill": 9712,
    " surveillance": 9713,
    " Clues": 9714,
    " videos": 9715,
    " point": 9716,
    " resist": 9717,
    " resistance": 9718,
    " par": 9719,
    " parent": 9720,
    " parents": 9721,
    " adop": 9722,
    " adopting": 9723,
    " orphan": 9724,
    " away": 9725,
    "grown": 9726,
    " Bénichou": 9727,
    " Shot": 9728,
    " Vi": 9729,
    " Vienna": 9730,
    " Austria": 9731,
    " Italy": 9732,
    " mind": 9733,
    " conce": 9734,
    " concept": 9735,
    " exploring": 9736,
    " When": 9737,
    " learned": 9738,
    " gov": 9739,
    " govern": 9740,
    " government": 9741,
    " decades": 9742,
    "long": 9743,
    " den": 9744,
    " denial": 9745,
    " Se": 9746,
    " Seine": 9747,
    " River": 9748,
    " massacre": 9749,
    " critical": 9750,
    " acclaim": 9751,
    " performances": 9752,
    " amb": 9753,
    " ambig": 9754,
    " ambiguit": 9755,
    " ambiguities": 9756,
    " rais": 9757,
    " raised": 9758,
    " discuss": 9759,
    " discussion": 9760,
    " interpreted": 9761,
    " allegory": 9762,
    " memory": 9763,
    " state": 9764,
    " statement": 9765,
    " colon": 9766,
    " colonial": 9767,
    " colonialism": 9768,
    " presented": 9769,
    " explicitly": 9770,
    " reveal": 9771,
    " sends": 9772,
    " secondary": 9773,
    " import": 9774,
    " importance": 9775,
    " exploration": 9776,
    " question": 9777,
    " viewer": 9778,
    " interpretation": 9779,
    " honours": 9780,
    " contro": 9781,
    " controvers": 9782,
    " controversially": 9783,
    " disqu": 9784,
    " disqual": 9785,
    " disqualif": 9786,
    " disqualified": 9787,
    " since": 9788,
    " BBC": 9789,
    " Greatest": 9790,
    " fant": 9791,
    " fantas": 9792,
    " fantasy": 9793,
    " comedian": 9794,
    " Chris": 9795,
    " Both": 9796,
    " worked": 9797,
    " Let": 9798,
    " Letter": 9799,
    " Letterman": 9800,
    "creat": 9801,
    "creating": 9802,
    " sitcom": 9803,
    " Get": 9804,
    " Life": 9805,
    " Conquest": 9806,
    " 1952": 9807,
    " Cornel": 9808,
    " Wilde": 9809,
    " Teresa": 9810,
    " 184": 9811,
    " 1840": 9812,
    " consp": 9813,
    " conspira": 9814,
    " conspiracy": 9815,
    " Hid": 9816,
    " Hidal": 9817,
    " Hidalgo": 9818,
    " Californ": 9819,
    " Californi": 9820,
    " Californios": 9821,
    " deliv": 9822,
    " deliver": 9823,
    "Mexican": 9824,
    " territ": 9825,
    " territory": 9826,
    " Nig": 9827,
    " Niger": 9828,
    " Nigerien": 9829,
    " Oumarou": 9830,
    " Ganda": 9831,
    " Dipl": 9832,
    " Diplom": 9833,
    " Diploma": 9834,
    "roman": 9835,
    "romance": 9836,
    " Star": 9837,
    " Dust": 9838,
    " reissue": 9839,
    " Loeb": 9840,
    " Loos": 9841,
    " Sale": 9842,
    " Frazee": 9843,
    " Baker": 9844,
    " Victor": 9845,
    " McLaglen": 9846,
    " ret": 9847,
    " retiring": 9848,
    " acting": 9849,
    " wake": 9850,
    " mart": 9851,
    " martial": 9852,
    " arts": 9853,
    " Lou": 9854,
    " Ferrigno": 9855,
    " Judd": 9856,
    " Nelson": 9857,
    " girls": 9858,
    " research": 9859,
    " thing": 9860,
    " titled": 9861,
    " Ret": 9862,
    " Return": 9863,
    " mur": 9864,
    " murders": 9865,
    " posing": 9866,
    " Tamil": 9867,
    " police": 9868,
    " proced": 9869,
    " procedur": 9870,
    " procedural": 9871,
    " Ano": 9872,
    " Anoop": 9873,
    " Panick": 9874,
    " Panicker": 9875,
    " Abhilash": 9876,
    " Pillai": 9877,
    " Riy": 9878,
    " Riyth": 9879,
    " Riythv": 9880,
    " Riythvik": 9881,
    " Riythvika": 9882,
    " Mun": 9883,
    " Munish": 9884,
    " Munishkan": 9885,
    " Munishkanth": 9886,
    " Thrig": 9887,
    " Thrigun": 9888,
    " Harish": 9889,
    " Uth": 9890,
    " Uthaman": 9891,
    " Ath": 9892,
    " Athul": 9893,
    " Athulya": 9894,
    " Ravi": 9895,
    " Ran": 9896,
    " Ranjin": 9897,
    " cinem": 9898,
    " cinematography": 9899,
    " handled": 9900,
    " Ara": 9901,
    " Aravind": 9902,
    " done": 9903,
    " Lok": 9904,
    " Lokesh": 9905,
    " Hotstar": 9906,
    " Meter": 9907,
    " Eliason": 9908,
    " Jacc": 9909,
    " Jaccard": 9910,
    " Morrison": 9911,
    " Richardson": 9912,
    " Rich": 9913,
    " Zari": 9914,
    " Zariwn": 9915,
    " Zariwny": 9916,
    " Samuel": 9917,
    " Gage": 9918,
    " Golightly": 9919,
    " Daddario": 9920,
    " Nad": 9921,
    " Nadine": 9922,
    " Cro": 9923,
    " Croc": 9924,
    " Crocker": 9925,
    " Dustin": 9926,
    " IFC": 9927,
    " Midnight": 9928,
    " acts": 9929,
    " underperfor": 9930,
    " underperformed": 9931,
    " Nich": 9932,
    " Nichol": 9933,
    " Nicholas": 9934,
    " Kendall": 9935,
    " Dale": 9936,
    " Mia": 9937,
    " Kirshner": 9938,
    " Beach": 9939,
    " Gregory": 9940,
    " Hi": 9941,
    " Hij": 9942,
    " Hijack": 9943,
    "'d": 9944,
    " Aut": 9945,
    " Autop": 9946,
    " Autopil": 9947,
    " Autopilot": 9948,
    " home": 9949,
    " shortly": 9950,
    " reun": 9951,
    " reunited": 9952,
    " Craig": 9953,
    " Sheffer": 9954,
    " Py": 9955,
    " Pyper": 9956,
    " tog": 9957,
    " toget": 9958,
    " together": 9959,
    " Roadf": 9960,
    " Roadflower": 9961,
    " actor": 9962,
    " Kopsa": 9963,
    "trans": 9964,
    "translation": 9965,
    "Manh": 9966,
    "Manhunt": 9967,
    " Riccardo": 9968,
    " Freda": 9969,
    " Eleonora": 9970,
    " Rossi": 9971,
    " Drag": 9972,
    " Drago": 9973,
    " Fur": 9974,
    " Furneaux": 9975,
    " Um": 9976,
    " Umberto": 9977,
    " Ors": 9978,
    " Orsini": 9979,
    " quién": 9980,
    " lucha": 9981,
    " Gilberto": 9982,
    " Martínez": 9983,
    " Solares": 9984,
    " dou": 9985,
    " double": 9986,
    " Viruta": 9987,
    " Cap": 9988,
    " Capul": 9989,
    " Capulina": 9990,
    " Gas": 9991,
    " Gaspar": 9992,
    " Henaine": 9993,
    " Duval": 9994,
    " Bell": 9995,
    " 籠": 9996,
    " 籠民": 9997,
    " 1992": 9998,
    " sat": 9999,
    " satir": 10000,
    " satirical": 10001,
    " Jacob": 10002,
    " Cheung": 10003,
    " held": 10004,
    " vs": 10005,
    " Benvenuti": 10006,
    " Cox": 10007,
    " Isabelle": 10008,
    " Huppert": 10009,
    " Malle": 10010,
    " Philipp": 10011,
    " Philippine": 10012,
    " Lino": 10013,
    " Brocka": 10014,
    " Bib": 10015,
    " Biblic": 10016,
    " Biblical": 10017,
    " Phillip": 10018,
    " sons": 10019,
    " vie": 10020,
    " views": 10021,
    " sib": 10022,
    " sibling": 10023,
    " rivalry": 10024,
    " violent": 10025,
    " blo": 10026,
    " bloo": 10027,
    " bloody": 10028,
    " inheritance": 10029,
    " fav": 10030,
    " favor": 10031,
    " favorit": 10032,
    " favoritism": 10033,
    " younger": 10034,
    " son": 10035,
    " Zita": 10036,
    " fian": 10037,
    " fianc": 10038,
    " fiancée": 10039,
    " Manila": 10040,
    " Cecille": 10041,
    " Cast": 10042,
    " Castillo": 10043,
    " Rina": 10044,
    " house": 10045,
    " helper": 10046,
    " Delg": 10047,
    " Delgad": 10048,
    " Delgado": 10049,
    " Becky": 10050,
    " Su": 10051,
    " Suer": 10052,
    " Suerte": 10053,
    " served": 10054,
    " Filip": 10055,
    " Filipino": 10056,
    " Sebast": 10057,
    " Sebasti": 10058,
    " Sebastián": 10059,
    " accol": 10060,
    " accolades": 10061,
    "giv": 10062,
    "giving": 10063,
    " bodi": 10064,
    " bodies": 10065,
    " remast": 10066,
    " remastered": 10067,
    " ABS": 10068,
    "CB": 10069,
    "CBN": 10070,
    " Rest": 10071,
    " Restor": 10072,
    " Restoration": 10073,
    " Dig": 10074,
    " Digit": 10075,
    " Digital": 10076,
    " Lab": 10077,
    " Chil": 10078,
    " Chilean": 10079,
    " TVN": 10080,
    " Arregui": 10081,
    " Francis": 10082,
    " Francisco": 10083,
    " antag": 10084,
    " antagonist": 10085,
    " Dancer": 10086,
    " Sankaran": 10087,
    " Anuradha": 10088,
    " Soman": 10089,
    " Santhosh": 10090,
    " Sathaar": 10091,
    " Shyam": 10092,
    " Anil": 10093,
    " Kap": 10094,
    " Kapoor": 10095,
    " Rani": 10096,
    " Mukerji": 10097,
    " Manish": 10098,
    " Manisha": 10099,
    " Koirala": 10100,
    " Sudhir": 10101,
    " Telugu": 10102,
    " Chood": 10103,
    " Choodal": 10104,
    " Choodalani": 10105,
    " Vun": 10106,
    " Vundi": 10107,
    " Dominique": 10108,
    " Sanda": 10109,
    " Robards": 10110,
    " Cas": 10111,
    " Casab": 10112,
    " Casablan": 10113,
    " Casablanc": 10114,
    " Casablanca": 10115,
    "follow": 10116,
    "following": 10117,
    " Ives": 10118,
    " 1977": 10119,
    " Buff": 10120,
    " Buffalo": 10121,
    " 1983": 10122,
    " prisoners": 10123,
    " decide": 10124,
    " esc": 10125,
    " escape": 10126,
    "female": 10127,
    " Mill": 10128,
    " Milling": 10129,
    " Erik": 10130,
    " Estrada": 10131,
    " Barathy": 10132,
    "thriller": 10133,
    " directing": 10134,
    " Yuen": 10135,
    "Carruc": 10136,
    "Carrucan": 10137,
    " Érik": 10138,
    " Canuel": 10139,
    " Cadavres": 10140,
    " François": 10141,
    " Barc": 10142,
    " Barcelo": 10143,
    " trag": 10144,
    " tragic": 10145,
    " tragicom": 10146,
    " tragicomedy": 10147,
    " fe": 10148,
    " feel": 10149,
    " feelings": 10150,
    " unite": 10151,
    " sister": 10152,
    " noth": 10153,
    " nothing": 10154,
    " Mad": 10155,
    " Madeleine": 10156,
    " Carroll": 10157,
    " MacMurray": 10158,
    " weal": 10159,
    " wealth": 10160,
    " wealthy": 10161,
    " marries": 10162,
    " win": 10163,
    " Ital": 10164,
    " Italia": 10165,
    " Montréal": 10166,
    " docud": 10167,
    " docudrama": 10168,
    " Tana": 10169,
    " Focus": 10170,
    " Focusing": 10171,
    " Montreal": 10172,
    " Queb": 10173,
    " Quebec": 10174,
    " profil": 10175,
    " profiles": 10176,
    " history": 10177,
    " arch": 10178,
    " archival": 10179,
    " foot": 10180,
    " footage": 10181,
    " reen": 10182,
    " reenact": 10183,
    " reenactment": 10184,
    " reenactments": 10185,
    " events": 10186,
    " acted": 10187,
    " Curzi": 10188,
    " Nardi": 10189,
    "Ouim": 10190,
    "Ouimet": 10191,
    "Mol": 10192,
    "Molson": 10193,
    " québ": 10194,
    " québé": 10195,
    " québéco": 10196,
    " québécoise": 10197,
    " criti": 10198,
    " critiques": 10199,
    " ciné": 10200,
    " cinéma": 10201,
    " Scheming": 10202,
    " Weber": 10203,
    " Gia": 10204,
    " Mante": 10205,
    " Mantegna": 10206,
    " Daniels": 10207,
    " Seifer": 10208,
    " Seiferth": 10209,
    " Devon": 10210,
    " Werkheiser": 10211,
    " Giov": 10212,
    " Giovanni": 10213,
    " Tur": 10214,
    " Turin": 10215,
    " anc": 10216,
    " ancient": 10217,
    " Sic": 10218,
    " Sicily": 10219,
    " Cir": 10220,
    " Cirta": 10221,
    " Punic": 10222,
    "218": 10223,
    "202": 10224,
    " melod": 10225,
    " melodramatic": 10226,
    " abdu": 10227,
    " abducted": 10228,
    " eruption": 10229,
    " Mount": 10230,
    " Etna": 10231,
    " heino": 10232,
    " heinous": 10233,
    " rel": 10234,
    " relig": 10235,
    " religious": 10236,
    " ritual": 10237,
    " rituals": 10238,
    " alp": 10239,
    " alpine": 10240,
    " tre": 10241,
    " trek": 10242,
    " Hanni": 10243,
    " Hannib": 10244,
    " Hannibal": 10245,
    " Archimed": 10246,
    " Archimedes": 10247,
    " defeat": 10248,
    " fle": 10249,
    " fleet": 10250,
    " Sie": 10251,
    " Siege": 10252,
    " Sy": 10253,
    " Syra": 10254,
    " Syrac": 10255,
    " Syracuse": 10256,
    " Scip": 10257,
    " Scipio": 10258,
    " maneu": 10259,
    " maneuver": 10260,
    " maneuvering": 10261,
    " Afric": 10262,
    " Africa": 10263,
    " Apart": 10264,
    " classic": 10265,
    " terms": 10266,
    " notable": 10267,
    "runn": 10268,
    "running": 10269,
    " Macist": 10270,
[...]
